{"1": "Ā", "2": "ā", "3": "Ă", "4": "ă", "5": "Ą", "6": "ą", "7": "Ć", "8": "ć", "9": "Ĉ", "10": "ĉ", "11": "Ċ", "12": "ċ", "13": "Č", "14": "č", "15": "Ď", "16": "ď", "17": "Đ", "18": "đ", "19": "Ē", "20": "ē", "21": "Ĕ", "22": "ĕ", "23": "Ė", "24": "ė", "25": "Ę", "26": "ę", "27": "Ě", "28": "ě", "29": "Ĝ", "30": "ĝ", "31": "Ğ", "32": "ğ", "33": "Ġ", "34": "!", "35": "\"", "36": "#", "37": "$", "38": "%", "39": "&", "40": "'", "41": "(", "42": ")", "43": "*", "44": "+", "45": ",", "46": "-", "47": ".", "48": "/", "49": "0", "50": "1", "51": "2", "52": "3", "53": "4", "54": "5", "55": "6", "56": "7", "57": "8", "58": "9", "59": ":", "60": ";", "61": "<", "62": "=", "63": ">", "64": "?", "65": "@", "66": "A", "67": "B", "68": "C", "69": "D", "70": "E", "71": "F", "72": "G", "73": "H", "74": "I", "75": "J", "76": "K", "77": "L", "78": "M", "79": "N", "80": "O", "81": "P", "82": "Q", "83": "R", "84": "S", "85": "T", "86": "U", "87": "V", "88": "W", "89": "X", "90": "Y", "91": "Z", "92": "[", "93": "\\", "94": "]", "95": "^", "96": "_", "97": "`", "98": "a", "99": "b", "100": "c", "101": "d", "102": "e", "103": "f", "104": "g", "105": "h", "106": "i", "107": "j", "108": "k", "109": "l", "110": "m", "111": "n", "112": "o", "113": "p", "114": "q", "115": "r", "116": "s", "117": "t", "118": "u", "119": "v", "120": "w", "121": "x", "122": "y", "123": "z", "124": "{", "125": "|", "126": "}", "127": "~", "128": "ġ", "129": "Ģ", "130": "ģ", "131": "Ĥ", "132": "ĥ", "133": "Ħ", "134": "ħ", "135": "Ĩ", "136": "ĩ", "137": "Ī", "138": "ī", "139": "Ĭ", "140": "ĭ", "141": "Į", "142": "į", "143": "İ", "144": "ı", "145": "Ĳ", "146": "ĳ", "147": "Ĵ", "148": "ĵ", "149": "Ķ", "150": "ķ", "151": "ĸ", "152": "Ĺ", "153": "ĺ", "154": "Ļ", "155": "ļ", "156": "Ľ", "157": "ľ", "158": "Ŀ", "159": "ŀ", "160": "Ł", "161": "ł", "162": "¡", "163": "¢", "164": "£", "165": "¤", "166": "¥", "167": "¦", "168": "§", "169": "¨", "170": "©", "171": "ª", "172": "«", "173": "¬", "174": "Ń", "175": "®", "176": "¯", "177": "°", "178": "±", "179": "²", "180": "³", "181": "´", "182": "µ", "183": "¶", "184": "·", "185": "¸", "186": "¹", "187": "º", "188": "»", "189": "¼", "190": "½", "191": "¾", "192": "¿", "193": "À", "194": "Á", "195": "Â", "196": "Ã", "197": "Ä", "198": "Å", "199": "Æ", "200": "Ç", "201": "È", "202": "É", "203": "Ê", "204": "Ë", "205": "Ì", "206": "Í", "207": "Î", "208": "Ï", "209": "Ð", "210": "Ñ", "211": "Ò", "212": "Ó", "213": "Ô", "214": "Õ", "215": "Ö", "216": "×", "217": "Ø", "218": "Ù", "219": "Ú", "220": "Û", "221": "Ü", "222": "Ý", "223": "Þ", "224": "ß", "225": "à", "226": "á", "227": "â", "228": "ã", "229": "ä", "230": "å", "231": "æ", "232": "ç", "233": "è", "234": "é", "235": "ê", "236": "ë", "237": "ì", "238": "í", "239": "î", "240": "ï", "241": "ð", "242": "ñ", "243": "ò", "244": "ó", "245": "ô", "246": "õ", "247": "ö", "248": "÷", "249": "ø", "250": "ù", "251": "ú", "252": "û", "253": "ü", "254": "ý", "255": "þ", "256": "ÿ", "0": "<|endoftext|>", "257": "Ġt", "258": "Ġa", "259": "he", "260": "in", "261": "re", "262": "Ġthe", "263": "on", "264": "er", "265": "Ġs", "266": "Ġw", "267": "at", "268": "Ġo", "269": "en", "270": "Ġc", "271": "it", "272": "is", "273": "an", "274": "or", "275": "Ġb", "276": "es", "277": "ed", "278": "Ġf", "279": "ing", "280": "Ġp", "281": "ou", "282": "Ġan", "283": "al", "284": "Ġto", "285": "ar", "286": "Ġm", "287": "Ġin", "288": "Ġof", "289": "Ġh", "290": "Ġd", "291": "âĢ", "292": "as", "293": "ic", "294": "Ġand", "295": "Ġth", "296": "le", "297": "om", "298": "ion", "299": "ll", "300": "ent", "301": "Ġn", "302": "Ġl", "303": "Ġre", "304": "st", "305": "ve", "306": "Ġe", "307": "ly", "308": "ro", "309": "Ġbe", "310": "Ġg", "311": "id", "312": "ut", "313": "ac", "314": "ot", "315": "ĠT", "316": "ĠI", "317": "Ġthat", "318": "Ġon", "319": "ay", "320": "ĠS", "321": "Ġis", "322": "et", "323": "im", "324": "am", "325": "ad", "326": "ow", "327": "se", "328": "ig", "329": "Ġfor", "330": "âĢĻ", "331": "ĠA", "332": "ver", "333": "ur", "334": "ct", "335": "ld", "336": "ĠC", "337": "Ġu", "338": "Ġst", "339": "Ġy", "340": "Ġit", "341": "Ġhe", "342": "ir", "343": "ation", "344": "ith", "345": "Ġwh", "346": "ĠM", "347": "ce", "348": "ter", "349": "ol", "350": "Ġwe", "351": "il", "352": "Ġwith", "353": "Ġas", "354": "ĠB", "355": "ch", "356": "ill", "357": "nd", "358": "ĠP", "359": "Ġwas", "360": "ers", "361": "Ġyou", "362": "ke", "363": "ĠâĢ", "364": "Ġcon", "365": "Ġde", "366": "Ġr", "367": "her", "368": "if", "369": "ate", "370": "ag", "371": "Ġat", "372": "Ġha", "373": "ĠW", "374": "Ġse", "375": "ĠH", "376": "ore", "377": "Ġpro", "378": "ul", "379": "pp", "380": "ment", "381": "ri", "382": "Ġare", "383": "ĠD", "384": "Ġ1", "385": "us", "386": "est", "387": "ist", "388": "Ġcom", "389": "and", "390": "ĠR", "391": "op", "392": "ain", "393": "ĠThe", "394": "Ġ2", "395": "igh", "396": "rom", "397": "Ġ(", "398": "ort", "399": "od", "400": "Ġne", "401": "ĠF", "402": "um", "403": "un", "404": "Ġex", "405": "res", "406": "ab", "407": "âĢĿ", "408": "Ġnot", "409": "ĠN", "410": "Ġv", "411": "ess", "412": "Ġhave", "413": "ity", "414": "em", "415": "ould", "416": "Ġor", "417": "th", "418": "Ġby", "419": "os", "420": "ant", "421": "ĠG", "422": "ive", "423": "Ġfrom", "424": "Ġal", "425": "el", "426": "'s", "427": "oc", "428": "art", "429": "Ġsu", "430": "ĠL", "431": "Ġsh", "432": "Ġthis", "433": "nt", "434": "qu", "435": "ight", "436": "pe", "437": "ust", "438": "Ġle", "439": "ies", "440": "ĠE", "441": "end", "442": "Ġch", "443": "Ġsa", "444": "out", "445": "Ġab", "446": "The", "447": "all", "448": "ie", "449": "ack", "450": "red", "451": "00", "452": "ĠâĢľ", "453": "Ġhas", "454": "ally", "455": "ĠJ", "456": "Ġpl", "457": "Ġgo", "458": "ard", "459": "iv", "460": "Ġhis", "461": "ome", "462": "ap", "463": "ost", "464": "gh", "465": "ear", "466": "ĠO", "467": "Ġtr", "468": "our", "469": "ast", "470": "Ġj", "471": "ak", "472": "ud", "473": "Ġdo", "474": "Ġthey", "475": "Ġbut", "476": "Ġwor", "477": "rou", "478": "Ġcan", "479": "ge", "480": "Ġwill", "481": "Ġsaid", "482": "Ġwhe", "483": "ĠU", "484": "Ġk", "485": "ich", "486": "Ġall", "487": "ok", "488": "Ġ\"", "489": "ide", "490": "Ġwho", "491": "Ġint", "492": "ame", "493": "ans", "494": "ther", "495": "ial", "496": "Ġout", "497": "ff", "498": "Ġtheir", "499": "ong", "500": "ect", "501": "pl", "502": "ice", "503": "ure", "504": "pt", "505": "one", "506": "Ġmore", "507": "age", "508": "ions", "509": "act", "510": "ike", "511": "Ġme", "512": "Ġup", "513": "ous", "514": "ine", "515": "Ġad", "516": "Ġabout", "517": "ated", "518": "ra", "519": "ber", "520": "Ġone", "521": "Ġwere", "522": "Ġso", "523": "Ġus", "524": "ime", "525": "og", "526": "ĠK", "527": "ep", "528": "ia", "529": "Ġhad", "530": "are", "531": "ub", "532": "cc", "533": "Ġwould", "534": "Ġcl", "535": "Ġ20", "536": "Ġim", "537": "Ġwhich", "538": "ind", "539": "ue", "540": "ake", "541": "Ġcont", "542": "iz", "543": "very", "544": "Ġag", "545": "Ġte", "546": "Ġoff", "547": "Ġcomp", "548": "Ġun", "549": "Ġbeen", "550": "ĠSt", "551": "so", "552": "Ġen", "553": "per", "554": "ign", "555": "au", "556": "ĠTh", "557": "ary", "558": "ace", "559": "Ġyear", "560": "ip", "561": "ew", "562": "Ġlike", "563": "ere", "564": "ven", "565": "ook", "566": "Ġinc", "567": "ays", "568": "Ġman", "569": "Ġpe", "570": "ry", "571": "ose", "572": "Ġres", "573": "able", "574": "ite", "575": "Ġper", "576": "ass", "577": "ord", "578": "Ġsp", "579": "ire", "580": "ĠIn", "581": "Ġother", "582": "mer", "583": "Ġsome", "584": "ile", "585": "ib", "586": "ence", "587": "ople", "588": "Ġ201", "589": "ks", "590": "ations", "591": "Ġover", "592": "ical", "593": "Ġthere", "594": "ress", "595": "Ġdis", "596": "ult", "597": "int", "598": "Ġnew", "599": "own", "600": "Ġalso", "601": "Ġthan", "602": "Ġar", "603": "Ġbec", "604": "ru", "605": "Ġthem", "606": "ance", "607": "ount", "608": "ough", "609": "Ġapp", "610": "port", "611": "ail", "612": "Ġpart", "613": "Ġyour", "614": "Ġwhen", "615": "ree", "616": "Ġwhat", "617": "orm", "618": "ond", "619": "Ġpeople", "620": "fter", "621": "Ġsc", "622": "ĠCh", "623": "av", "624": "ase", "625": "Ġqu", "626": "Ġany", "627": "Ġjust", "628": "Ġits", "629": "ĠY", "630": "ach", "631": "Ġtime", "632": "ĠIt", "633": "Ġkn", "634": "Ġher", "635": "Ġ3", "636": "ens", "637": "lic", "638": "Ġrec", "639": "reat", "640": "Ġmy", "641": "Ġget", "642": "Ġif", "643": "ĠV", "644": "ian", "645": ".âĢĿ", "646": "Ġinto", "647": "ound", "648": "Ġwork", "649": "Ġtw", "650": "irst", "651": "vel", "652": "ction", "653": "Ġno", "654": "du", "655": "ings", "656": "ory", "657": "ick", "658": "ors", "659": "Ġour", "660": "ition", "661": "ident", "662": "ob", "663": "Ġ-", "664": "Ġpre", "665": "ove", "666": "Ġplay", "667": "ang", "668": "ink", "669": "ause", "670": "wn", "671": "te", "672": "amp", "673": "ade", "674": "hing", "675": "ates", "676": "ark", "677": "Ġro", "678": "Ġpol", "679": "Ġshe", "680": "vers", "681": "Ġco", "682": ",âĢĿ", "683": "Ġafter", "684": "ne", "685": "Ġfirst", "686": "Ġcould", "687": "Ġhow", "688": "ĠHe", "689": "Ġ19", "690": "ious", "691": "nder", "692": "ild", "693": "Ġacc", "694": "Ġhim", "695": "aw", "696": "'t", "697": "ons", "698": "Ġpo", "699": "Ġonly", "700": "Ġfe", "701": "Ġatt", "702": "ict", "703": "hed", "704": "Ġpr", "705": "Ġtwo", "706": "rit", "707": "ov", "708": "ish", "709": "Ġcomm", "710": "âĢľ", "711": "form", "712": "Ġspe", "713": "Ġact", "714": "we", "715": "erv", "716": "Ġbl", "717": "ft", "718": "Ġbet", "719": "Ġdec", "720": ".\"", "721": "ning", "722": "Ġback", "723": "Ġmost", "724": "ces", "725": "ood", "726": "ck", "727": "ĠâĢĵ", "728": "Ġam", "729": "oy", "730": "Ġdid", "731": "rough", "732": "iff", "733": "ater", "734": "round", "735": "Ġagain", "736": "Ġ4", "737": "ual", "738": "day", "739": "ise", "740": "Ġunder", "741": "Ġdes", "742": "Ġwant", "743": "ull", "744": "sel", "745": "Ġcons", "746": "ĠâĢĶ", "747": "..", "748": "Ġbecause", "749": "Ġnow", "750": "lud", "751": "ents", "752": "Ġyears", "753": "man", "754": "tern", "755": "ublic", "756": "ec", "757": "Ġneed", "758": "Ġeven", "759": "Ġ$", "760": "iss", "761": "Ġinv", "762": "Ġknow", "763": "ĠWe", "764": "Ġsee", "765": "ments", "766": "ced", "767": "Ġadd", "768": ",\"", "769": "ting", "770": "old", "771": "Ġind", "772": "Ġsec", "773": "fore", "774": "uch", "775": "Ġevery", "776": "urn", "777": "Ġ5", "778": "Ġsupp", "779": "Ġmake", "780": "pect", "781": "ĠUn", "782": "Ġem", "783": "Ġthese", "784": "ock", "785": "oll", "786": "Ġwhere", "787": "ject", "788": "In", "789": "ational", "790": "vern", "791": "xt", "792": "Ġbu", "793": "Ġlook", "794": "Th", "795": "ĠAnd", "796": "oss", "797": "Ġdon", "798": "Ġev", "799": "ump", "800": "ating", "801": "Ġway", "802": "Ġbeing", "803": "Ġrem", "804": "Ġright", "805": "ily", "806": "Ġmay", "807": "ng", "808": "row", "809": "lect", "810": "iew", "811": "Ġthen", "812": "Ġmany", "813": "Ġ[", "814": "Ġdiff", "815": "Ġdef", "816": "ason", "817": "Ġrel", "818": "Ġcall", "819": "ĠBut", "820": "ĠTr", "821": "ont", "822": "ied", "823": "les", "824": "ased", "825": "Ġinclud", "826": "Ġthink", "827": "aking", "828": "Ġreg", "829": ").", "830": "meric", "831": "Ġimp", "832": "Ġthrough", "833": "ath", "834": "ited", "835": "rib", "836": "Ġsy", "837": "Ġshould", "838": "Ġpres", "839": "Ġsay", "840": "ell", "841": "Ġfl", "842": "uring", "843": "Ġlast", "844": "Ġthose", "845": "ower", "846": "Ġvery", "847": "ty", "848": "other", "849": "Ġmuch", "850": "ities", "851": "ific", "852": "Ġstate", "853": "ĠThis", "854": "ative", "855": "Ġshow", "856": "tle", "857": "hen", "858": "Ġbr", "859": "ss", "860": "arg", "861": "Ġwell", "862": "oth", "863": "Ġph", "864": "ĠWh", "865": "Ġcount", "866": "als", "867": "und", "868": "Ġ200", "869": "Ġdoes", "870": "Ġdown", "871": "Ġown", "872": "arly", "873": "Ġend", "874": "Ġass", "875": "Ġbel", "876": "Ġuse", "877": "ics", "878": "ange", "879": "--", "880": "ts", "881": "Ġlong", "882": "ĠAmeric", "883": "ters", "884": "ince", "885": "Ġbefore", "886": "omet", "887": "gr", "888": "Ġmon", "889": "ward", "890": "Ġgovern", "891": "Ġstart", "892": "Ġreport", "893": "ible", "894": "Ġke", "895": "up", "896": "ues", "897": "ĠNew", "898": "Ġfin", "899": "Ġteam", "900": "ble", "901": "Ġmade", "902": "ife", "903": "olog", "904": "ener", "905": "),", "906": "Ġsuch", "907": "ren", "908": "com", "909": "oun", "910": "erson", "911": "ek", "912": "ix", "913": "Ġsm", "914": "âĢĶ", "915": "lp", "916": "ility", "917": "Ġgoing", "918": "ism", "919": "ful", "920": "Ġworld", "921": "ually", "922": "Ġstud", "923": "ists", "924": "Ġgood", "925": "Ġac", "926": "tain", "927": "It", "928": "Ġsub", "929": "Ġeff", "930": "Ġsur", "931": "Ġagainst", "932": "its", "933": "Ġgame", "934": "Ġset", "935": "ork", "936": "Ġ6", "937": "Ġgu", "938": "Ġpoint", "939": "Ġent", "940": "ys", "941": "000", "942": "gan", "943": "ars", "944": "li", "945": "stem", "946": "Ġprov", "947": "Ġstill", "948": "roup", "949": "Ġwhile", "950": "illion", "951": "Ġhelp", "952": "Ġlead", "953": "Ġmin", "954": "ween", "955": "ef", "956": "ax", "957": "ank", "958": "alk", "959": "imes", "960": "Ġsays", "961": "Ġob", "962": "ms", "963": "cy", "964": "Ġprodu", "965": "Ġgr", "966": "Ġinter", "967": "Ġinst", "968": "Ġstr", "969": "cess", "970": "Ġsim", "971": "io", "972": "self", "973": "Ġconf", "974": "Ġcol", "975": "Ġtake", "976": "ures", "977": "arch", "978": "Ġsame", "979": "Ġthough", "980": "Ġbetween", "981": "ollow", "982": "Ġoffic", "983": "ever", "984": "Ġcr", "985": "Ġdiffere", "986": "ool", "987": "uss", "988": "ution", "989": "land", "990": "Ġdisc", "991": "air", "992": "Ġop", "993": "ah", "994": "Ġed", "995": "Ġhigh", "996": "read", "997": "Ġnum", "998": "Ġlaw", "999": "Ġsign", "1000": "way", "1001": "Ġgovernment", "1002": "gg", "1003": "ĠRe", "1004": "led", "1005": "ner", "1006": "hip", "1007": "atch", "1008": "hes", "1009": "ames", "1010": "any", "1011": "Ġter", "1012": "Ġsomet", "1013": "cent", "1014": "velop", "1015": "ted", "1016": "We", "1017": "Ġref", "1018": "Ġtrans", "1019": "ten", "1020": "Ġins", "1021": "Ġrun", "1022": "Ġser", "1023": "Ġfound", "1024": "Ġthree", "1025": "ives", "1026": "ave", "1027": "Ġmem", "1028": "Ġaround", "1029": "Ġhere", "1030": "ather", "1031": "Ġmed", "1032": "Ġreal", "1033": "Ġused", "1034": "ouse", "1035": "Ġ10", "1036": "ved", "1037": "Ġexp", "1038": "az", "1039": "ĠAr", "1040": "cept", "1041": "oot", "1042": "Ġsystem", "1043": "ĠYou", "1044": "ci", "1045": "Ġreally", "1046": "Ġmod", "1047": "ving", "1048": "con", "1049": "cer", "1050": "Ġgroup", "1051": "Ġsupport", "1052": "Ġ7", "1053": "Ġcour", "1054": "ets", "1055": "ale", "1056": "ins", "1057": "Ġret", "1058": "Ġhand", "1059": "Ġpublic", "1060": "Ġspec", "1061": "pr", "1062": "ĠLe", "1063": "ying", "1064": "Ġgreat", "1065": "Ġcar", "1066": "ense", "1067": "Ġext", "1068": ".[", "1069": "ton", "1070": "irect", "1071": "Ġcur", "1072": "Ġfam", "1073": "ĠCom", "1074": "alth", "1075": "Ġhapp", "1076": "Ġfact", "1077": "ph", "1078": "Ġexper", "1079": "ĠThey", "1080": "ĠTrump", "1081": "Ġfr", "1082": "Ġwom", "1083": "ĠIs", "1084": "Ġcap", "1085": "Ġboth", "1086": "Ġday", "1087": "Ġfind", "1088": "ĠAl", "1089": "ular", "1090": "Ġread", "1091": "ines", "1092": "oh", "1093": "ices", "1094": "Ġdet", "1095": "Ġlit", "1096": "Ġsl", "1097": "Ġrep", "1098": "uth", "1099": "ered", "1100": "Ġduring", "1101": "ĠSh", "1102": "ĠAs", "1103": "Ġ0", "1104": "Ġserv", "1105": "Ġmonth", "1106": "min", "1107": "the", "1108": "ision", "1109": "Ġcre", "1110": "Ġdevelop", "1111": "Ġbig", "1112": "Ġ8", "1113": "Ġperson", "1114": "akes", "1115": "Ġfollow", "1116": "ĠCl", "1117": "Ġiss", "1118": "ex", "1119": "Ġtold", "1120": "Ġsince", "1121": "ared", "1122": "med", "1123": "ically", "1124": "Ġweek", "1125": "ages", "1126": "ivers", "1127": "Ġwar", "1128": "Ġfew", "1129": "orth", "1130": "ording", "1131": "Ġcent", "1132": "Ġleg", "1133": "aj", "1134": "get", "1135": "Ġpolit", "1136": "ves", "1137": "ash", "1138": "Ġexpl", "1139": "Ġlot", "1140": "ric", "1141": "ĠSe", "1142": "Ġbelie", "1143": "Ġgener", "1144": "Ġtoo", "1145": "Ġ9", "1146": "der", "1147": "ata", "1148": "rent", "1149": "Ġopp", "1150": "Wh", "1151": "Ġrequ", "1152": "Ġcontin", "1153": "Ġprot", "1154": "iet", "1155": "bers", "1156": "anc", "1157": "Ġfil", "1158": "ention", "1159": "ness", "1160": "Ġcle", "1161": "Ġresp", "1162": "Ġput", "1163": "ized", "1164": "ĠIf", "1165": "Ġanother", "1166": "20", "1167": "chool", "1168": "Ġinf", "1169": "Ġsomething", "1170": "ĠDe", "1171": "Ġdifferent", "1172": "Ġcor", "1173": "Ġloc", "1174": "ute", "1175": "Ġinvest", "1176": "Ġsoc", "1177": "Ġpower", "1178": "Ġche", "1179": "uc", "1180": "Ġ'", "1181": "Ġpass", "1182": "Ġcommun", "1183": "Ġlife", "1184": "ĠFr", "1185": "Ġplan", "1186": "ody", "1187": "Ġrele", "1188": "ience", "1189": "Ġhead", "1190": "Ġthings", "1191": "ned", "1192": "Ġfar", "1193": "Ġart", "1194": "Ġposs", "1195": "Ġmet", "1196": "thing", "1197": "ox", "1198": "erest", "1199": "Ġcamp", "1200": "ross", "1201": "arge", "1202": "Ġvot", "1203": "ier", "1204": "This", "1205": "view", "1206": "Ġchild", "1207": "ants", "1208": "Ġask", "1209": "Ġ.", "1210": "Ġmight", "1211": "Ġeach", "1212": "ize", "1213": "iness", "1214": "Ġdep", "1215": "Ġnever", "1216": "Ġnext", "1217": "ik", "1218": "ield", "1219": "Ġsecond", "1220": "Ġmark", "1221": "tt", "1222": "Ġquest", "1223": "Ġbus", "1224": "Ġadv", "1225": "ĠAn", "1226": "Ġdem", "1227": "ĠFor", "1228": "Ġcome", "1229": "Ġgot", "1230": "ĠâĢĺ", "1231": "Ġopen", "1232": "Ġbest", "1233": "ient", "1234": "ital", "1235": "Ġallow", "1236": "ĠThat", "1237": "rat", "1238": "Ġseem", "1239": "Ġpost", "1240": "ple", "1241": "nce", "1242": "Ġfeel", "1243": "ĠPro", "1244": "ĠUS", "1245": "ug", "1246": "Ġpri", "1247": "gram", "1248": "Ġpercent", "1249": "cl", "1250": "Ġhome", "1251": "Ġdist", "1252": "Ġdirect", "1253": "ired", "1254": "Ġincre", "1255": "Ġcontro", "1256": "ĠRep", "1257": "son", "1258": "orn", "1259": "less", "1260": "osed", "1261": "Ġresult", "1262": "Ġhard", "1263": "Ġcare", "1264": "ately", "1265": "Ġmillion", "1266": "chn", "1267": "Ġcomple", "1268": "Ġplace", "1269": "Ġwithout", "1270": "Ġinform", "1271": "Ġincluding", "1272": "Ġimport", "1273": "Ġav", "1274": "conom", "1275": "Ġhum", "1276": "Ġide", "1277": "Ġproble", "1278": "Ġbuild", "1279": "Ġtop", "1280": "ama", "1281": "Ġnumber", "1282": "Ġcountry", "1283": "gy", "1284": "oney", "1285": "aim", "1286": "ĠBl", "1287": "ret", "1288": "ral", "1289": "ably", "1290": "uro", "1291": "Ġstand", "1292": "Ġgl", "1293": "Ġel", "1294": "riend", "1295": "Ġfour", "1296": "ished", "1297": "ways", "1298": "Ġpartic", "1299": "Ġbetter", "1300": "co", "1301": "Ġtri", "1302": "But", "1303": "Ġrecent", "1304": "Ġinterest", "1305": "Ġmov", "1306": "Ġlet", "1307": "ration", "1308": "Ġseason", "1309": "Ġless", "1310": "ead", "1311": "Ġturn", "1312": "Ġlittle", "1313": "Ġbeh", "1314": "Ġmil", "1315": "Ġappro", "1316": "ract", "1317": "line", "1318": "Ġbro", "1319": "ling", "1320": "ised", "1321": "Ġcalled", "1322": "app", "1323": "10", "1324": "Ġcase", "1325": "Ġdr", "1326": "ĠInd", "1327": "Ġrest", "1328": "Ġleft", "1329": "Ġpop", "1330": "Ġann", "1331": "ĠZ", "1332": "ency", "1333": "ode", "1334": "Ġmove", "1335": "ina", "1336": "Ġattack", "1337": "ĠThere", "1338": "Ġkeep", "1339": "Ġfull", "1340": "ering", "1341": "Ġdidn", "1342": "be", "1343": "Ġfun", "1344": "Ġmain", "1345": "ajor", "1346": "__", "1347": "Ġeffect", "1348": "inal", "1349": "me", "1350": "leg", "1351": "Ġprev", "1352": "Ġprogram", "1353": "Ġusing", "1354": "Ġtest", "1355": "Ġpay", "1356": "to", "1357": "ature", "1358": "Ġear", "1359": "Ġval", "1360": "Ġpolice", "1361": "Ġwrit", "1362": "Ġform", "1363": "Ġeconom", "1364": "Ġdata", "1365": "Ġnews", "1366": "Ġpos", "1367": "Ġwin", "1368": "ĠAmerican", "1369": "Ġlevel", "1370": "Ġsit", "1371": "Ġchar", "1372": "ains", "1373": "iving", "1374": "uck", "1375": "Ġsmall", "1376": "ined", "1377": "ready", "1378": "He", "1379": "Ġschool", "1380": "Ġlist", "1381": "ology", "1382": "rap", "1383": "mit", "1384": "ided", "1385": "ploy", "1386": "'re", "1387": "ger", "1388": "Ġeas", "1389": "Ġprocess", "1390": "ird", "1391": "Ġchange", "1392": "Ġwomen", "1393": "Ġcurrent", "1394": "Ġrece", "1395": "Ġprom", "1396": "Ġhist", "1397": "Ġdri", "1398": "Ġ=", "1399": "ians", "1400": "reen", "1401": "Ġpresident", "1402": "Ġcompany", "1403": "ĠSo", "1404": "used", "1405": "Ġmat", "1406": "ruct", "1407": "Ġalready", "1408": "ohn", "1409": "ĠUnited", "1410": "wit", "1411": "Ġty", "1412": "Ġwhy", "1413": "Ġbre", "1414": "Ġunt", "1415": "Ġmoney", "1416": "Ġsol", "1417": "Ġalways", "1418": "Ġlater", "1419": "Ġexpect", "1420": "Ġtechn", "1421": "Ġbusiness", "1422": "ĠHow", "1423": "Ġofficial", "1424": "ron", "1425": "ĠQ", "1426": "ĠOb", "1427": "stand", "1428": "iversity", "1429": "Ġbo", "1430": "Ġbook", "1431": "ĠPh", "1432": "aign", "1433": "Ġthing", "1434": "Ġclass", "1435": "Ġproject", "1436": "ases", "1437": "Ġclaim", "1438": "Ġjob", "1439": "Ġinformation", "1440": "Ġorgan", "1441": "aff", "1442": "ĠShe", "1443": "ards", "1444": "Ġtalk", "1445": "ĠBe", "1446": "Ġdesign", "1447": "Ġstory", "1448": "Ġchang", "1449": "Ġmajor", "1450": "Ġable", "1451": "Ġprof", "1452": "Ġ--", "1453": "...", "1454": "lection", "1455": "iven", "1456": "ertain", "1457": "Ġrese", "1458": "Ġhealth", "1459": "Ġvis", "1460": "Ġpast", "1461": "urs", "1462": "Ġfree", "1463": "here", "1464": "outh", "1465": "ĠAd", "1466": "Ġoper", "1467": "ption", "1468": "Ġaway", "1469": "ior", "1470": "ĠCan", "1471": "Ġmust", "1472": "Ġcity", "1473": "ample", "1474": "rist", "1475": "sc", "1476": "ural", "1477": "Ġhappen", "1478": "uthor", "1479": "Ġ18", "1480": "Ġimportant", "1481": "acy", "1482": "urity", "1483": "Ġkill", "1484": "Ġsk", "1485": "Ġest", "1486": "ured", "1487": "Ġold", "1488": "Ġpat", "1489": "ury", "1490": "ending", "1491": "Ġdoesn", "1492": "ission", "1493": "Ġleast", "1494": "Ġgrow", "1495": "Ġedit", "1496": "Ġvar", "1497": "ained", "1498": "St", "1499": "Ġcost", "1500": "ĠGo", "1501": "ney", "1502": "ider", "1503": "ides", "1504": "els", "1505": "Ġdays", "1506": "Ġtell", "1507": "Ġhop", "1508": "Ġstre", "1509": "Ġcampaign", "1510": "side", "1511": "Ġ12", "1512": "Ġmen", "1513": "Ġcame", "1514": "Ġaff", "1515": "Ġconst", "1516": "resident", "1517": "Ġenough", "1518": "Ġview", "1519": "ccess", "1520": "Ġkind", "1521": "ĠMar", "1522": "oad", "1523": "ĠSp", "1524": "ern", "1525": "Ġmaking", "1526": "Ġlarge", "1527": "Ġrecord", "1528": "50", "1529": "ush", "1530": "Ġfriend", "1531": "Ġmar", "1532": "Ġfamily", "1533": "âĢ¦", "1534": "ley", "1535": "Ġelect", "1536": "eral", "1537": "Ġpolic", "1538": "Ġtax", "1539": "ising", "1540": "by", "1541": "pped", "1542": "ality", "1543": "ator", "1544": "ified", "1545": "As", "1546": "ived", "1547": "arent", "1548": "ror", "1549": "Ġuntil", "1550": "ional", "1551": "Ġpolitical", "1552": "Ġvide", "1553": "Ġdeal", "1554": "ee", "1555": "ries", "1556": "alf", "1557": "augh", "1558": "Ġve", "1559": "Ġworking", "1560": "ued", "1561": "ĠRepublic", "1562": "Ġtook", "1563": "Ġdeb", "1564": "bs", "1565": "If", "1566": "ister", "1567": "Ġline", "1568": "ĠJohn", "1569": "aining", "1570": "Ġair", "1571": "----", "1572": "Ġes", "1573": "Ġintern", "1574": "Ġfore", "1575": "iol", "1576": "ane", "1577": "ocrat", "1578": "Ġbecome", "1579": "Ġactually", "1580": "aps", "1581": "ony", "1582": "Ġmean", "1583": "work", "1584": "Ġfund", "1585": "ĠSc", "1586": "ware", "1587": "19", "1588": "ember", "1589": "ĠPl", "1590": "Ġformer", "1591": "Ġoften", "1592": "ĠEuro", "1593": "ott", "1594": "ann", "1595": "Ġwon", "1596": "Ġgive", "1597": "oint", "1598": "Ġaccording", "1599": "Ġever", "1600": "most", "1601": "eng", "1602": "year", "1603": "wh", "1604": "aring", "1605": "Ġgames", "1606": "ison", "1607": "Ġhuman", "1608": "Ġbas", "1609": "Ġword", "1610": "ization", "1611": "Ġreturn", "1612": "Ġtimes", "1613": "Ġorder", "1614": "ĠRuss", "1615": "Ġbit", "1616": "ĠDem", "1617": "Ġname", "1618": "11", "1619": "gin", "1620": "Ġsever", "1621": "ĠAll", "1622": "Ġdev", "1623": "icle", "1624": "uture", "1625": "for", "1626": "ither", "1627": "iqu", "1628": "Ġpar", "1629": "Ġ199", "1630": "ĠMc", "1631": "Ġwr", "1632": "ĠCon", "1633": "raft", "1634": "Ġsing", "1635": "Ġperform", "1636": "ĠSy", "1637": "idd", "1638": "Ġmarket", "1639": "Ġfac", "1640": "Ġcharac", "1641": "There", "1642": "ĠOr", "1643": "ĠAt", "1644": "ĠMay", "1645": "Ġra", "1646": "Ġdoing", "1647": "Ġappear", "1648": "ER", "1649": "ched", "1650": "Ġplayers", "1651": "Ġla", "1652": "Ġnight", "1653": "Ġlear", "1654": "aken", "1655": "rop", "1656": "ats", "1657": "mber", "1658": "Ġtoday", "1659": "Ġearly", "1660": "Ġ15", "1661": "Ġseen", "1662": "//", "1663": "Ġhaving", "1664": "Ġ,", "1665": "Ġpot", "1666": "Ġchildren", "1667": "Ġevent", "1668": "Ġmedia", "1669": "Ġsocial", "1670": "Ġcrit", "1671": "ĠPresident", "1672": "Ġwhether", "1673": "Ġseveral", "1674": "Ġcontrol", "1675": "idence", "1676": "Ġmeet", "1677": "sh", "1678": "Ġmilit", "1679": "Ġpress", "1680": "Ġwent", "1681": "artment", "1682": "ene", "1683": "Ġfive", "1684": "Ġyoung", "1685": "ories", "1686": "Ġsure", "1687": "Ġprop", "1688": "iously", "1689": "Ġequ", "1690": "Ġquestion", "1691": "Ġocc", "1692": "Ġlikely", "1693": "vert", "1694": "une", "1695": "Ġmembers", "1696": "br", "1697": "ands", "1698": "Ġcertain", "1699": "ium", "1700": "Ġeng", "1701": "Ġwater", "1702": "ĠYork", "1703": "Ġexample", "1704": "ots", "1705": "ĠCol", "1706": "Ġside", "1707": "Ġant", "1708": "Ġarg", "1709": "Ġdone", "1710": "enn", "1711": "Ġvers", "1712": "Ġinvol", "1713": "ĠMr", "1714": "ĠStates", "1715": "ĠEurope", "1716": "ended", "1717": "let", "1718": "Ġalong", "1719": "Ġshort", "1720": "Ġsuccess", "1721": "ential", "1722": "Ġmonths", "1723": "ball", "1724": "Ġhour", "1725": "Ġ11", "1726": "Ġsex", "1727": "iver", "1728": "ially", "1729": "And", "1730": "lf", "1731": "empt", "1732": "Ġwithin", "1733": "Ġdesc", "1734": "imate", "1735": "Ġcourse", "1736": "Ġfight", "1737": "ster", "1738": "urch", "1739": "ubl", "1740": "Ġamong", "1741": "Ġactiv", "1742": "uff", "1743": "âĢĵ", "1744": "ague", "1745": "Ġonce", "1746": "Ġfuture", "1747": "Ġinvestig", "1748": "ulation", "1749": "rew", "1750": "Ġpossible", "1751": "ĠObama", "1752": "Ġcho", "1753": "nect", "1754": "Ġunderstand", "1755": "iting", "1756": "Ġconcer", "1757": "ĠOn", "1758": "Ġ]", "1759": "ones", "1760": "ortun", "1761": "Ġproblem", "1762": "ĠBr", "1763": "Ġpriv", "1764": "Ġmeans", "1765": "Ġviol", "1766": "ĠCar", "1767": "Ġauthor", "1768": "itive", "1769": "ĠNo", "1770": "ggest", "1771": "Ġavail", "1772": "oci", "1773": "ourn", "1774": "my", "1775": "Ġknown", "1776": "Ġproduct", "1777": "Ġnon", "1778": "ivid", "1779": "Ġthought", "1780": "Ġyet", "1781": "gress", "1782": "Ġacross", "1783": "Ġprotect", "1784": "Ġlocal", "1785": "ald", "1786": "ler", "1787": "Ġhold", "1788": "ĠTe", "1789": "Ġfail", "1790": "ĠWhen", "1791": "ĠState", "1792": "inc", "1793": "Ġcommunity", "1794": "Ġreason", "1795": "Ġorig", "1796": "Ġsuggest", "1797": "Ġ&", "1798": "12", "1799": "Ġmakes", "1800": "verage", "1801": "not", "1802": "por", "1803": "back", "1804": "Ġ2016", "1805": "Ġi", "1806": "book", "1807": "Ġasked", "1808": "ederal", "1809": "orld", "1810": "Ġreported", "1811": "You", "1812": "aged", "1813": "ensive", "1814": "Ġgiven", "1815": "Ġstrong", "1816": "Ġprob", "1817": "Ġmus", "1818": "Ġothers", "1819": "Ġbelieve", "1820": "Ġvideo", "1821": "iber", "1822": "Ġben", "1823": "Ġgetting", "1824": "ĠHouse", "1825": "ances", "1826": "Ġannoun", "1827": "Ġlight", "1828": "ored", "1829": "ober", "1830": "ĠUniversity", "1831": "Ġ30", "1832": "ĠCo", "1833": "itions", "1834": "Ġident", "1835": "iron", "1836": "Ġsent", "1837": "Ġcut", "1838": "Ġlim", "1839": "Ġca", "1840": "ĠChrist", "1841": "iety", "1842": "30", "1843": "urther", "1844": "Ġsour", "1845": "Ġcreat", "1846": "Ġcond", "1847": "ĠX", "1848": "rest", "1849": "ams", "1850": "'ve", "1851": "Ġnet", "1852": "ashing", "1853": "Ġbat", "1854": "ament", "1855": "Ġnational", "1856": ".,", "1857": "Ġclose", "1858": "Ġstarted", "1859": "Ġsaf", "1860": "Ġdeath", "1861": "aster", "1862": "Ġavailable", "1863": "arm", "1864": "Ġhig", "1865": "For", "1866": "Ġbased", "1867": "Ġissue", "1868": "of", "1869": "Ġindust", "1870": "ĠDemocrat", "1871": "ĠMin", "1872": "Ġlow", "1873": "Ġfollowing", "1874": "resent", "1875": "Ġaccount", "1876": "Ġland", "1877": "use", "1878": "ĠCent", "1879": "Ġemploy", "1880": "Ġlove", "1881": "Ġ2015", "1882": "Ġ#", "1883": "Ġhistory", "1884": "Ġago", "1885": "orts", "1886": "selves", "1887": "Ġmom", "1888": "Ġparty", "1889": "ability", "1890": "Ġseries", "1891": "eb", "1892": "Ġcomes", "1893": "Ġtrying", "1894": "uly", "1895": "utes", "1896": "ĠAm", "1897": "Ġalmost", "1898": "gether", "1899": "ument", "1900": "Ġtogether", "1901": "ination", "1902": "AT", "1903": "ĠAmerica", "1904": "pro", "1905": "Ġidea", "1906": "ief", "1907": "Ġaccess", "1908": "Ġfoc", "1909": "hers", "1910": "ilar", "1911": "ĠFl", "1912": "reed", "1913": "ails", "1914": "Ġcommit", "1915": "itional", "1916": "Ġisn", "1917": "ĠSen", "1918": "Ġclear", "1919": "Ġ16", "1920": "ĠOne", "1921": "Ġtrad", "1922": "though", "1923": "ring", "1924": "ĠWhat", "1925": "Ġpract", "1926": "Ġadded", "1927": "Ġimpro", "1928": "Ġexperience", "1929": "erence", "1930": "Ġfilm", "1931": "15", "1932": "Ġhalf", "1933": "ustom", "1934": "ged", "1935": "Ġhit", "1936": "af", "1937": "ĠBro", "1938": "witter", "1939": "rict", "1940": "Ġanal", "1941": "inton", "1942": "ograp", "1943": "unch", "1944": "Ġ2014", "1945": "Ġrul", "1946": "ividual", "1947": "Ġlooking", "1948": "Ġsix", "1949": "Ġlive", "1950": "Ġanything", "1951": "Ġarea", "1952": "Ġcomplete", "1953": "erman", "1954": "minist", "1955": "Ġmiss", "1956": "rael", "1957": "ĠEx", "1958": "ĠComm", "1959": "Ġfav", "1960": "Ġris", "1961": "ai", "1962": "nes", "1963": "Ġpresent", "1964": "ote", "1965": "rug", "1966": "Ġsaying", "1967": "raw", "1968": "aid", "1969": "ĠCanad", "1970": "Ġvict", "1971": "IN", "1972": "cially", "1973": "Ġbad", "1974": "ows", "1975": "uge", "1976": "Ġtaken", "1977": "ert", "1978": "Ġentire", "1979": "oto", "1980": "ĠPr", "1981": "ators", "1982": "ev", "1983": "Ġbill", "1984": "Ġcompet", "1985": "ĠEng", "1986": "Ġmor", "1987": "Ġbehind", "1988": "ien", "1989": "Ġaut", "1990": "ĠTo", "1991": "'m", "1992": "Ġcourt", "1993": "play", "1994": "Ġtry", "1995": "Ġtre", "1996": "Ġmilitary", "1997": "Ġz", "1998": "Ġnear", "1999": "osp", "2000": "Ġmult", "2001": "What", "2002": "Ġface", "2003": "wards", "2004": "Ġ14", "2005": "Ġsecurity", "2006": "Ġer", "2007": "ĠPol", "2008": "sy", "2009": "Ġproper", "2010": "Ġdiscuss", "2011": "Ġthreat", "2012": "Ġtot", "2013": "Ġstudy", "2014": "Ġsingle", "2015": "Ġrather", "2016": "Ġindividual", "2017": "ĠAf", "2018": "ĠBrit", "2019": "ĠWar", "2020": "ĠÂ", "2021": "ttp", "2022": "Ġquick", "2023": "ĠDon", "2024": "Ġmind", "2025": "ĠSec", "2026": "lement", "2027": "ales", "2028": "amed", "2029": "atic", "2030": "An", "2031": "ĠNorth", "2032": "aper", "2033": "Ġpubl", "2034": "Ġpolicy", "2035": "Ġmess", "2036": "ris", "2037": "par", "2038": "Ġblack", "2039": "Ġwanted", "2040": "Ġfall", "2041": "irc", "2042": "**", "2043": "off", "2044": "Ġfood", "2045": "Ġsum", "2046": "Ġsomeone", "2047": "lling", "2048": "ids", "2049": "On", "2050": "Ġ|", "2051": "Ġ/", "2052": "Ġcult", "2053": "Ġspecial", "2054": "Ġcomb", "2055": "Ġkey", "2056": "ĠMan", "2057": "Ġplayer", "2058": "Ġredu", "2059": "ĠGr", "2060": "Ġbring", "2061": "Ġ13", "2062": "Ġcompan", "2063": "Ġ17", "2064": "ply", "2065": "ĠDep", "2066": "Ġattempt", "2067": "ĠNational", "2068": "Ġtaking", "2069": "ĠBar", "2070": "When", "2071": "ON", "2072": "ify", "2073": "olution", "2074": "Ġ:", "2075": "viron", "2076": "Ġfoot", "2077": "ĠCal", "2078": "://", "2079": "Ġelse", "2080": "Ġpret", "2081": "Ġbody", "2082": "Ġspace", "2083": "elt", "2084": "rote", "2085": "over", "2086": "dd", "2087": "Ġprobably", "2088": "16", "2089": "icult", "2090": ".)", "2091": "Ġfront", "2092": "Ġcou", "2093": "Ġnothing", "2094": "Ġsw", "2095": "ashington", "2096": "ĠIm", "2097": "Ġconnect", "2098": "ches", "2099": "ĠWorld", "2100": "Ġresearch", "2101": "14", "2102": "ming", "2103": "ĠClinton", "2104": "ĠCity", "2105": "Ġcoming", "2106": "Ġpoints", "2107": "ĠIsrael", "2108": "RE", "2109": "Ġhowever", "2110": "Ġdescrib", "2111": "go", "2112": "Ġjo", "2113": "Ġsignific", "2114": "Ġsimilar", "2115": "yn", "2116": "reme", "2117": "cing", "2118": "Ġbenef", "2119": "lier", "2120": "ĠAust", "2121": "Ġdecision", "2122": "Ġeither", "2123": "aces", "2124": "Ġcoun", "2125": "ault", "2126": "So", "2127": "Ġmass", "2128": "mb", "2129": "ĠHar", "2130": "Ġsus", "2131": "Ġtarg", "2132": "ully", "2133": "ana", "2134": "Ġfeat", "2135": "That", "2136": "Ġimm", "2137": "Ġconv", "2138": "Ġexist", "2139": "irl", "2140": "Ġenc", "2141": "Ġ2013", "2142": "Ġrights", "2143": "Ġservice", "2144": "ĠSu", "2145": "asing", "2146": "ung", "2147": "sw", "2148": "IS", "2149": "Ġfire", "2150": "Ġdoc", "2151": "Ġwrote", "2152": "Ġfurther", "2153": "Ġhouse", "2154": "rodu", "2155": "Ġfig", "2156": "Ġchall", "2157": "ww", "2158": "Ġban", "2159": "Ġthird", "2160": "Ġwa", "2161": "Ġcreate", "2162": "Ġstop", "2163": "Ġfield", "2164": "now", "2165": "Ġpick", "2166": "AN", "2167": "ape", "2168": "ively", "2169": "Ġmeas", "2170": "Ġrepl", "2171": "Ġcompl", "2172": "ĠWith", "2173": "Ġissues", "2174": "pping", "2175": "Ġbegin", "2176": "Ġsuper", "2177": "amer", "2178": "Ġstep", "2179": "ried", "2180": "ently", "2181": "Ġwhole", "2182": "Ġrelations", "2183": "Ġseems", "2184": "Ġ)", "2185": "Ġcompanies", "2186": "pecially", "2187": "Ġdue", "2188": "Ġexec", "2189": "Ġcand", "2190": "Ġeverything", "2191": "Ġfederal", "2192": "ĠGu", "2193": "Ġstates", "2194": "Ġey", "2195": "Ġroom", "2196": "aul", "2197": "Ġtra", "2198": "Ġwatch", "2199": "oon", "2200": "ĠGe", "2201": "Ġcustom", "2202": "Ġleaders", "2203": "13", "2204": "uation", "2205": "ĠHowever", "2206": "pite", "2207": "ĠJan", "2208": "ĠWashington", "2209": "Ch", "2210": "lam", "2211": "Ġself", "2212": "Ġrole", "2213": "ran", "2214": "ilt", "2215": "Ġsound", "2216": "Ġlab", "2217": "att", "2218": "head", "2219": "Ġdam", "2220": "ivil", "2221": "Ġofficials", "2222": "Ġstri", "2223": "Ġ2012", "2224": "lu", "2225": "iday", "2226": "ibility", "2227": "Ġreleased", "2228": "ĠInst", "2229": "eal", "2230": "Ġbegan", "2231": "ĠDav", "2232": "ĠApp", "2233": "ĠSouth", "2234": "Ġopt", "2235": "obal", "2236": "Ġstudents", "2237": "Ġtreat", "2238": "Ġfinal", "2239": "Ġcharacter", "2240": "Ġposition", "2241": "Ġmatter", "2242": "Ã©", "2243": "ender", "2244": "Ġener", "2245": "lim", "2246": "Ġoutside", "2247": "ery", "2248": "sec", "2249": "ades", "2250": "Ġdou", "2251": "vironment", "2252": "Ġdevelopment", "2253": "Ġstatement", "2254": "Ġhimself", "2255": "Ġ2017", "2256": "Ġabove", "2257": "like", "2258": "Ġstat", "2259": "Ġinit", "2260": "Ġbreak", "2261": "Ġ100", "2262": "Ġamount", "2263": "Ġprovide", "2264": "Ġhours", "2265": "Ġitself", "2266": "Ġthemselves", "2267": "Ġoffice", "2268": "Ġrepresent", "2269": "Ġaction", "2270": "ĠPart", "2271": "Ġdi", "2272": "Ġbecame", "2273": "Ġ198", "2274": "Ġgeneral", "2275": "Ġcontinue", "2276": "Ġcountries", "2277": "ĠIntern", "2278": "Ġneg", "2279": "iod", "2280": "Ġaddress", "2281": "Ġ25", "2282": "Ġgun", "2283": "aced", "2284": "ask", "2285": "Ġtrue", "2286": "Ġspecific", "2287": "ograph", "2288": "umb", "2289": "arter", "2290": "reg", "2291": "Ġlarg", "2292": "Ġsignificant", "2293": "lish", "2294": "Ġsimply", "2295": "ĠAss", "2296": "ĠRes", "2297": "Ġwasn", "2298": "'ll", "2299": "Ġinterview", "2300": "acebook", "2301": "ili", "2302": "Ġground", "2303": "Ġrad", "2304": "oid", "2305": "ogn", "2306": "Ġdifficult", "2307": "Ġrunning", "2308": "ĠJust", "2309": "Ġevidence", "2310": "Ġadminist", "2311": "BC", "2312": "Ġcop", "2313": "17", "2314": "ream", "2315": "Ġdrug", "2316": "Ġversion", "2317": "ogle", "2318": "Ġbar", "2319": "ĠEd", "2320": "Ġagree", "2321": "eks", "2322": "iddle", "2323": "Ġbuilding", "2324": "ĠChina", "2325": "Ġneeds", "2326": "Ġprofess", "2327": "angu", "2328": "Ġgroups", "2329": "right", "2330": "Ġtyp", "2331": "Ġrespons", "2332": "Ġcommon", "2333": "Ġshows", "2334": "Ġeveryone", "2335": "Ġdom", "2336": "Ġdest", "2337": "Ġneeded", "2338": "Ġball", "2339": "Ġwoman", "2340": "ĠGerman", "2341": "Ġlat", "2342": "Ġbelow", "2343": "Ġtem", "2344": "light", "2345": "ournal", "2346": "Ġmusic", "2347": "Ġexc", "2348": "Ġrelease", "2349": "ift", "2350": "Ġinj", "2351": "Ġpretty", "2352": "ĠMed", "2353": "ĠAb", "2354": "AR", "2355": "ribut", "2356": "Ġinclude", "2357": "Ġsaw", "2358": "Ġdeep", "2359": "Ġap", "2360": "body", "2361": "18", "2362": "Ġplayed", "2363": "Ġquite", "2364": "Ġindustry", "2365": "Ġcharg", "2366": "Ġmag", "2367": "Ġenergy", "2368": "Ġplaying", "2369": "Ġmot", "2370": "Ġ50", "2371": "Ġcandid", "2372": "Ġsense", "2373": "Ġphys", "2374": "Ġlate", "2375": "Ġalleg", "2376": "Ġwhite", "2377": "ĠHis", "2378": "ival", "2379": "Ġfriends", "2380": "Ġgen", "2381": "Ġlegal", "2382": "atur", "2383": "Ġanim", "2384": "isc", "2385": "bo", "2386": "yle", "2387": "ĠAfter", "2388": "How", "2389": "AS", "2390": "where", "2391": "Ġabs", "2392": "lev", "2393": "Ġinstead", "2394": "Ġred", "2395": "Ġbillion", "2396": "Ġlost", "2397": "Ġespecially", "2398": "Ġvalue", "2399": "ĠMus", "2400": "ĠWest", "2401": "Ġhost", "2402": "Ġhom", "2403": "osing", "2404": "oring", "2405": "ĠNews", "2406": "time", "2407": "ager", "2408": "Ġple", "2409": "istic", "2410": "Ġweeks", "2411": "epend", "2412": "ĠNot", "2413": "ccording", "2414": "omm", "2415": "Ġforward", "2416": "ique", "2417": "Ġdeter", "2418": "Ġelection", "2419": "Ġrecently", "2420": "Ġjud", "2421": "Ġtrack", "2422": "Ġsuff", "2423": "Ġvote", "2424": "ĠTwitter", "2425": "Ġobject", "2426": "irt", "2427": "lt", "2428": "medi", "2429": "Ġperiod", "2430": "Ġchanges", "2431": "Ġopportun", "2432": "ĠWhite", "2433": "ĠOct", "2434": "Ġlo", "2435": "Ġlonger", "2436": "arc", "2437": "oke", "2438": "eed", "2439": "Ġep", "2440": "Ġpain", "2441": "Ġsoon", "2442": "Ġsite", "2443": "Ġ{", "2444": "hod", "2445": "ript", "2446": "ached", "2447": "Ġaccept", "2448": "ĠCong", "2449": "____", "2450": "Ġshoot", "2451": "Ġeconomic", "2452": "Ġhope", "2453": "irm", "2454": "oe", "2455": "Ġmoment", "2456": "Ġdecl", "2457": "lege", "2458": "Ġconsum", "2459": "ĠWill", "2460": "Ġpie", "2461": "Ġtit", "2462": "Ġcheck", "2463": "oph", "2464": "Ġpotential", "2465": "ij", "2466": "Ġblock", "2467": "ĠMarch", "2468": "ole", "2469": "Ġwrong", "2470": "duct", "2471": "ners", "2472": "ĠSept", "2473": "ĠDepartment", "2474": "Ġhigher", "2475": "onse", "2476": "Ġcred", "2477": "Ġonline", "2478": "Ġfocus", "2479": "Ġ24", "2480": "Ġconsider", "2481": "key", "2482": "Ġeduc", "2483": "ancial", "2484": "ĠMy", "2485": "ns", "2486": "iding", "2487": "Ġcirc", "2488": "Ġworks", "2489": "Ġrelig", "2490": "Ġshare", "2491": "Ġparent", "2492": "cial", "2493": "Ġheld", "2494": "25", "2495": "Ġpred", "2496": "ĠDr", "2497": "Ġwalk", "2498": "Ġwebs", "2499": "Ġled", "2500": "ularly", "2501": "==", "2502": "Ġreve", "2503": "lear", "2504": "Ġstay", "2505": "ĠThese", "2506": "overed", "2507": "alt", "2508": "Ġstru", "2509": "ĠRepublican", "2510": "Ġrisk", "2511": "Ġwords", "2512": "ĠAug", "2513": "Ġrev", "2514": "Ġsold", "2515": "Ġreview", "2516": "icro", "2517": "Ġcontract", "2518": "Ġresults", "2519": "Ġservices", "2520": "Ġlaws", "2521": "They", "2522": "Ġcode", "2523": "cil", "2524": "ĠMich", "2525": "Ġwind", "2526": "Ġfunction", "2527": "Ġaud", "2528": "Ġce", "2529": "ĠSyri", "2530": "put", "2531": "aut", "2532": "Ġtotal", "2533": "fect", "2534": "Ġarticle", "2535": "Ġage", "2536": "Ġapplic", "2537": "Ġminutes", "2538": "urd", "2539": "ĠMe", "2540": "Ġpersonal", "2541": "ilities", "2542": "Ġanyone", "2543": "uary", "2544": "ients", "2545": "itution", "2546": "asons", "2547": "ĠJune", "2548": "Ad", "2549": "ateg", "2550": "Ġprim", "2551": "anger", "2552": "Ġtarget", "2553": "ĠSte", "2554": "fer", "2555": "Ġden", "2556": "Ġearlier", "2557": "ule", "2558": "Ġfavor", "2559": "Ġexpress", "2560": "haps", "2561": "Ġdead", "2562": "Ġansw", "2563": "Ġupd", "2564": "Ġpopular", "2565": "che", "2566": "Ġcomput", "2567": "Ġvol", "2568": "pril", "2569": "Ġnecess", "2570": "ham", "2571": "Ġhy", "2572": "Ġrate", "2573": "ES", "2574": "aging", "2575": "Ġtechnology", "2576": "apan", "2577": "Ġrespect", "2578": "ĠPe", "2579": "val", "2580": "Ġenvironment", "2581": "Ġ2011", "2582": "Ph", "2583": "Ġreceived", "2584": "Ġexpected", "2585": "ude", "2586": "ends", "2587": "Ġgoal", "2588": "ĠPar", "2589": "Ġcreated", "2590": "Ġbase", "2591": "Ġsurpr", "2592": "Ġanti", "2593": "ĠSm", "2594": "ĠJuly", "2595": "eter", "2596": "tee", "2597": "Ġproblems", "2598": "uel", "2599": "Ġways", "2600": "Ġport", "2601": "iple", "2602": "action", "2603": "Ġprivate", "2604": "ĠDo", "2605": "Ġscient", "2606": "Ġincrease", "2607": "ray", "2608": "reet", "2609": "Ġannounced", "2610": "Ġcomment", "2611": "isl", "2612": "Ġcannot", "2613": "Ġeasy", "2614": "Al", "2615": "Ġshot", "2616": "ĠCongress", "2617": "Ġquestions", "2618": "bit", "2619": "Ġforce", "2620": "aterial", "2621": "hern", "2622": "Ġimpact", "2623": "na", "2624": "Ġet", "2625": "ĠMond", "2626": "ples", "2627": "Ġpack", "2628": "Ġ+", "2629": "ĠFacebook", "2630": "Ġpur", "2631": "Ġlangu", "2632": "atives", "2633": "ĠGod", "2634": "ĠEn", "2635": "Ġinvolved", "2636": "omb", "2637": "aving", "2638": "ills", "2639": "60", "2640": "lex", "2641": "hood", "2642": "onst", "2643": "ĠAustral", "2644": "Ġdiv", "2645": "uesday", "2646": "Ġexecut", "2647": "ctor", "2648": "Ġmodel", "2649": "itiz", "2650": "Ġsen", "2651": "Ġspeak", "2652": "Ġstaff", "2653": "Ġexact", "2654": "Ġcivil", "2655": "ires", "2656": "Ġnearly", "2657": "Ġtype", "2658": "ourt", "2659": "okes", "2660": "ees", "2661": "Ġoriginal", "2662": "Ġcases", "2663": "Ġcontent", "2664": "Ġ197", "2665": "Ġrelationship", "2666": "Ġterror", "2667": "ĠGoogle", "2668": "To", "2669": "Ġleave", "2670": "ĠFriday", "2671": "Ġresponse", "2672": "Ġcapt", "2673": "Ġinside", "2674": "Ġ<", "2675": "Ġphot", "2676": "lled", "2677": "ech", "2678": "Ġfans", "2679": "ĠApril", "2680": "rem", "2681": "ĠRed", "2682": "Ġinternational", "2683": "Ġcoll", "2684": "cast", "2685": "Ġheart", "2686": "Ġaverage", "2687": "Ġbroad", "2688": "Ġarrest", "2689": "Ġusers", "2690": "ĠCount", "2691": "Ġcal", "2692": "At", "2693": "rel", "2694": "Ġcell", "2695": "Ġworth", "2696": "Ġsoft", "2697": "Ġur", "2698": "Ġliving", "2699": "ĠEm", "2700": "bor", "2701": "Ġnation", "2702": "ips", "2703": "ky", "2704": "Ġkilled", "2705": "Ġreports", "2706": "Ġ2010", "2707": "ãģ", "2708": "ging", "2709": "Ġbecom", "2710": "Ġsource", "2711": "ĠMonday", "2712": "ĠTuesday", "2713": "Ġsubject", "2714": "Ġworked", "2715": "atural", "2716": "ests", "2717": "Ġestab", "2718": "Ġimmedi", "2719": "EN", "2720": "Ġrespond", "2721": "Ġglobal", "2722": "Ġassoci", "2723": "joy", "2724": "ellig", "2725": "Ġclub", "2726": "ops", "2727": "ĠAmericans", "2728": "ael", "2729": "Ġobs", "2730": "ites", "2731": "ĠPer", "2732": "ĠPal", "2733": "Ġchance", "2734": "Ġoil", "2735": "ĠAct", "2736": "Ġability", "2737": "ĠNe", "2738": "Ġtakes", "2739": "rought", "2740": "Ġweap", "2741": "hel", "2742": "Ġprice", "2743": "ĠJapan", "2744": "ological", "2745": "Ġdirector", "2746": "izing", "2747": "Ġworkers", "2748": "Ġterms", "2749": "Ġroad", "2750": "mon", "2751": "Ġpublished", "2752": "Ġdel", "2753": "ĠWhile", "2754": "Ġtou", "2755": "Ġphone", "2756": "rain", "2757": "Ġcollect", "2758": "Ġfinancial", "2759": "Ġmid", "2760": "osition", "2761": "Ġdecided", "2762": "ises", "2763": "OR", "2764": "ĠRussia", "2765": "ĠSome", "2766": "ĠWed", "2767": "Ġmother", "2768": "Ġsqu", "2769": "Ġlack", "2770": "Ġdefin", "2771": "ovember", "2772": "Ġ40", "2773": "Ġgirl", "2774": "Ġstore", "2775": "Ġgave", "2776": "Ġbuy", "2777": "Ġinflu", "2778": "ĠCalif", "2779": "Ġlog", "2780": "Ġhappened", "2781": "ino", "2782": "Ġrequire", "2783": "ĠNow", "2784": "Ġemer", "2785": "Ġfem", "2786": "\".", "2787": "Ġcapital", "2788": "clus", "2789": "Ġforeign", "2790": "Ġcurrently", "2791": "ĠOff", "2792": "based", "2793": "ĠSan", "2794": "Ġgoes", "2795": "ĠBy", "2796": "oved", "2797": "ĠGeor", "2798": "vertise", "2799": "Ġsituation", "2800": "Ġindic", "2801": "Ġoffer", "2802": "Ġwhose", "2803": "Ġ@", "2804": "Ġtal", "2805": "Ġmaterial", "2806": "Ġlives", "2807": "unt", "2808": "Ġaffect", "2809": "rown", "2810": "ought", "2811": "Ġplans", "2812": "nesday", "2813": "Ġarri", "2814": "Ġmember", "2815": "Ġpict", "2816": "ursday", "2817": "ĠFeb", "2818": "Ġparticip", "2819": "ruction", "2820": "Ġrecogn", "2821": "Ġturned", "2822": "Ġmethod", "2823": "Ġevents", "2824": "ĠJanuary", "2825": "ĠHill", "2826": "Ġnetwork", "2827": "One", "2828": "Ġteams", "2829": "ĠSund", "2830": "Ġbank", "2831": "Ġmeeting", "2832": "40", "2833": "rect", "2834": "Ġnorm", "2835": "Ġintrodu", "2836": "Ġsimple", "2837": "fully", "2838": "ĠIslam", "2839": "Ġill", "2840": "ĠAg", "2841": "Ġhuge", "2842": "ĠSeptember", "2843": "oud", "2844": "Ġregard", "2845": "Ġareas", "2846": "Ġcy", "2847": "order", "2848": "ĠCor", "2849": "ese", "2850": "ĠTV", "2851": "Ġcouple", "2852": "Ġapproach", "2853": "Ġcareer", "2854": "aur", "2855": "ĠAfric", "2856": "ĠGl", "2857": "load", "2858": "\",", "2859": "Ġdeli", "2860": "Ġrace", "2861": "lin", "2862": "Ġperformance", "2863": "Ġpage", "2864": "ety", "2865": "apt", "2866": "ĠNovember", "2867": "Ġtool", "2868": "ĠDavid", "2869": "Ġfelt", "2870": "Ġquickly", "2871": "Ġmis", "2872": "Ġnumbers", "2873": "oor", "2874": "Ġemail", "2875": "Ġ21", "2876": "aily", "2877": "Ġord", "2878": "ĠEl", "2879": "istan", "2880": "Ġadministration", "2881": "Ġhon", "2882": "ĠWednesday", "2883": "Ġvictim", "2884": "ĠPaul", "2885": "Ġvia", "2886": "Ġimprove", "2887": "Ġengine", "2888": "chie", "2889": "--------", "2890": "Ġfre", "2891": "Ġpull", "2892": "ĠAng", "2893": "Ġround", "2894": "bl", "2895": "Ġbuilt", "2896": "Ġ22", "2897": "Ġpers", "2898": "ĠEuropean", "2899": "Ġdig", "2900": "ened", "2901": "ĠThursday", "2902": "Ġfather", "2903": "ornia", "2904": "Ġloss", "2905": "avy", "2906": "Ġthous", "2907": "ÂŃ", "2908": "Ġhttp", "2909": "ructure", "2910": "Ġproduction", "2911": "Ġboy", "2912": "ume", "2913": "Ġheard", "2914": "down", "2915": "Sh", "2916": "Ġeconomy", "2917": "âĢĿ.", "2918": "Ġenjoy", "2919": "ĠAugust", "2920": "Ġtrade", "2921": "ĠSch", "2922": "face", "2923": "Ġwebsite", "2924": "iment", "2925": "Ġsecret", "2926": "Ġcover", "2927": "Ġreveal", "2928": "Ġwide", "2929": "Ġboard", "2930": "Ġmatch", "2931": "ĠCourt", "2932": "AL", "2933": "Ġallowed", "2934": "Ġhands", "2935": "Ġspent", "2936": "Ġtravel", "2937": "Ġlower", "2938": "Ġrepe", "2939": "atory", "2940": "Ġpoll", "2941": "Ġste", "2942": "Ġincluded", "2943": "cember", "2944": "ĠOctober", "2945": "Ġneigh", "2946": "Ġlegisl", "2947": "orters", "2948": "uses", "2949": "Ġbehav", "2950": "iction", "2951": "Ġknew", "2952": "Ġtext", "2953": "Ġwants", "2954": "Ġtown", "2955": "ights", "2956": "ĠBritish", "2957": "Ġsepar", "2958": "ences", "2959": "estern", "2960": "Ġvisit", "2961": "ĠCanada", "2962": "anks", "2963": "ctions", "2964": "With", "2965": "Ġperfect", "2966": "Ġgets", "2967": "ze", "2968": "ession", "2969": "Ġmovement", "2970": "ishing", "2971": "ground", "2972": "agement", "2973": "Ġtried", "2974": "Ġcause", "2975": "?âĢĿ", "2976": "gest", "2977": "Ġ}", "2978": "Ġforces", "2979": "ĠSunday", "2980": "Ġens", "2981": "After", "2982": "force", "2983": "ceed", "2984": "Ġattention", "2985": "Ġparticular", "2986": "Ġbi", "2987": "][", "2988": "ening", "2989": "Ġveh", "2990": "Ġbud", "2991": "Ġfear", "2992": "Ġpopulation", "2993": "Ġvarious", "2994": "ĠUK", "2995": "Ġreach", "2996": "ma", "2997": "Ġlooks", "2998": "Ġ23", "2999": "ĠCalifornia", "3000": "Ġbrought", "3001": "Ġvo", "3002": "ĠKore", "3003": "Ġlink", "3004": "ibly", "3005": ");", "3006": "urning", "3007": "arily", "3008": "ĠIS", "3009": "200", "3010": "Ġprevious", "3011": "ED", "3012": "Ġmention", "3013": "ĠRussian", "3014": "Ġmorning", "3015": "ĠQu", "3016": "cle", "3017": "idered", "3018": "eg", "3019": "'d", "3020": "Ġfair", "3021": "Ġgrowth", "3022": "aker", "3023": "ĠSw", "3024": "undred", "3025": "99", "3026": "sequ", "3027": "yond", "3028": "Ġprogress", "3029": "Ġfell", "3030": "raz", "3031": "alled", "3032": "Ġsong", "3033": "iam", "3034": "ĠCont", "3035": "AC", "3036": "Ġtraining", "3037": "field", "3038": "hold", "3039": "uk", "3040": "Ġsize", "3041": "ĠBlack", "3042": "cies", "3043": "ĠDecember", "3044": "idents", "3045": "Ġcontact", "3046": "ledge", "3047": "ĠHer", "3048": "Ġdemand", "3049": "While", "3050": "Ġimage", "3051": "Ġhor", "3052": "Ġrac", "3053": "Ġhot", "3054": "ification", "3055": "OS", "3056": "Ġleader", "3057": "set", "3058": "ecause", "3059": "Ġrules", "3060": "Ġprep", "3061": "Ġliber", "3062": "Ġsearch", "3063": "Ġess", "3064": "ĠPost", "3065": "Ġcitiz", "3066": "Ġupon", "3067": "Ġstrugg", "3068": "ĠStreet", "3069": "Ġlatest", "3070": "come", "3071": "Ġindepend", "3072": "US", "3073": "uments", "3074": "inks", "3075": "arth", "3076": "Ġfeatures", "3077": "Ġcoach", "3078": "ondon", "3079": "ĠPark", "3080": "iant", "3081": "Ġfast", "3082": "Tr", "3083": "oo", "3084": "sych", "3085": "Ġtalking", "3086": "ĠJew", "3087": "omp", "3088": "Ġaddition", "3089": "ges", "3090": "Ġstar", "3091": "Ġwond", "3092": "ĠSenate", "3093": "IT", "3094": "ĠPat", "3095": "Ġspeed", "3096": "Ġexam", "3097": "Ġconsidered", "3098": "raq", "3099": "icles", "3100": "aries", "3101": "Ġreb", "3102": "bed", "3103": "Ġlevels", "3104": "eth", "3105": "ĠTimes", "3106": "ĠCounty", "3107": "elligence", "3108": "Ġslow", "3109": "Ġinvestigation", "3110": "ps", "3111": "ille", "3112": "Ġconduct", "3113": "aph", "3114": "ĠParty", "3115": "22", "3116": "ĠKing", "3117": "Ġmedical", "3118": "Ġmach", "3119": "imately", "3120": "vent", "3121": "Ġachie", "3122": "Ġlanguage", "3123": "aturday", "3124": "Ġcard", "3125": "Ġsn", "3126": "unk", "3127": "Ġsort", "3128": "Ġcritic", "3129": "ope", "3130": "ĠTex", "3131": "ĠCenter", "3132": "Ġpen", "3133": "Ġund", "3134": "wo", "3135": "ĠIndia", "3136": "Ġpaper", "3137": "ysis", "3138": "IC", "3139": "Ġ2008", "3140": "pir", "3141": "Ġconserv", "3142": "Ġparents", "3143": "imin", "3144": "Ġsexual", "3145": "Ġsystems", "3146": "Ġprior", "3147": "ha", "3148": "uit", "3149": "asc", "3150": "Ġdoll", "3151": "Ġwritten", "3152": "uf", "3153": "Ġbox", "3154": "Ġspokes", "3155": "igr", "3156": "Ġseek", "3157": "Ġsens", "3158": "het", "3159": "Ġdocument", "3160": "idge", "3161": "eared", "3162": "Ġincreasing", "3163": "Ġhear", "3164": "ani", "3165": "atform", "3166": "Ġdraw", "3167": "Ġseven", "3168": "Ġson", "3169": "ĠMuslim", "3170": "Ġeffort", "3171": "ruary", "3172": "Ġjobs", "3173": "ĠIran", "3174": "Ġextreme", "3175": "Ġprevent", "3176": "Ġlearn", "3177": "ining", "3178": "Ġserious", "3179": "Ġregul", "3180": "rast", "3181": "Ġinn", "3182": "Ġrange", "3183": "Ġ...", "3184": "room", "3185": "Ġviolence", "3186": "Ġeight", "3187": "ĠMark", "3188": "80", "3189": "ources", "3190": "ĠIraq", "3191": "itch", "3192": "OP", "3193": "Ġsurve", "3194": "Ġcompletely", "3195": "Ġconc", "3196": "Ġ2009", "3197": "Ġmessage", "3198": "ico", "3199": "tr", "3200": "Ġâ", "3201": "She", "3202": "Ġobv", "3203": "Ġinteresting", "3204": "reedom", "3205": "Ġscreen", "3206": "abor", "3207": "Ġopportunity", "3208": "eff", "3209": "Ġclimate", "3210": "24", "3211": "ext", "3212": "Ġmajority", "3213": "ĠKe", "3214": "anced", "3215": "Ġparticularly", "3216": "Ġdoub", "3217": "Ġjournal", "3218": "ĠRom", "3219": "Ġdespite", "3220": "Ġclaims", "3221": "ĠChar", "3222": "Ġanswer", "3223": "Ġsociety", "3224": "ĠLondon", "3225": "Ġdefense", "3226": "Ġcarry", "3227": "entially", "3228": "aming", "3229": "Ġguy", "3230": "Ġextra", "3231": "ension", "3232": "mp", "3233": "ĠDonald", "3234": "isions", "3235": "Ġattacks", "3236": "Ġrequired", "3237": "erve", "3238": "rench", "3239": "illed", "3240": "Ġbiggest", "3241": "vertisement", "3242": "ĠEast", "3243": "Ġexactly", "3244": "iers", "3245": "Ġpaid", "3246": "ĠMore", "3247": "ibr", "3248": "Ġexperien", "3249": "Ġaren", "3250": "lying", "3251": "uclear", "3252": "inese", "3253": "Ġmodern", "3254": "Ġremain", "3255": "Ġquarter", "3256": "Ġofficers", "3257": "ett", "3258": "Ġhundred", "3259": "Ġcross", "3260": "Ġexcept", "3261": "utions", "3262": "ari", "3263": "Ġtable", "3264": "Ġpractice", "3265": "Ġnatural", "3266": "inally", "3267": "Ġmiddle", "3268": "erc", "3269": "Ġ27", "3270": "Ġcertainly", "3271": "Ġdro", "3272": "add", "3273": "oses", "3274": "ĠSaturday", "3275": "Ġstories", "3276": "ĠNet", "3277": "Ġhistor", "3278": "Ġgas", "3279": "Ġproducts", "3280": "Ġsurv", "3281": "Ġlooked", "3282": "Ġsometimes", "3283": "nces", "3284": "Ġstuff", "3285": "Ġrout", "3286": "Ġscience", "3287": "Ġfinally", "3288": "Ġuser", "3289": "AM", "3290": "Ġsummer", "3291": "Ġmovie", "3292": "Ġblood", "3293": "ospital", "3294": "aves", "3295": "Ġcommunic", "3296": "Ġaw", "3297": "ously", "3298": "Ġlay", "3299": "Ġchanged", "3300": "Ġones", "3301": "Ġleading", "3302": "Ġdescribed", "3303": "ĠSand", "3304": "Ġimag", "3305": "Ġterm", "3306": "ĠFebruary", "3307": "fl", "3308": "Ġprison", "3309": "Ġconvers", "3310": "ny", "3311": "Ġdetails", "3312": "icks", "3313": "Ġstarting", "3314": "ĠSpe", "3315": "Ġquality", "3316": "Ġoccur", "3317": "Ġpan", "3318": "hib", "3319": "Ġshowed", "3320": "Ġnamed", "3321": "Ġgiving", "3322": "Ġult", "3323": "Ġremains", "3324": "ĠMcC", "3325": "uing", "3326": "Ġregion", "3327": "pper", "3328": "Ġprovided", "3329": "Ġcosts", "3330": "akers", "3331": "ĠSoc", "3332": "arr", "3333": "Ġdamage", "3334": "Ġmob", "3335": "Ġdanger", "3336": "Ġfit", "3337": "aught", "3338": "ĠTH", "3339": "ĠTur", "3340": "Ġchief", "3341": "Ġpoor", "3342": "Ġpath", "3343": "ĠMor", "3344": "ida", "3345": "Ġeducation", "3346": "Ġmultiple", "3347": "Ġcontinued", "3348": "enge", "3349": "ĠInt", "3350": "Ġgrowing", "3351": "No", "3352": "Ġdemonst", "3353": "ĠChe", "3354": "Ġ*", "3355": "Ġparts", "3356": "yl", "3357": "Ġ26", "3358": "Ġwriting", "3359": "Ġcomments", "3360": "Ġ28", "3361": "Ġment", "3362": "Ġmaintain", "3363": "Ġsafe", "3364": "Ġassist", "3365": "Ġthinking", "3366": "ĠDes", "3367": "inary", "3368": "ĠRepublicans", "3369": "ĠEven", "3370": "Ġpurp", "3371": "Ġrequest", "3372": "Ġwrite", "3373": "Ġfix", "3374": "Ġitem", "3375": "Ġpurch", "3376": "ables", "3377": "Ġdied", "3378": "ĠDemocratic", "3379": "ĠCoun", "3380": "FL", "3381": "ago", "3382": "Ġready", "3383": "coin", "3384": "Ġwouldn", "3385": "Ġimplement", "3386": "23", "3387": "Ġincreased", "3388": "Ġculture", "3389": "fort", "3390": "Ġefforts", "3391": "Ġvoters", "3392": "ux", "3393": "pre", "3394": "Ġcamer", "3395": "Ġmill", "3396": "aly", "3397": "....", "3398": "oper", "3399": "Ġreading", "3400": "mitted", "3401": "iminal", "3402": "Ġfile", "3403": "Ġusually", "3404": "Ġcalls", "3405": "Ġspot", "3406": "Ġeffects", "3407": "Im", "3408": "ĠGener", "3409": "zz", "3410": "Ġperhaps", "3411": "ban", "3412": "Ġalone", "3413": "arian", "3414": "iles", "3415": "ĠFirst", "3416": "Ġalthough", "3417": "Ġtowards", "3418": "ĠLeague", "3419": "de", "3420": "Ġconsist", "3421": "ĠBill", "3422": "ĠTexas", "3423": "Ġselect", "3424": "Ġguys", "3425": "Ġstandard", "3426": "ĠMichael", "3427": "Ġsubst", "3428": "Ġcele", "3429": "Ġbeyond", "3430": "Ġdirectly", "3431": "Ġplatform", "3432": "ĠChinese", "3433": "Ġ(@", "3434": "Ġhous", "3435": "using", "3436": "itute", "3437": "Ġspeech", "3438": "Ġreality", "3439": "icated", "3440": "Ġkids", "3441": "ĠJames", "3442": "Ġavoid", "3443": "Ġthroughout", "3444": "Ġfootball", "3445": "Ġstudent", "3446": "ara", "3447": "Ġcouldn", "3448": "rowd", "3449": "BI", "3450": "Ġunf", "3451": "ford", "3452": "Ġimmediately", "3453": "oul", "3454": "Ġrob", "3455": "Ġincludes", "3456": "Ġcat", "3457": "Ġconcept", "3458": "egr", "3459": "Ġcenter", "3460": "Ġchoice", "3461": "Ġscene", "3462": "Ġcomplex", "3463": "anch", "3464": "Ġadditional", "3465": "sp", "3466": "ĠMon", "3467": "Ġchalleng", "3468": "ĠCons", "3469": "Ġwife", "3470": "Ġclos", "3471": "urt", "3472": "Ġtro", "3473": "Ġrecomm", "3474": "Ġresearc", "3475": "Re", "3476": "Ġepis", "3477": "hest", "3478": "itor", "3479": "All", "3480": "Ġver", "3481": "ĠMinister", "3482": "Ġsle", "3483": "Ġcorpor", "3484": "ĠâĢ¦", "3485": "Ġdesigned", "3486": "ĠSer", "3487": "urg", "3488": "agon", "3489": "Ġremember", "3490": "Ġsoftware", "3491": "Ġsafety", "3492": "ĠIndian", "3493": "wise", "3494": "Ġgone", "3495": "Ġil", "3496": "astic", "3497": "ports", "3498": "Ġcast", "3499": "Ġsell", "3500": "Ġtoward", "3501": "Ġagency", "3502": "Ġten", "3503": "Ġofficer", "3504": "aches", "3505": "Ġfigure", "3506": "Ġpiece", "3507": "Ġbrain", "3508": "omen", "3509": "Ġbattle", "3510": "ĠJack", "3511": "men", "3512": "Ġcounter", "3513": "Ġdebate", "3514": "airs", "3515": "ression", "3516": "ston", "3517": "Ġthousands", "3518": "adem", "3519": "Ġswe", "3520": "rupt", "3521": "Ġopin", "3522": "Ġahead", "3523": "icient", "3524": "Now", "3525": "imum", "3526": "Ġrelative", "3527": "irth", "3528": "Ġletter", "3529": "Ġreceive", "3530": "Ġpressure", "3531": "ĠÐ", "3532": "ĠBo", "3533": "Ġblog", "3534": "ilies", "3535": "ampions", "3536": "Ġ>", "3537": "Ġsil", "3538": "Ġmoved", "3539": "Ġlaunch", "3540": "Ġappears", "3541": "Ġoption", "3542": "ĠPlay", "3543": "Ġpassed", "3544": "Ġut", "3545": "Ġprec", "3546": "Ġstage", "3547": "roy", "3548": "oes", "3549": "Ġ60", "3550": "Ġclean", "3551": "ĠServ", "3552": "olute", "3553": "ĠII", "3554": "atever", "3555": "berg", "3556": "OT", "3557": "Ġproperty", "3558": "27", "3559": "Ġhelped", "3560": "amb", "3561": "Ġdrive", "3562": "ĠApple", "3563": "just", "3564": "Ġalleged", "3565": "ĠGreen", "3566": "Ġtwe", "3567": "new", "3568": "Ġdisapp", "3569": "Ġtour", "3570": "Ġmeaning", "3571": "Ġrock", "3572": "Ġdog", "3573": "Ġx", "3574": "Ġcris", "3575": "itation", "3576": "ĠAssoci", "3577": "Ġsuspect", "3578": "Ġdate", "3579": "ĠRich", "3580": "aughter", "3581": "Ġmoving", "3582": "Ġscore", "3583": "ĠDemocrats", "3584": "Ġorganization", "3585": "Ġsat", "3586": "Ġconditions", "3587": "Ġtouch", "3588": "Ġdark", "3589": "Ġcommand", "3590": "ĠThen", "3591": "Ġign", "3592": "?\"", "3593": "Ġreasons", "3594": "Ġbudget", "3595": "Ġpark", "3596": "more", "3597": "Ġnuclear", "3598": "Ġmyself", "3599": "Ġnom", "3600": "Ġdeg", "3601": "Ġhappy", "3602": "Ġdevice", "3603": "Ġdifference", "3604": "rief", "3605": "ĠSim", "3606": "Ġmaybe", "3607": "chan", "3608": "Ġbeginning", "3609": "AD", "3610": "Ġcopy", "3611": "Ġnature", "3612": "Ġfailed", "3613": "wood", "3614": "Ġfan", "3615": "Ġcharacters", "3616": "yan", "3617": "Ġcomputer", "3618": "Ġencour", "3619": "Ġaim", "3620": "ĠMart", "3621": "Ġtitle", "3622": "Ġwall", "3623": "Ġcompared", "3624": "Ġleague", "3625": "ocked", "3626": "ĠSuper", "3627": "ivity", "3628": "Ġestim", "3629": "ĠVal", "3630": "ĠStar", "3631": "Ġcollege", "3632": "Ġeyes", "3633": "Ġshown", "3634": "ĠEnglish", "3635": "Ġcentury", "3636": "Ġpowerful", "3637": "ĠDay", "3638": "lease", "3639": "ource", "3640": "Ġbal", "3641": "aint", "3642": "Ġlimited", "3643": "Ġyes", "3644": "Ġband", "3645": "Ġcontribut", "3646": "Ġpositive", "3647": "Ġforced", "3648": "Ġsche", "3649": "Ġnecessary", "3650": "Ġrefer", "3651": "Ġcandidate", "3652": "Ġstra", "3653": "Ġdisp", "3654": "35", "3655": "cient", "3656": "Ġbooks", "3657": "Ġtrust", "3658": "AP", "3659": "ĠFrench", "3660": "Ġlargest", "3661": "26", "3662": "Ġarch", "3663": "enty", "3664": "Ġsal", "3665": "ĠHere", "3666": "Ġconference", "3667": "ĠRober", "3668": "aud", "3669": "Ġnote", "3670": "Ġanalysis", "3671": "ufact", "3672": "Ġspending", "3673": "Ġpresidential", "3674": "45", "3675": "ĠOf", "3676": "Ġcitizens", "3677": "orks", "3678": "Ġschools", "3679": "igration", "3680": "ĠSyria", "3681": "Ġthrow", "3682": "venue", "3683": "ĠBen", "3684": "Ġaware", "3685": "Ġmeant", "3686": "Ġexecutive", "3687": "Ġeventually", "3688": "My", "3689": "Ġphysical", "3690": "Ġfollowed", "3691": "Ġfeature", "3692": "Ġtreatment", "3693": "Ġcrowd", "3694": "Be", "3695": "ĠTor", "3696": "ĠWind", "3697": "Ġfirm", "3698": "Ġstreng", "3699": "Ġconfir", "3700": "Ġmix", "3701": "Ġbott", "3702": "ero", "3703": "Ġcorrect", "3704": "orney", "3705": "Ġ29", "3706": "ares", "3707": "ĠDis", "3708": "Ġgrad", "3709": "Ġreligious", "3710": "Ġeasily", "3711": "Ġautom", "3712": "Ġesc", "3713": "Ġpus", "3714": "band", "3715": "board", "3716": "Is", "3717": "Ġcool", "3718": "etro", "3719": "Ġ196", "3720": "Ġfamilies", "3721": "Ġilleg", "3722": "ressed", "3723": "craft", "3724": "cul", "3725": "rated", "3726": "Ġactions", "3727": "Ġoverall", "3728": "ĠAir", "3729": "ĠMex", "3730": "Ġallows", "3731": "Ġgives", "3732": "Ġfeed", "3733": "ĠÂ£", "3734": "):", "3735": "Ġsusp", "3736": "ube", "3737": "Ġyourself", "3738": "By", "3739": "Ġdraft", "3740": "bum", "3741": "ken", "3742": "Ġsmart", "3743": "Ġappeared", "3744": "Ġdetail", "3745": "Ġincome", "3746": "iring", "3747": "Ġanaly", "3748": "ĠBel", "3749": "Ġsigned", "3750": "New", "3751": "encies", "3752": "Ġcentral", "3753": "Ġideas", "3754": "Ġang", "3755": "ĠGovern", "3756": "Ġsenior", "3757": "Advertisement", "3758": "Ġfrequ", "3759": "Ġweapons", "3760": "ID", "3761": "ĠBre", "3762": "Ġhar", "3763": "Ġdisplay", "3764": "Ġpromot", "3765": "Ġnice", "3766": "Ġcredit", "3767": "Ġdecades", "3768": "Ġpsych", "3769": "Ġpolitics", "3770": "Don", "3771": "Ġcrime", "3772": "OM", "3773": "EC", "3774": "Ġuses", "3775": "inn", "3776": "Ġdoor", "3777": "Ġdise", "3778": "uty", "3779": "ĠInternational", "3780": "Ġunique", "3781": "28", "3782": "Ġaltern", "3783": "Ġlif", "3784": "According", "3785": "Ġdrop", "3786": "Ġsales", "3787": "mar", "3788": "Ġdeveloped", "3789": "Ar", "3790": "resh", "3791": "Ġcustomers", "3792": "ET", "3793": "Ġbenefits", "3794": "Ġconflic", "3795": "urance", "3796": "Ġrelated", "3797": "Ġcrisis", "3798": "ĠSchool", "3799": "Ġmist", "3800": "erry", "3801": "iable", "3802": "Ġpredict", "3803": "Ġnoted", "3804": "ĠCap", "3805": "29", "3806": "ĠAustralia", "3807": "ĠEU", "3808": "Ġtruth", "3809": "box", "3810": "part", "3811": "Ġgoals", "3812": "iny", "3813": "Ġindividuals", "3814": "Ġcharge", "3815": "ĠEarth", "3816": "Ġbeaut", "3817": "Ġcontinues", "3818": "onents", "3819": "ĠUnion", "3820": "ĠArab", "3821": "Ġobserv", "3822": "Ġrap", "3823": "Ġchallenge", "3824": "Ġsto", "3825": "nown", "3826": "Ġapparent", "3827": "ĠAngel", "3828": "itely", "3829": "ĠSmith", "3830": "Ġlic", "3831": "Ġprojects", "3832": "Ġpeace", "3833": "Ġmeasure", "3834": "ĠPolice", "3835": "oti", "3836": "Ġintelligence", "3837": "ĠChristian", "3838": "Ġpreviously", "3839": "ĠGermany", "3840": "Ġfully", "3841": "Ġrule", "3842": "Ġmanager", "3843": "Ġbrother", "3844": "Ġrates", "3845": "Ġadvant", "3846": "Un", "3847": "change", "3848": "Ġexpand", "3849": "Ġclearly", "3850": "Ġreform", "3851": "Ġlines", "3852": "net", "3853": "Ġsuccessful", "3854": "riage", "3855": "Ġhighly", "3856": "Ġlarger", "3857": "ounds", "3858": "21", "3859": "Ġtraff", "3860": "Ġspread", "3861": "iance", "3862": "Ġseemed", "3863": "ĠCouncil", "3864": "Ġstraight", "3865": "Some", "3866": "Ġcriminal", "3867": "ĠComp", "3868": "Ġminor", "3869": "Ġemb", "3870": "ki", "3871": "ĠGeorge", "3872": "Ġprograms", "3873": "iced", "3874": "attle", "3875": "owers", "3876": "ĠFranc", "3877": "Ġincident", "3878": "Ġresources", "3879": "ĠTom", "3880": "Ġgreater", "3881": "Ġprimary", "3882": "IA", "3883": "inated", "3884": "antly", "3885": "Ġknowledge", "3886": "Pro", "3887": "Ġstudies", "3888": "while", "3889": "dom", "3890": "Ġsave", "3891": "orter", "3892": "Ġweb", "3893": "ategy", "3894": "ean", "3895": "Ġkept", "3896": "Ġattract", "3897": "ĠFlor", "3898": "olic", "3899": "Ġspir", "3900": "Ġemot", "3901": "que", "3902": "Ġcolor", "3903": "Ġfeet", "3904": "ĠCr", "3905": "sey", "3906": "Ġrare", "3907": "Ġreached", "3908": "ĠAnt", "3909": "secut", "3910": "Ġarm", "3911": "ĠHigh", "3912": "levision", "3913": "ĠInternet", "3914": "ĠBrown", "3915": "oday", "3916": "iders", "3917": "osh", "3918": "Ġfavorite", "3919": "Ġplaces", "3920": "rs", "3921": "ĠRec", "3922": "Ġregular", "3923": "wide", "3924": "ota", "3925": "vere", "3926": "Ġmanufact", "3927": "Ġlaun", "3928": "ĠDef", "3929": "100", "3930": "Ġsend", "3931": "Ġprem", "3932": "ĠHam", "3933": "roll", "3934": "lick", "3935": "icit", "3936": "Ġknows", "3937": "Ġshooting", "3938": "Ġactivity", "3939": "Ġpun", "3940": "Ġsources", "3941": "Ġnormal", "3942": "icago", "3943": "bon", "3944": "term", "3945": "ingly", "3946": "onent", "3947": "ser", "3948": "ville", "3949": "Ġstatus", "3950": "Ġfighting", "3951": "Ġvoice", "3952": "Ġrise", "3953": "ocks", "3954": "Ġfine", "3955": "Ġowners", "3956": "Ġcaused", "3957": "Ġclaimed", "3958": "ĠMac", "3959": "Ġenem", "3960": "Ġliter", "3961": "ĠRob", "3962": "ĠUp", "3963": "ĠGeneral", "3964": "aith", "3965": "EO", "3966": "Ġoptions", "3967": "Ġ2007", "3968": "Ġintegr", "3969": "ength", "3970": "usion", "3971": "Ġspend", "3972": "ĠGold", "3973": "ado", "3974": "Ġcities", "3975": "miss", "3976": "Ġorganiz", "3977": "ING", "3978": "Ġended", "3979": "iled", "3980": "Ġresearchers", "3981": "Ġcalling", "3982": "Ġshut", "3983": "Ġreflect", "3984": "ĠLa", "3985": "mission", "3986": "mark", "3987": "org", "3988": "âĢĿ,", "3989": "oles", "3990": "70", "3991": "roid", "3992": "Ġprices", "3993": "ĠEvery", "3994": "Ġalbum", "3995": "ĠFrom", "3996": "ifying", "3997": "Ġemployees", "3998": "Ġfemale", "3999": "ĠEngland", "4000": "ya", "4001": "www", "4002": "Ġvirt", "4003": "Ġhaven", "4004": "Ġraised", "4005": "mittee", "4006": "Ġele", "4007": "Ġjump", "4008": "uana", "4009": "33", "4010": "Ġsupposed", "4011": "itness", "4012": "Ġhappens", "4013": "Ġadding", "4014": "Ġpolicies", "4015": "Ġnames", "4016": "Ġcharges", "4017": "Ġpros", "4018": "Ġtrou", "4019": "ica", "4020": "ribution", "4021": "Ġbasic", "4022": "iverse", "4023": "uman", "4024": "Not", "4025": "ĠMag", "4026": "Ġconcerns", "4027": "Ġtraditional", "4028": "Ġwait", "4029": "inger", "4030": "Ġplant", "4031": "Ġabsolute", "4032": "Ġacqu", "4033": "Ġhospital", "4034": "Ġfunding", "4035": "ram", "4036": "ĠBay", "4037": "Ġprint", "4038": "Ġslight", "4039": "Ġcommer", "4040": "rol", "4041": "Ġpatients", "4042": "Ġauthorities", "4043": "Ġminister", "4044": "Sc", "4045": "Ġcreating", "4046": "Ġfreedom", "4047": "ĠAP", "4048": "Ġmechan", "4049": "Ġscen", "4050": "ĠMo", "4051": "Ġstyle", "4052": "Ġseeing", "4053": "Ġgrand", "4054": ".âĢĻ", "4055": "Ġbeat", "4056": "Ġlik", "4057": "ona", "4058": "rian", "4059": "Ġstation", "4060": "ĠScott", "4061": "see", "4062": "Ġpush", "4063": "ijuana", "4064": "Ġbehavior", "4065": "Ġbeg", "4066": "Ġleaving", "4067": "Ġcry", "4068": "Ġimpl", "4069": "Ġbirth", "4070": "Ġir", "4071": "Ġactual", "4072": "EL", "4073": "Ġensure", "4074": "Ġoffered", "4075": "pen", "4076": "Ġagreement", "4077": "ĠFlorida", "4078": "Ġeth", "4079": "soft", "4080": "ĠHillary", "4081": "Ġposted", "4082": "Ġgold", "4083": "ĠSun", "4084": "Ġweekend", "4085": "Ġgreen", "4086": "ĠMost", "4087": "ĠBer", "4088": "ĠReg", "4089": "Ġadult", "4090": "alse", "4091": "Ġweight", "4092": "OU", "4093": ".'", "4094": "acing", "4095": "Ġdetermin", "4096": "Ġvac", "4097": "Here", "4098": "Ġrevealed", "4099": "ĠWell", "4100": "Ġapplication", "4101": "Ġmostly", "4102": "Ġvalues", "4103": "Ġpropos", "4104": "itude", "4105": "ĠAlex", "4106": "aby", "4107": "Ġwilling", "4108": "earch", "4109": "Ġrank", "4110": "Ġadop", "4111": "ĠAccording", "4112": "Ġestabl", "4113": "Ġeye", "4114": "Ġrecords", "4115": "ection", "4116": "âĢ¢", "4117": "500", "4118": "Ġenforce", "4119": "http", "4120": "Ġpicture", "4121": "Ġbelieved", "4122": "pri", "4123": "Ġmer", "4124": "uild", "4125": "Ġbrief", "4126": "ĠLet", "4127": "Ġlearned", "4128": "ĠLaw", "4129": "Ġinstall", "4130": "Ġstrategy", "4131": "Ġappl", "4132": "SA", "4133": "igned", "4134": "Ġchoose", "4135": "istry", "4136": "Ġdire", "4137": "Ġwonder", "4138": "Ġqual", "4139": "Ġmassive", "4140": "Ġdevices", "4141": "Ġbenefit", "4142": "Ġwild", "4143": "Ġparties", "4144": "ĠChicago", "4145": "Ġlawy", "4146": "ĠPeople", "4147": "Ġuns", "4148": "cher", "4149": "Ġcars", "4150": "ĠTrans", "4151": "ĠPort", "4152": "cont", "4153": "ĠPhil", "4154": "Ġarrested", "4155": "Ġmount", "4156": "Ġwhatever", "4157": "Ġwat", "4158": "ĠOh", "4159": "ĠFrance", "4160": "Ġstreet", "4161": "Ġ;", "4162": "Ġprovides", "4163": "Ġwhom", "4164": "Ġassault", "4165": "90", "4166": "liament", "4167": "Ġasking", "4168": "Ġinfluence", "4169": "ties", "4170": "Ġjudge", "4171": "Ġlose", "4172": "Ġfat", "4173": "Ġfeeling", "4174": "Ġoperations", "4175": "Ġproduced", "4176": "Ġtemper", "4177": "ste", "4178": "Ġcritical", "4179": "ĠSecret", "4180": "ĠLou", "4181": "Ġnegoti", "4182": "point", "4183": "Ġmission", "4184": "Ġenter", "4185": "ĠBush", "4186": "Ex", "4187": "Ġimages", "4188": "Ð¾", "4189": "ĠStud", "4190": "Ġconfirmed", "4191": "Ġshowing", "4192": "IL", "4193": "Ġdistrict", "4194": "ription", "4195": "Ġruns", "4196": "Ġpattern", "4197": "gen", "4198": "Ġtend", "4199": "ĠMat", "4200": "Ġborder", "4201": "Ġresidents", "4202": "orial", "4203": "rav", "4204": "Ġdebt", "4205": "However", "4206": "ĠÃ", "4207": "aked", "4208": "no", "4209": "Ġcru", "4210": "Ġteac", "4211": "mine", "4212": "ĠCommittee", "4213": "udd", "4214": "Ġopposition", "4215": "Cl", "4216": "Ġcelebr", "4217": "ĠWall", "4218": "ĠHealth", "4219": "Ġsection", "4220": "Ġdefend", "4221": "Ġetc", "4222": "estic", "4223": "Ġproduce", "4224": "icial", "4225": "ĠCommission", "4226": "Ġdrink", "4227": "Ġindependent", "4228": "ĠMod", "4229": "ront", "4230": "cell", "4231": "ĠWhy", "4232": "Ġbrand", "4233": "ented", "4234": "ags", "4235": "ugg", "4236": "Ġcore", "4237": "ĠPress", "4238": "Ġtick", "4239": "Ġdigital", "4240": "ĠBit", "4241": "Ġhero", "4242": "Ġadvoc", "4243": "ae", "4244": "Ġdollars", "4245": "ocr", "4246": "rial", "4247": "Ġeffective", "4248": "Ġsolution", "4249": "ĠMal", "4250": "Ġvill", "4251": "Ġinterested", "4252": "ĠSam", "4253": "ĠKorea", "4254": "BA", "4255": "Ġhighest", "4256": "ords", "4257": "Ġmemory", "4258": "Ġopening", "4259": "Ġworse", "4260": "Ġlearning", "4261": "Ġresponsible", "4262": "Ġtrial", "4263": "Ġdaily", "4264": "Ġkick", "4265": "Ġtheory", "4266": "ĠOther", "4267": "Ġoffers", "4268": "ĠPalest", "4269": "Ġreplace", "4270": "Ġrestrict", "4271": "ĠGet", "4272": "Ġmur", "4273": "ĠOffice", "4274": "Ġagreed", "4275": "Ġtelevision", "4276": "ĠFrancis", "4277": "cience", "4278": "ĠMicro", "4279": "ĠBecause", "4280": "Ġoccas", "4281": "ST", "4282": "illing", "4283": "CC", "4284": "Ġtrain", "4285": "Ġinvestment", "4286": "Ġvs", "4287": "Ġtypes", "4288": "iation", "4289": "ĠWestern", "4290": "aks", "4291": "icians", "4292": "Ġchair", "4293": "Ġmiles", "4294": "Ġmillions", "4295": "uries", "4296": "Ġchem", "4297": "ĠJustice", "4298": "ĠDel", "4299": "Ġgenerally", "4300": "Ġbasis", "4301": "Ġproposed", "4302": "Ġ80", "4303": "ĠMike", "4304": "ĠMil", "4305": "ĠCup", "4306": "These", "4307": "ipe", "4308": "Ġheavy", "4309": "Ġexplained", "4310": "Ġmap", "4311": "ĠOur", "4312": "AA", "4313": "rad", "4314": "Ġder", "4315": "Ġbur", "4316": "oly", "4317": "Ġpartners", "4318": "ander", "4319": "ĠAdd", "4320": "Ġopinion", "4321": "win", "4322": "Ġdefe", "4323": "Ġonto", "4324": "Ġprotest", "4325": "Con", "4326": "________", "4327": "Get", "4328": "Ġassociated", "4329": "Ġload", "4330": "rig", "4331": "azing", "4332": "ĠNFL", "4333": "rate", "4334": "oom", "4335": "44", "4336": "ĠFound", "4337": "Ġmale", "4338": "Ġbecomes", "4339": "Ġreject", "4340": "outhern", "4341": "====", "4342": "ĠSecurity", "4343": "vest", "4344": "Ġcoal", "4345": "Ġobtain", "4346": "Ġdestroy", "4347": "Ġadvantage", "4348": "Ġassum", "4349": "ĠLiber", "4350": "Ġcondition", "4351": "Ġannounce", "4352": "Ġhundreds", "4353": "Ġachieve", "4354": "Ġopened", "4355": "eline", "4356": "Ġunderstanding", "4357": "odes", "4358": "ĠJohnson", "4359": "coming", "4360": "icip", "4361": "Ġsurround", "4362": "ading", "4363": "orthern", "4364": "bert", "4365": "well", "4366": "la", "4367": "upp", "4368": "Ġinitial", "4369": "ĠAtt", "4370": "ĠBig", "4371": "Ġsleep", "4372": "36", "4373": "Ġship", "4374": "Ġmarriage", "4375": "Ġmanagement", "4376": "ĠWindows", "4377": "Ġthus", "4378": "Ġlimit", "4379": "Ġborn", "4380": "32", "4381": "Ġbecoming", "4382": "known", "4383": "Ġphoto", "4384": "Ġeasier", "4385": "FC", "4386": "ĠGreat", "4387": "Ġrat", "4388": "Ġlegislation", "4389": "Ġcontrovers", "4390": "Ġunlike", "4391": "Ġelectric", "4392": "ĠMany", "4393": "Ġcamera", "4394": "witch", "4395": "Ġaccused", "4396": "Ġspl", "4397": "Ġneighbor", "4398": "Ġdouble", "4399": "Ġice", "4400": "Ġspecies", "4401": "lant", "4402": "Ġshared", "4403": "Ġjoin", "4404": "Ġillegal", "4405": "Ġ31", "4406": "ĠLab", "4407": "Ġ2006", "4408": "Mr", "4409": "Ġharm", "4410": "Ġmachine", "4411": "Ġserved", "4412": "ĠJer", "4413": "GB", "4414": "Ġextremely", "4415": "olf", "4416": "Ġactive", "4417": "Ġ35", "4418": "Ġserve", "4419": "Ġdocuments", "4420": "ĠIslamic", "4421": "Ġframe", "4422": "za", "4423": "Ġstrik", "4424": "level", "4425": "ĠDist", "4426": "Ġaudience", "4427": "BS", "4428": "Ġlocation", "4429": "ĠAM", "4430": "Ġscientists", "4431": "Ġbottom", "4432": "Ġvictims", "4433": "ĠArt", "4434": "orrow", "4435": "Ġwealth", "4436": "Ġprofessional", "4437": "Ġresist", "4438": "ih", "4439": "Ġreduce", "4440": "Ġbelief", "4441": "Ġnine", "4442": "Ġsolid", "4443": "Ġwinning", "4444": "Ġmarijuana", "4445": "ears", "4446": "ĠUk", "4447": "Ġnegative", "4448": "75", "4449": "iful", "4450": "Ġcommunities", "4451": "Ġreturned", "4452": "ortunately", "4453": "Ġbed", "4454": "Ġincred", "4455": "ĠPM", "4456": "ĠInstitute", "4457": "met", "4458": "tered", "4459": "Ġchurch", "4460": "PS", "4461": "Ġdepartment", "4462": "irgin", "4463": "ĠSanders", "4464": "Ġran", "4465": "Ġvictory", "4466": "rey", "4467": "Ġpurpose", "4468": "Ġ90", "4469": "ĠCommun", "4470": "Ġamb", "4471": "lands", "4472": "Ġvehicle", "4473": "Ġinternet", "4474": "Ġleadership", "4475": "ios", "4476": "ĠHall", "4477": "istics", "4478": "Ġbomb", "4479": "Ġmobile", "4480": "ghan", "4481": "Ġinstance", "4482": "ipped", "4483": "38", "4484": "Ġseparate", "4485": "Ġexisting", "4486": "Ġnotice", "4487": "Ġhearing", "4488": "Ġdie", "4489": "Ġexplain", "4490": "Ġdoubt", "4491": "Ġfaith", "4492": "Ġteach", "4493": "house", "4494": "ĠYour", "4495": "atically", "4496": "Ġepisode", "4497": "Ġwatching", "4498": "Ġcomfort", "4499": "ĠCanadian", "4500": "ĠBank", "4501": "Ġnotes", "4502": "Ġradio", "4503": "ĠEv", "4504": "Ġfresh", "4505": "ĠFin", "4506": "Ġunc", "4507": "Ġviews", "4508": "ĠInc", "4509": "Ġputting", "4510": "asy", "4511": "Ġsupporters", "4512": "Ġconservative", "4513": "Ġpurs", "4514": "Ġargument", "4515": "omas", "4516": "Ġmicro", "4517": "ario", "4518": "acity", "4519": "Ġlaunched", "4520": "scrib", "4521": "works", "4522": "OL", "4523": "Ġappeal", "4524": "iliar", "4525": "Ġitems", "4526": "Ġcommittee", "4527": "resp", "4528": "ĠMad", "4529": "which", "4530": "Ġdefinitely", "4531": "Ġdangerous", "4532": "iller", "4533": "PA", "4534": "zen", "4535": "Ġcoverage", "4536": "Ġdirection", "4537": "ĠOver", "4538": "Ġcharged", "4539": "Ġfloor", "4540": "Ġsun", "4541": "Ġmax", "4542": "ography", "4543": "34", "4544": "EM", "4545": "ĠCarol", "4546": "ĠChurch", "4547": "ĠFox", "4548": "Ġissued", "4549": "Ġdrugs", "4550": "Image", "4551": "ipp", "4552": "Ġtask", "4553": "Ġbackground", "4554": "Ġcompetition", "4555": "Ġtrend", "4556": "Ġstated", "4557": "vention", "4558": "andom", "4559": "ada", "4560": "Ġtraffic", "4561": "ĠFBI", "4562": "Ġcommercial", "4563": "ĠDirect", "4564": "urb", "4565": "itt", "4566": "NA", "4567": "Ġspoke", "4568": "Ġsett", "4569": "inct", "4570": "Ġtransfer", "4571": "Ġsuggested", "4572": "Ġstructure", "4573": "Ġsites", "4574": "Ġhus", "4575": "Ġnorth", "4576": "ĠSince", "4577": "ĠLike", "4578": "Ġrestaur", "4579": "ampionship", "4580": "Ġlabor", "4581": "Ġdecade", "4582": "Ġrepeated", "4583": "ĠGame", "4584": "Ġreact", "4585": "oman", "4586": "Ġcards", "4587": "Ġanimals", "4588": "going", "4589": "Ġnovel", "4590": "ctors", "4591": "but", "4592": "ribute", "4593": "Ġdaughter", "4594": "anted", "4595": "ĠSl", "4596": "Ġdriving", "4597": "Ġclosed", "4598": "Ġworst", "4599": "Ġcontain", "4600": "Ġentirely", "4601": "Ġded", "4602": "ĠBritain", "4603": "ady", "4604": "gency", "4605": "Ġdriver", "4606": "ĠWil", "4607": "Ġdisease", "4608": "Ġtelling", "4609": "iling", "4610": "Ġsmaller", "4611": "Ġdiscovered", "4612": "Ġnor", "4613": "Bl", "4614": "akistan", "4615": "Ġrefere", "4616": "ĠPri", "4617": "Americ", "4618": "ĠLos", "4619": "ius", "4620": "Ġhack", "4621": "hem", "4622": "equ", "4623": "!âĢĿ", "4624": "ference", "4625": "ĠQue", "4626": "spe", "4627": "Ġfalse", "4628": "Ġcash", "4629": "Ġconcerned", "4630": "ulf", "4631": "Ġplays", "4632": "Ġsurface", "4633": "semb", "4634": "Ġsupported", "4635": "annel", "4636": "ulated", "4637": "Ġtools", "4638": "oyal", "4639": "Ġcompar", "4640": "Ġtransport", "4641": "ĠChris", "4642": "Ġexperiment", "4643": "Ġfinding", "4644": "night", "4645": "Ġcateg", "4646": "ãĤ", "4647": "Ġaspect", "4648": "##", "4649": "Ġbusinesses", "4650": "Ġ70", "4651": "ĠUN", "4652": "ait", "4653": "Ġfarm", "4654": "Ġplease", "4655": "Ġolder", "4656": "azon", "4657": "how", "4658": "Ġactivities", "4659": "Ġrequires", "4660": "phone", "4661": "CH", "4662": "Ġgay", "4663": "ĠJones", "4664": "do", "4665": "ibrary", "4666": "Ġstrength", "4667": "48", "4668": "Ġwel", "4669": "andon", "4670": "Ġinsurance", "4671": "Ġconsequ", "4672": "37", "4673": "Ġlargely", "4674": "Ġmurder", "4675": "NN", "4676": "ici", "4677": "55", "4678": "Ġexerc", "4679": "Ġcaught", "4680": "Ġcandidates", "4681": "kins", "4682": "ĠIsraeli", "4683": "Ġallowing", "4684": "icy", "4685": "Ġblue", "4686": "ĠAre", "4687": "Ġannual", "4688": "ĠKen", "4689": "ĠTre", "4690": "Ġtesting", "4691": "ossible", "4692": "Ġstrateg", "4693": "ĠSup", "4694": "Ġraise", "4695": "Ġstock", "4696": "arant", "4697": "overy", "4698": "ĠRobert", "4699": "izes", "4700": "Ġdecisions", "4701": "Ġaccur", "4702": "rick", "4703": "Ġcontext", "4704": "Ġfuel", "4705": "ĠAc", "4706": "SP", "4707": "lor", "4708": "osure", "4709": "ĠUkrain", "4710": "Ġconcern", "4711": "Ġafford", "4712": "Ġbelieves", "4713": "Ġconstruction", "4714": "Ġtruly", "4715": "****", "4716": "ĠTy", "4717": "ĠMiss", "4718": "Ġge", "4719": "Ġjustice", "4720": "igrants", "4721": "Ġgeneration", "4722": "Ġhighlight", "4723": "Ġunit", "4724": "rim", "4725": "Ġpresence", "4726": "ĠJewish", "4727": "anging", "4728": "!!", "4729": "ĠSil", "4730": "Ð°", "4731": "tery", "4732": "Ðµ", "4733": "ception", "4734": "ĠAfrica", "4735": "Ġguess", "4736": "ancy", "4737": "Ġwitness", "4738": "itable", "4739": "Ġholding", "4740": "ĠGree", "4741": "Ġestablish", "4742": "Ġlength", "4743": "Ġplanning", "4744": "bre", "4745": "ava", "4746": "ĠAfrican", "4747": "Ġsequ", "4748": "cknow", "4749": "Ġrefuge", "4750": "Ġplaced", "4751": "Ġcatch", "4752": "ĠAfghan", "4753": "Ġsan", "4754": "inter", "4755": "ĠAssociation", "4756": "Ġtells", "4757": "âĢĺ", "4758": "Ġscale", "4759": "ey", "4760": "Ġspokesman", "4761": "Ġtim", "4762": "nel", "4763": "Ġrough", "4764": "Ġattend", "4765": "olly", "4766": "ĠVer", "4767": "Ġcells", "4768": "Ġjoined", "4769": "ĠPre", "4770": "Ġmentioned", "4771": "Ġinterests", "4772": "Ġabuse", "4773": "pective", "4774": "ĠJim", "4775": "More", "4776": "Ġhasn", "4777": "ĠPC", "4778": "Le", "4779": "Ġiniti", "4780": "Ġenforcement", "4781": "Ġkid", "4782": "ĠGOP", "4783": "Ġintroduced", "4784": "Ġdeliver", "4785": "Ġconflict", "4786": "ĠMer", "4787": "ĠMicrosoft", "4788": "Ġphil", "4789": "âĢĶâĢĶ", "4790": "Ġupdate", "4791": "Ġmissing", "4792": "ros", "4793": "Ġproviding", "4794": "Ġwaiting", "4795": "Ġcancer", "4796": "39", "4797": "Ġrecommend", "4798": "ocracy", "4799": "Ġestablished", "4800": "isation", "4801": "Ġeat", "4802": "bour", "4803": "ĠYes", "4804": "Ġoccup", "4805": "ĠFrank", "4806": "ĠJeff", "4807": "ĠAngeles", "4808": "Ġremoved", "4809": "Ġ2005", "4810": "ula", "4811": "Ġoffensive", "4812": "ĠFore", "4813": "ĠInstead", "4814": "icon", "4815": "Ġinjury", "4816": "Ġsports", "4817": "47", "4818": "Ġfant", "4819": "Ġdiscussion", "4820": "vant", "4821": "Ġoperation", "4822": "Ġdownload", "4823": "Ġuseful", "4824": "Ġnewsp", "4825": "Ġconversation", "4826": "Ġhomes", "4827": "ronic", "4828": "Ġsouth", "4829": "Ġcook", "4830": "ĠCEO", "4831": "Ġassess", "4832": "ĠGroup", "4833": "itz", "4834": "formation", "4835": "lig", "4836": "Ġbanks", "4837": "onto", "4838": "Ġstopped", "4839": "ĠStep", "4840": "ĠConst", "4841": "Ġobvious", "4842": "ications", "4843": "Ġmeasures", "4844": "Ġmodels", "4845": "ĠKh", "4846": "Ġfourth", "4847": "ĠMP", "4848": "Our", "4849": "season", "4850": "DA", "4851": "what", "4852": "Ġbul", "4853": "anda", "4854": "Ġ2018", "4855": "Ġfiles", "4856": "Ġgirls", "4857": "ĠLouis", "4858": "Ġstick", "4859": "cks", "4860": "azine", "4861": "mail", "4862": "umn", "4863": "Ġmanaged", "4864": "iter", "4865": "apped", "4866": "ĠPalestin", "4867": "oted", "4868": "Ġfigures", "4869": "oms", "4870": "ĠTim", "4871": "ĠLeg", "4872": "Ġidentified", "4873": "Ġgraph", "4874": "ĠJud", "4875": "ĠSal", "4876": "Ġfinished", "4877": "Ġfunds", "4878": "Pl", "4879": "ĠPakistan", "4880": "real", "4881": "Ġsetting", "4882": "Ġconclud", "4883": "Ġprefer", "4884": "Ġhair", "4885": "Ġcommitted", "4886": "ĠMexico", "4887": "49", "4888": "Ġskills", "4889": "kin", "4890": "Ġappropri", "4891": "Ġspirit", "4892": "ĠRock", "4893": "Ġveter", "4894": "Ġfocused", "4895": "Ġarrived", "4896": "ĠTHE", "4897": "Ġhousing", "4898": "ĠVirgin", "4899": "Ġkeeping", "4900": "Ġtherefore", "4901": "Ġacknow", "4902": "Ġdetect", "4903": "ulate", "4904": "Des", "4905": "Ġpartner", "4906": "Ġexclus", "4907": "igan", "4908": "ĠAndroid", "4909": "enses", "4910": "ups", "4911": "Ġearth", "4912": "Ġtransl", "4913": "outs", "4914": "place", "4915": "Ġtough", "4916": "ĠJapanese", "4917": "Ġ2000", "4918": "Ġrelatively", "4919": "Ã¡", "4920": "ĠSupreme", "4921": "owl", "4922": "wing", "4923": "Ġidentity", "4924": "Ġfeels", "4925": "rd", "4926": "ĠMet", "4927": "Ġotherwise", "4928": "Ġsurvey", "4929": "RA", "4930": "ĠRyan", "4931": "ocal", "4932": "ication", "4933": "itutional", "4934": "Ġprotection", "4935": "agn", "4936": "Ġexchange", "4937": "Ġowner", "4938": "isf", "4939": "Trump", "4940": "Ġsteps", "4941": "ĠInter", "4942": "Ġtrip", "4943": "imb", "4944": "Ġhusband", "4945": "ĠMont", "4946": "Ġtweet", "4947": "Ġconnection", "4948": "ĠArmy", "4949": "Ġslightly", "4950": "ĠProf", "4951": "eah", "4952": "ka", "4953": "Ġweak", "4954": "ĠGovernment", "4955": "verse", "4956": "\":", "4957": "Ġcircum", "4958": "Ġelements", "4959": "Ġclick", "4960": "ĠRichard", "4961": "Ġstrike", "4962": "Ġphotos", "4963": "ga", "4964": "Ġmere", "4965": "Ġdefensive", "4966": "dden", "4967": "gar", "4968": "Ġgain", "4969": "Ġfle", "4970": "Ġdepend", "4971": "ucky", "4972": "Ġcollection", "4973": "onym", "4974": "hens", "4975": "Ġkilling", "4976": "Ġroll", "4977": "ighter", "4978": "Go", "4979": "Ġcorner", "4980": "ĠMartin", "4981": "ancing", "4982": "odies", "4983": "Ġsuggests", "4984": "uct", "4985": "Ġaggress", "4986": "with", "4987": "prof", "4988": "Ġguard", "4989": "Photo", "4990": "Ġgender", "4991": "makers", "4992": "ĠCollege", "4993": "Ġcommission", "4994": "ĠAlthough", "4995": "range", "4996": "Ġdat", "4997": "ĠSur", "4998": "46", "4999": "ĠIr", "5000": "ĠDec", "5001": "Ġmental", "5002": "icide", "5003": "Ġamazing", "5004": "rees", "5005": "ĠSub", "5006": "hi", "5007": "Ġplanet", "5008": "ĠTeam", "5009": "rency", "5010": "ĠOut", "5011": "Ġbigger", "5012": "Ġfailure", "5013": "ym", "5014": "ĠJose", "5015": "Ġsupply", "5016": "Why", "5017": "ania", "5018": "ĠNor", "5019": "Ġstarts", "5020": "gers", "5021": "Ġsides", "5022": "hedul", "5023": "iser", "5024": "Ġfamiliar", "5025": "Ġremind", "5026": "Ġsust", "5027": "Ġspect", "5028": "ils", "5029": "uate", "5030": "Ġspeaking", "5031": "ano", "5032": "Ġtalks", "5033": "Ġhappening", "5034": "mas", "5035": "gypt", "5036": "Ġorganizations", "5037": "Ġhate", "5038": "Ġwindow", "5039": "Ġarmy", "5040": "ĠGood", "5041": "ĠJoe", "5042": "Ġnone", "5043": "uke", "5044": "Ġtaxes", "5045": "Ġplanned", "5046": "ĠPet", "5047": "Ġthanks", "5048": "ĠMary", "5049": "Ġstruct", "5050": "Ġpit", "5051": "Ġdecide", "5052": "Ġsudden", "5053": "Ġwish", "5054": "lo", "5055": "Ġcrew", "5056": "Ġcarried", "5057": "Ġappoint", "5058": "oston", "5059": "Ġpet", "5060": "awn", "5061": "eless", "5062": "agues", "5063": "ynam", "5064": "Ġregist", "5065": "TC", "5066": "Ġmulti", "5067": "idering", "5068": "Ġhelping", "5069": "Last", "5070": "Ġaward", "5071": "Ġstandards", "5072": "Ġ32", "5073": "ĠFire", "5074": "Ġrevolution", "5075": "Ġenvironmental", "5076": "].", "5077": "ĠWeb", "5078": "arsh", "5079": "ĠThomas", "5080": "olit", "5081": "Ġscript", "5082": "pm", "5083": "ola", "5084": "Ġseconds", "5085": "gn", "5086": "run", "5087": "ĠResearch", "5088": "Ġscientific", "5089": "ĠBern", "5090": "Ġimmigration", "5091": "Ġstanding", "5092": "ĠTheir", "5093": "Ġ45", "5094": "stream", "5095": "ocol", "5096": "Ġque", "5097": "Ġbeer", "5098": "Ġdomestic", "5099": "imal", "5100": "adium", "5101": "Ġpair", "5102": "uters", "5103": "ĠAlso", "5104": "ĠSecretary", "5105": "ĠUs", "5106": "Ġacadem", "5107": "Ġcold", "5108": "Ġvariety", "5109": "Ġmarkets", "5110": "Ġsch", "5111": "fe", "5112": "HL", "5113": "Ġterrit", "5114": "Ġdropped", "5115": "Ġaccounts", "5116": "!\"", "5117": "ĠAtlant", "5118": "Ġfiled", "5119": "erous", "5120": "acks", "5121": "illa", "5122": "Ġbalance", "5123": "Ġimpossible", "5124": "ĠTer", "5125": "aven", "5126": "Ġinteract", "5127": "Ġneighborhood", "5128": "Ġdegree", "5129": "Read", "5130": "Ġturns", "5131": "ores", "5132": "itect", "5133": "Ġpossibly", "5134": "Ġappre", "5135": "Ġoperating", "5136": "Ġprinc", "5137": "Ġalternative", "5138": "Ġunion", "5139": "Ġvotes", "5140": "Ġvul", "5141": "ader", "5142": "Ġprofessor", "5143": "Ġtack", "5144": "ĠService", "5145": "Ġincreasingly", "5146": "ayer", "5147": "ruit", "5148": "Ġapply", "5149": "Ġfellow", "5150": "Ġcuts", "5151": "stein", "5152": "Ġhonest", "5153": "ĠPrime", "5154": "Ġunivers", "5155": "Ġserver", "5156": "vis", "5157": "Ġdevelopers", "5158": "arks", "5159": "ĠSyrian", "5160": "Ġapparently", "5161": "abb", "5162": "aren", "5163": "Ġlived", "5164": "Ġchanging", "5165": "Ġworry", "5166": "rastructure", "5167": "ĠCarolina", "5168": "Ġtests", "5169": "Ġunits", "5170": "Ġrich", "5171": "ĠTwo", "5172": "cious", "5173": "icted", "5174": "From", "5175": "aded", "5176": "Ġhumans", "5177": "IM", "5178": "ĠFoundation", "5179": "ĠMos", "5180": "Ġagencies", "5181": "Ġsounds", "5182": "ashed", "5183": "Ġtwice", "5184": "Ġultimately", "5185": "obby", "5186": "Ġlosing", "5187": "Ġphilos", "5188": "Ġauthority", "5189": "Ġsoldiers", "5190": "ãĥ", "5191": "Ġanimal", "5192": "gu", "5193": "ĠImages", "5194": "Ġsettle", "5195": "Ġath", "5196": "Ġschedul", "5197": "Ġmut", "5198": "Ġcolle", "5199": "Ġcorporate", "5200": "Ġabsolutely", "5201": "Ġhealthy", "5202": "Ġpaying", "5203": "och", "5204": "Ġequip", "5205": "iams", "5206": "Ġdeveloping", "5207": "Ġsea", "5208": "ĠTime", "5209": "Ġcloser", "5210": "ĠDen", "5211": "Ġinnov", "5212": "related", "5213": "Ġseeking", "5214": "Ġregarding", "5215": "coh", "5216": "roud", "5217": "Ġskin", "5218": "Ġexpensive", "5219": "ansion", "5220": "Ġpossibility", "5221": "Ġbeautiful", "5222": "Ġreligion", "5223": "Ġapart", "5224": "ĠCentral", "5225": "Ġfundament", "5226": "Ġexperts", "5227": "Ġsolar", "5228": "65", "5229": "Ġyards", "5230": "Ġvast", "5231": "Ġwriter", "5232": "Ġflight", "5233": "ĠDistrict", "5234": "ĠLast", "5235": "Ġdeploy", "5236": "Ġadjust", "5237": "Of", "5238": "Ġinternal", "5239": "Ġtast", "5240": "ĠUnder", "5241": "ĠLat", "5242": "31", "5243": "ĠPeter", "5244": "apers", "5245": "Ġimagine", "5246": "ĠJon", "5247": "IV", "5248": "Ġapplications", "5249": "iot", "5250": "ologies", "5251": "Ġvision", "5252": "look", "5253": "state", "5254": "osen", "5255": "ĠFrancisco", "5256": "ĠToronto", "5257": "den", "5258": "Ġsitting", "5259": "ĠPlan", "5260": "Ġtrail", "5261": "Ġunless", "5262": "ĠUSA", "5263": "ĠJes", "5264": "isted", "5265": "Ġheat", "5266": "Ġ2004", "5267": "Even", "5268": "Ġresponsibility", "5269": "Ġcapacity", "5270": "IP", "5271": "atures", "5272": "ĠMiddle", "5273": "Ġerror", "5274": "aine", "5275": "ias", "5276": "Ġsymb", "5277": "Ġfol", "5278": "Ġarms", "5279": "Ġpil", "5280": "Ġgar", "5281": "pire", "5282": "Ġcovered", "5283": "idden", "5284": "ĠBur", "5285": "Ġfamous", "5286": "ĠCamp", "5287": "Ġforms", "5288": "uzz", "5289": "ND", "5290": "Ġuniversity", "5291": "Ġguarant", "5292": "Ġtight", "5293": "Ġpresented", "5294": "ortion", "5295": "oving", "5296": "enced", "5297": "ĠST", "5298": "ĠEgypt", "5299": "Ġearn", "5300": "ĠPut", "5301": "Ġconvention", "5302": "under", "5303": "Just", "5304": "ĠPublic", "5305": "Ġsurprise", "5306": "Ġattorney", "5307": "Ġelections", "5308": "Ġestimated", "5309": "Ġfif", "5310": "ĠAri", "5311": "Ġteen", "5312": "Ġinstit", "5313": "Ġvehicles", "5314": "rible", "5315": "ĠAmazon", "5316": "road", "5317": "Ġintended", "5318": "Ġrid", "5319": "Ġodd", "5320": "Ġhelps", "5321": "Ġoccurred", "5322": "person", "5323": "Ġstreets", "5324": "uster", "5325": "hand", "5326": "ini", "5327": "ĠBoston", "5328": "ĠSol", "5329": "Ġ=>", "5330": "=\"", "5331": "ĠMur", "5332": "Ġsport", "5333": "sen", "5334": "Ġdetermine", "5335": "ressive", "5336": "ĠBitcoin", "5337": "Ġexpert", "5338": "alls", "5339": "Ġconsult", "5340": "uration", "5341": "Ġbroken", "5342": "Let", "5343": "lets", "5344": "Ġfired", "5345": "Ġton", "5346": "Ġflow", "5347": "Ġdomin", "5348": "ĠGal", "5349": "porary", "5350": "eder", "5351": "LE", "5352": "Ġshall", "5353": "Ġreserv", "5354": "Up", "5355": "Ġtroops", "5356": "ION", "5357": "ĠThose", "5358": "Ġhyp", "5359": "Ġnar", "5360": "terday", "5361": "Ġpieces", "5362": "ĠChief", "5363": "Ġprepared", "5364": "ĠMass", "5365": "ĠCath", "5366": "Ġrapid", "5367": "gl", "5368": "orage", "5369": "ĠJo", "5370": "Ġlocated", "5371": "ĠSocial", "5372": "Ġbaby", "5373": "----------------", "5374": "Ġconclus", "5375": "Ġbringing", "5376": "anche", "5377": "ĠProt", "5378": "Ġprove", "5379": "Ġspecifically", "5380": "ĠAny", "5381": "Ġpotentially", "5382": "Ġsector", "5383": "Ġrandom", "5384": "Ġjail", "5385": "OW", "5386": "Ġselling", "5387": "Ġgovernments", "5388": "ĠOnce", "5389": "Ġscr", "5390": "Ab", "5391": "Ġequal", "5392": "class", "5393": "war", "5394": "Ġfaster", "5395": "Ġheav", "5396": "ĠSpr", "5397": "Ġboost", "5398": "useum", "5399": "vey", "5400": "Ġclin", "5401": "Ġproposal", "5402": "oty", "5403": "Ġfactors", "5404": "Ġplenty", "5405": "TH", "5406": "Ġequipment", "5407": "Ġcouncil", "5408": "Ġera", "5409": "Ġinfrastructure", "5410": "Do", "5411": "Ġstress", "5412": "phas", "5413": "Ġstars", "5414": "ĠJournal", "5415": "ĠRub", "5416": "endment", "5417": "ĠVirginia", "5418": "Ġbreat", "5419": "Ġprosecut", "5420": "Ġvoted", "5421": "Ġoffering", "5422": "Ġcarbon", "5423": "inent", "5424": "Ġexpressed", "5425": "Ġvulner", "5426": "Ġcombat", "5427": "ĠParis", "5428": "Ġbroke", "5429": "()", "5430": "ureau", "5431": "Ġclot", "5432": "ours", "5433": "Ġruling", "5434": "ĠFederal", "5435": "Ġretail", "5436": "ĠGuard", "5437": "Ġrefused", "5438": "Ġdram", "5439": "ĠDan", "5440": "Ġelected", "5441": "ĠOpen", "5442": "ĠRiver", "5443": "Every", "5444": "Ġsecure", "5445": "cean", "5446": "Ġseasons", "5447": "Ġconducted", "5448": ",'", "5449": "ht", "5450": "Ġchallenges", "5451": "Ġremove", "5452": "isher", "5453": "ĠSant", "5454": "Ġmethods", "5455": "Ġweapon", "5456": "noon", "5457": "Ġpointed", "5458": "ĠIsland", "5459": "Ġmaster", "5460": "Ġremained", "5461": "ĠAustralian", "5462": "Ġprime", "5463": "ENT", "5464": "Ġtrig", "5465": "Ġpositions", "5466": "ĠCru", "5467": "Ġdin", "5468": "ĠMel", "5469": "Ġcriticism", "5470": "ipping", "5471": "First", "5472": "ocking", "5473": "ĠMedic", "5474": "ĠPlease", "5475": "rog", "5476": "onom", "5477": "IG", "5478": "Ġsale", "5479": "olved", "5480": "ĠFe", "5481": "Ġcultural", "5482": "that", "5483": "Ġweren", "5484": "Ġsignificantly", "5485": "Ġbrow", "5486": "etic", "5487": "Ġoriginally", "5488": "rie", "5489": "ĠDuring", "5490": "Ġaffected", "5491": "Ġappearance", "5492": "Ġcas", "5493": "Ġtourn", "5494": "Ġfacing", "5495": "Ġgreatest", "5496": "Ġfinish", "5497": "ĠLee", "5498": "Ġstret", "5499": "yr", "5500": "Ġyouth", "5501": "Ġtele", "5502": "ĠWho", "5503": "ĠCur", "5504": "Ġpercentage", "5505": "ĠPhoto", "5506": "col", "5507": "Ġdetermined", "5508": "Ġsigns", "5509": "Ġinvolve", "5510": "95", "5511": "cel", "5512": "Ð¸", "5513": "64", "5514": "Ġthank", "5515": "Ġbought", "5516": "Ġ500", "5517": "lyn", "5518": "ĠSing", "5519": "standing", "5520": "Ġchemical", "5521": "ashion", "5522": "Ġshape", "5523": "Ġvir", "5524": "Ġregime", "5525": "Ġgrew", "5526": "pired", "5527": "Ġremaining", "5528": "ĠSteve", "5529": "lymp", "5530": "Ġminimum", "5531": "ĠSaud", "5532": "reens", "5533": "Ġindeed", "5534": "Ġdream", "5535": "rier", "5536": "Since", "5537": "Ġmarg", "5538": "Sp", "5539": "ĠBoth", "5540": ">>", "5541": "Ġmode", "5542": "Ġherself", "5543": "Ġvoting", "5544": "ĠColor", "5545": "Ġobviously", "5546": "ĠForce", "5547": "Ġreduced", "5548": "ordin", "5549": "ĠNov", "5550": "Ġwood", "5551": "ĠRem", "5552": "Ġrecorded", "5553": "Ġargued", "5554": "Ġ1990", "5555": "Ġrevenue", "5556": "Ġtact", "5557": "ĠRo", "5558": "Ġwearing", "5559": "aling", "5560": "ighters", "5561": "Ġleads", "5562": "edia", "5563": "Ġhun", "5564": "Ġpoliticians", "5565": "Ġplus", "5566": "Ġcontrast", "5567": "Ġswitch", "5568": "Ġhandle", "5569": "Ġpurchase", "5570": "Ġthr", "5571": "Ġsubs", "5572": "Ġconcent", "5573": "Ġproced", "5574": "ÑĤ", "5575": "Ġagent", "5576": "arp", "5577": "ĠWilliams", "5578": "Ġappreci", "5579": "Ġexperienced", "5580": "Ġhurt", "5581": "top", "5582": "Ġexcited", "5583": "Ġvideos", "5584": "Ġhttps", "5585": "cohol", "5586": "Ġsupporting", "5587": "DP", "5588": "ĠHaw", "5589": "mm", "5590": "ownt", "5591": "ĠFree", "5592": "Ġsurprising", "5593": "Ġminute", "5594": "odd", "5595": "Ġexplos", "5596": "Ġbelong", "5597": "Ġconsumers", "5598": "Ġidentify", "5599": "Ġconsidering", "5600": "ĠPac", "5601": "ĠConserv", "5602": "ller", "5603": "apter", "5604": "Ġaircraft", "5605": "Ġrent", "5606": "Ġaid", "5607": "CL", "5608": "Ġpulled", "5609": "gment", "5610": "Ġbasically", "5611": "Ġdifferences", "5612": "ogue", "5613": "ĠBook", "5614": "Ġglass", "5615": "Ġafternoon", "5616": "Ġshift", "5617": "Ġdiss", "5618": "ĠRad", "5619": "Ġdepart", "5620": "Ġends", "5621": "essions", "5622": "Ġturning", "5623": "Ġbound", "5624": "Ġfilms", "5625": "Ġspring", "5626": "Ġprospect", "5627": "ruption", "5628": "ket", "5629": "ĠCharl", "5630": "hab", "5631": "Ġmort", "5632": "05", "5633": "life", "5634": "Ġtreated", "5635": "Ġaccident", "5636": ",[", "5637": "01", "5638": "Ġmotiv", "5639": "Ġlisten", "5640": "Ġseat", "5641": "ĠPower", "5642": "uts", "5643": "Ġcombined", "5644": "Ġconstruct", "5645": "Ind", "5646": "Ġseriously", "5647": "Ġprivacy", "5648": "apping", "5649": "Ġevening", "5650": "hered", "5651": "hy", "5652": "Ġopportunities", "5653": "asp", "5654": "Ġstruggle", "5655": "Ġ195", "5656": "Ġpanel", "5657": "Ġenemy", "5658": "Ġlots", "5659": "Ġcompleted", "5660": "ĠDaily", "5661": "Ġvisual", "5662": "His", "5663": "Phone", "5664": "pet", "5665": "Ġtalked", "5666": "Ġcart", "5667": "Ġhopes", "5668": "oral", "5669": "Ġpassing", "5670": "Ġid", "5671": "Ġapps", "5672": "osite", "5673": "PD", "5674": "Ġcalcul", "5675": "Another", "5676": "Ġwidely", "5677": "ensions", "5678": "Ġemergency", "5679": "ĠHol", "5680": "ĠShow", "5681": "Ġsuit", "5682": "Ġelement", "5683": "amm", "5684": "Ġast", "5685": "anged", "5686": "SS", "5687": "aled", "5688": "ucks", "5689": "Ġpowers", "5690": "ato", "5691": "ĠRel", "5692": "ĠBBC", "5693": "ĠOlymp", "5694": "Ġburn", "5695": "TV", "5696": "Ġdiscl", "5697": "Pe", "5698": "Ġplants", "5699": "Ġflat", "5700": "ĠSpace", "5701": "Ġliberal", "5702": "raud", "5703": "obe", "5704": "Ġopposed", "5705": "Well", "5706": "Ġproceed", "5707": "ompl", "5708": "Ġcopyright", "5709": "oking", "5710": "ĠProject", "5711": "Ġadvance", "5712": "Ġfactor", "5713": "Ġdistance", "5714": "Ġ2003", "5715": "ivered", "5716": "Ġdismiss", "5717": "plom", "5718": "Ġattempts", "5719": "Ġtun", "5720": "ĠMatt", "5721": "ĠRoad", "5722": "abilities", "5723": "Am", "5724": "ributed", "5725": "ĠIN", "5726": "Ġtrouble", "5727": "unction", "5728": "Ġhol", "5729": "Ġcollabor", "5730": "Ġdefault", "5731": "sts", "5732": "idel", "5733": "ĠBet", "5734": "Ġzone", "5735": "ĠJackson", "5736": "Ġupgr", "5737": "rawn", "5738": "ita", "5739": "Cont", "5740": "Ġreaction", "5741": "Ġstorm", "5742": "Ġreporters", "5743": "ĠMem", "5744": "Ġfrust", "5745": "PR", "5746": "nell", "5747": "mosp", "5748": "adow", "5749": "Ġwrites", "5750": "mond", "5751": "aints", "5752": "Ġtypically", "5753": "ĠToday", "5754": "lines", "5755": "respond", "5756": "UT", "5757": "Ġpages", "5758": "Ġinstruct", "5759": "ternal", "5760": "eds", "5761": "Ġreference", "5762": "Ġpackage", "5763": "Ġbodies", "5764": "zer", "5765": "Ġmatters", "5766": "free", "5767": "42", "5768": "Ġdenied", "5769": "care", "5770": "edd", "5771": "App", "5772": "Ġquant", "5773": "Ġdisappoint", "5774": "Ġsem", "5775": "Ġexplo", "5776": "ĠNAS", "5777": "Ġoptim", "5778": "ache", "5779": "Ġquiet", "5780": "Ġentertain", "5781": "Ġmal", "5782": "Ġresponded", "5783": "Ġapproved", "5784": "ĠTurkey", "5785": "Ġsatisf", "5786": "aped", "5787": "Ġbroadcast", "5788": "esters", "5789": "Ġinstitutions", "5790": "Ġadvert", "5791": "Ġstands", "5792": "ĠDirector", "5793": "Ġsets", "5794": "estival", "5795": "Ġelimin", "5796": "isters", "5797": "razy", "5798": "Ã¤", "5799": "Rep", "5800": "ĠPenn", "5801": "Ġvalid", "5802": "host", "5803": "Ġrenew", "5804": "ĠOhio", "5805": "elly", "5806": "0000", "5807": "Ġsplit", "5808": "Ġsevere", "5809": "ĠWilliam", "5810": "Ġsac", "5811": "Ġcapable", "5812": "Ġ2001", "5813": "Ġ//", "5814": "Ġpitch", "5815": "abin", "5816": "aniel", "5817": "Ġcaption", "5818": "Ġcloud", "5819": "Ġloved", "5820": "Ġtechnical", "5821": "Ġgiant", "5822": "pass", "5823": "Ġcann", "5824": "Ġtradition", "5825": "rant", "5826": "Ġprompt", "5827": "Ġbull", "5828": "Ġconfident", "5829": "uous", "5830": "Ġconfidence", "5831": "Ġnumerous", "5832": "Ġreportedly", "5833": "ĠMa", "5834": "Ġfaces", "5835": "],", "5836": "writ", "5837": "Ġweather", "5838": "Ġfly", "5839": "Ġtransition", "5840": "rid", "5841": "Ġ36", "5842": "ĠSystem", "5843": "ĠAfghanistan", "5844": "Ġgra", "5845": "ĠSqu", "5846": "Ġcreation", "5847": "De", "5848": "Ġperspective", "5849": "Ġunable", "5850": "Ġforget", "5851": "ĠLabour", "5852": "ĠYet", "5853": "43", "5854": "astern", "5855": "employ", "5856": "oken", "5857": "ĠMedia", "5858": "angers", "5859": "II", "5860": "unte", "5861": "Ġcraft", "5862": "Ġsubstant", "5863": "Ġcooper", "5864": "Ġviolent", "5865": "Ġsuffered", "5866": "ilit", "5867": "Ġcoast", "5868": "Ġmand", "5869": "ampion", "5870": "Ġpictures", "5871": "Ġexperiences", "5872": "Ġapprox", "5873": "abled", "5874": "Ġroute", "5875": "88", "5876": "sex", "5877": "Ġflag", "5878": "Ġadvice", "5879": "ĠAndrew", "5880": "usiness", "5881": "Ġdeclared", "5882": "ĠWal", "5883": "Ġordered", "5884": "ĠHuman", "5885": "razil", "5886": "Ġcrimes", "5887": "Ġcoff", "5888": "Se", "5889": "Ġproud", "5890": "ishes", "5891": "Ġreporting", "5892": "Ġmessages", "5893": "Ġcircumst", "5894": "Ġfindings", "5895": "ĠLin", "5896": "Res", "5897": "Ġeval", "5898": "ulations", "5899": "Ġexcell", "5900": "Over", "5901": "Ġdeclined", "5902": "Ġexplains", "5903": "Ġdelay", "5904": "Ġ\\", "5905": "ĠFollow", "5906": "Ġnewspaper", "5907": "ounded", "5908": "Ġconnected", "5909": "ilty", "5910": "Ġshouldn", "5911": "evin", "5912": "oves", "5913": "Ġongoing", "5914": "can", "5915": "Ġvan", "5916": "dule", "5917": "Ġmovies", "5918": "Ġpicked", "5919": "ionally", "5920": "resents", "5921": "77", "5922": "Ġadmitted", "5923": "Ġdelivered", "5924": "During", "5925": "Ġguns", "5926": "ĠML", "5927": "ĠScot", "5928": "Ġwalking", "5929": "Ġagents", "5930": "called", "5931": "Ġprin", "5932": "tion", "5933": "Ġeditor", "5934": "Ġthoughts", "5935": "Ġmarried", "5936": "ĠTra", "5937": "Ġauth", "5938": "Ġemails", "5939": "Ġappropriate", "5940": "Ġemphas", "5941": "uations", "5942": "Ġedge", "5943": "Ġarchitect", "5944": "ĠGrand", "5945": "Ġleaves", "5946": "Ġupdates", "5947": "Ġaccompl", "5948": "OD", "5949": "Ġgather", "5950": "ĠMuslims", "5951": "Ġforg", "5952": "ansas", "5953": "ĠWood", "5954": "Ġquarterback", "5955": "Ġsession", "5956": "ooth", "5957": "41", "5958": "ĠTechn", "5959": "Ġpool", "5960": "ĠScience", "5961": "cos", "5962": "Ġinjured", "5963": "arn", "5964": "Ġpublicly", "5965": "ellow", "5966": "ĠSov", "5967": "Ġstatements", "5968": "Ġperman", "5969": "Ġlegit", "5970": "arl", "5971": "nergy", "5972": "MA", "5973": "Ġconfirm", "5974": "ĠLake", "5975": "Ġourselves", "5976": "Other", "5977": "Ġrealize", "5978": "Ġrot", "5979": "Ġdrivers", "5980": "ĠAv", "5981": "ĠDou", "5982": "TA", "5983": "mates", "5984": ",âĢĻ", "5985": "Ġarmed", "5986": "essor", "5987": "Ġdial", "5988": "cons", "5989": "Ġlawyer", "5990": "ourney", "5991": "Ġrail", "5992": "Ġreaders", "5993": "reland", "5994": "Ġsad", "5995": "Ġcontains", "5996": "Ġargue", "5997": "ĠRev", "5998": "Ġtalent", "5999": "Ġfilled", "6000": "ĠSum", "6001": "Ġallegations", "6002": "Ġactivists", "6003": "ĠChristmas", "6004": "Ġdynam", "6005": "Ġ1980", "6006": "ĠMichigan", "6007": "date", "6008": "ĠBack", "6009": "ĠRon", "6010": "Ġcrack", "6011": "Ġtransform", "6012": "Tube", "6013": "ĠIll", "6014": "Ġbuildings", "6015": "ĠRead", "6016": "long", "6017": "Ġwear", "6018": "Many", "6019": "Ġterrorist", "6020": "Ġsam", "6021": "Ġtree", "6022": "Ġexercise", "6023": "enda", "6024": "Ġlabel", "6025": "Ġeffectively", "6026": "Oh", "6027": "Ġpractices", "6028": "ala", "6029": "Ġsubsequ", "6030": "ĠJul", "6031": "ĠSher", "6032": "uls", "6033": "Ġflo", "6034": "TS", "6035": "Ġfish", "6036": "ette", "6037": "enture", "6038": "Ġshop", "6039": "Ġexamples", "6040": "ĠHy", "6041": "Ġpatient", "6042": "ĠGen", "6043": "ĠSeattle", "6044": "Ġobjects", "6045": "Ġtech", "6046": "ĠSee", "6047": "Ġsecretary", "6048": "asure", "6049": "Ġrain", "6050": "Ġmissed", "6051": "Ġcauses", "6052": "illy", "6053": "rum", "6054": "Ġdebut", "6055": "ĠRod", "6056": "gia", "6057": "Ġessentially", "6058": "66", "6059": "amin", "6060": "Ġmoral", "6061": "orders", "6062": "ador", "6063": "word", "6064": "acter", "6065": "ĠWork", "6066": "def", "6067": "arters", "6068": "ĠUkraine", "6069": "Ġcentre", "6070": "Follow", "6071": "ĠVict", "6072": "bur", "6073": "ĠStan", "6074": "ĠID", "6075": "icing", "6076": "Ġinjuries", "6077": "ĠPhot", "6078": "Ġmotor", "6079": "ĠiPhone", "6080": "Ġartist", "6081": "Ġclient", "6082": "Ġbond", "6083": "Ġthinks", "6084": "iat", "6085": "orse", "6086": "ouston", "6087": "Ġpure", "6088": "Ġhell", "6089": "Although", "6090": "ĠSaudi", "6091": "Ġfacts", "6092": "Ĥ¬", "6093": "Ġdesire", "6094": "agers", "6095": "aza", "6096": "Ġske", "6097": "orry", "6098": "Ġlinked", "6099": "ÃŃ", "6100": "Ġgovernor", "6101": "Ġmaterials", "6102": "Ġperformed", "6103": "Spe", "6104": "Ġfranch", "6105": "esome", "6106": "Ġsuc", "6107": "Ġphilosoph", "6108": "Ġinitially", "6109": "iest", "6110": "ĠSign", "6111": "Ġnecessarily", "6112": "ĠBat", "6113": "ĠFer", "6114": "Ġexpansion", "6115": "Ġscheduled", "6116": "water", "6117": "ERS", "6118": "Ġwarned", "6119": "Ġdiplom", "6120": "Ġadvanced", "6121": "Ġing", "6122": "Ġexplan", "6123": "Ġvari", "6124": "Ġeverybody", "6125": "Ġjoint", "6126": "Ġdecre", "6127": "Ġresolution", "6128": "Ġincreases", "6129": "enger", "6130": "Yes", "6131": "Ġaccepted", "6132": "Ġincor", "6133": "Ġmyster", "6134": "Ġfaced", "6135": "Ġbare", "6136": "illance", "6137": "ĠMount", "6138": "Ġannouncement", "6139": "Ġfollows", "6140": "Ġnations", "6141": "Ġplayoff", "6142": "ĠLife", "6143": "Ġabandon", "6144": "ĠSecond", "6145": "Ġradical", "6146": "Ġathlet", "6147": "Ġneither", "6148": "Ġyesterday", "6149": "gent", "6150": "Ġdatab", "6151": "Ġnearby", "6152": "Ġdistribution", "6153": "otic", "6154": "Ġapplied", "6155": "irty", "6156": "Ġmagazine", "6157": "Most", "6158": "athan", "6159": "rich", "6160": "Ġmir", "6161": "Ġconsequences", "6162": "Ġdoctor", "6163": "Ġlisted", "6164": "Ġfort", "6165": "uy", "6166": "ĠColumb", "6167": "Ġatmosp", "6168": "American", "6169": "Ġsurprised", "6170": "Ġoffense", "6171": "Qu", "6172": "itors", "6173": "ĠCNN", "6174": "ĠRE", "6175": "Ġspons", "6176": "Ġbegins", "6177": "ĠWeek", "6178": "Ġthreats", "6179": "sembly", "6180": "Ġrepresents", "6181": "ĠJews", "6182": "ĠGM", "6183": "ĠAff", "6184": "Ġenh", "6185": "Ġmoves", "6186": "Ġremark", "6187": "ĠTO", "6188": "Ġpra", "6189": "Ġsongs", "6190": "kay", "6191": "Ġchart", "6192": "Ġbehavi", "6193": "omin", "6194": "Ġride", "6195": "Ġadds", "6196": "Ġwithd", "6197": "Can", "6198": "ÃĤ", "6199": "Ġimproved", "6200": "Ġphen", "6201": "ĠBlue", "6202": "Ġbot", "6203": "Ġwarm", "6204": "Ġaf", "6205": "Ġalcohol", "6206": "rip", "6207": "ĠAT", "6208": "Ġoutput", "6209": "law", "6210": "Ġflood", "6211": "ĠDevelop", "6212": "ĠHen", "6213": "whel", "6214": "edy", "6215": "Ġshots", "6216": "Ġfill", "6217": "ĠVol", "6218": "Ġalt", "6219": "Ġstood", "6220": "Ġbrings", "6221": "Ġpushed", "6222": "Ġguilty", "6223": "ĠRomney", "6224": "ĠKim", "6225": "Ġsubscrib", "6226": "85", "6227": "Ġentry", "6228": "ocratic", "6229": "ĠBrazil", "6230": "Ġdemocracy", "6231": "Ġboys", "6232": "Ġ33", "6233": "Ġrow", "6234": "ĠSwed", "6235": "Ġconfig", "6236": "Ġrestaurant", "6237": "ĠNBA", "6238": "Ġlawsuit", "6239": "ĠDev", "6240": "ĠIreland", "6241": "acle", "6242": "Ġmanufacture", "6243": "Ġreceiving", "6244": "Ġrein", "6245": "ĠBarack", "6246": "Then", "6247": "Ġtrib", "6248": "Ġtotally", "6249": "ĠOnly", "6250": "Ġdiscussed", "6251": "Ġsought", "6252": "Ġrising", "6253": "Ġentered", "6254": "ĠISIS", "6255": "ĠBoard", "6256": "Ġconsistent", "6257": "Ġhistorical", "6258": "twitter", "6259": "ideo", "6260": "Ġstorage", "6261": "Ġcorrespond", "6262": "Ġplane", "6263": "Ġcombination", "6264": "Ġscored", "6265": "Ġinput", "6266": "Ġ300", "6267": "Ġsymbol", "6268": "Ġbright", "6269": "Ġbutton", "6270": "irds", "6271": "Ġsucceed", "6272": "stood", "6273": "Ġcreative", "6274": "Ġinvestors", "6275": "Ġsquare", "6276": "Ġarticles", "6277": "Ġ2002", "6278": "Ġisland", "6279": "mes", "6280": "Ġdeaths", "6281": "Ġfunctions", "6282": "Ġnetworks", "6283": "Ġclasses", "6284": "Ġunlikely", "6285": "alty", "6286": "Ġheads", "6287": "ician", "6288": "Ġboss", "6289": "Ġnative", "6290": "icious", "6291": "Ġlie", "6292": "Ġsav", "6293": "ĠLib", "6294": "Ġroughly", "6295": "Ġconsumer", "6296": "ĠStr", "6297": "ĠWhe", "6298": "ĠWalk", "6299": "ĠPrem", "6300": "fortunately", "6301": "ĠMs", "6302": "Ġstring", "6303": "ĠMaybe", "6304": "Ġheavily", "6305": "ĠAnother", "6306": "Ġfairly", "6307": "Ġtemperature", "6308": "arden", "6309": "Ġkit", "6310": "Ġexistence", "6311": "ĠIts", "6312": "ĠAsia", "6313": "Ġcontest", "6314": "Add", "6315": "Ġplot", "6316": "issions", "6317": "dis", "6318": "ĠCub", "6319": "Ġresident", "6320": "usal", "6321": "Ġtargets", "6322": "ĠBob", "6323": "Ġresc", "6324": "ĠKorean", "6325": "ican", "6326": "duc", "6327": "Ġlock", "6328": "Ġyounger", "6329": "Man", "6330": "',", "6331": "Ġcolleagues", "6332": "PU", "6333": "Ġlibrary", "6334": "Ã¶", "6335": "Ġrally", "6336": "Ġparliament", "6337": "Ġprotests", "6338": "Ġanywhere", "6339": "oked", "6340": "ĠSports", "6341": "ĠSky", "6342": "Ġbike", "6343": "zona", "6344": "Ġbreaking", "6345": "ii", "6346": "Ġgrab", "6347": "Ġsym", "6348": "Ġstores", "6349": "Ġexpression", "6350": "Ġwaste", "6351": "Ġchain", "6352": "Ġblow", "6353": "Ġwarning", "6354": "Ġimportance", "6355": "Ġdefined", "6356": "Ġbuying", "6357": "Ġmanage", "6358": "Ġprohib", "6359": "Ġclassic", "6360": "Ġcere", "6361": "Ġsnow", "6362": "Ġadults", "6363": "Ġillust", "6364": "ĠEach", "6365": "See", "6366": "Ġmarketing", "6367": "Ob", "6368": "Ġlinks", "6369": "Ã³", "6370": "iques", "6371": "Ġshif", "6372": "born", "6373": "andal", "6374": "ĠClub", "6375": "Ġtow", "6376": "ĠHist", "6377": "Ġfraud", "6378": "OC", "6379": "Ġfacility", "6380": "ollywood", "6381": "erences", "6382": "Ġhardware", "6383": "Ġschol", "6384": "Ġallegedly", "6385": "Ġ37", "6386": "Ġregulations", "6387": "pret", "6388": "Ġdoctors", "6389": "Ġbon", "6390": "ĠColorado", "6391": "Ġcurrency", "6392": "Ġhousehold", "6393": "Ġreplaced", "6394": "agan", "6395": "Ġessential", "6396": "opy", "6397": "Ġempt", "6398": "onna", "6399": "ĠRam", "6400": "Ġsomewhat", "6401": "ĠDiv", "6402": "press", "6403": "86", "6404": "Ġnav", "6405": "Ġfavour", "6406": "power", "6407": "Ġpromise", "6408": "ĠDC", "6409": "ĠBoy", "6410": "Ġlaugh", "6411": "ena", "6412": "Pol", "6413": "ĠRights", "6414": "Ġholds", "6415": "Ġopposite", "6416": "ocket", "6417": "Ñģ", "6418": "Ġmoments", "6419": "west", "6420": "Ġhat", "6421": "tering", "6422": "Ġopponent", "6423": "Ġbug", "6424": "ĠFar", "6425": "cho", "6426": "Ġcampus", "6427": "Ġacts", "6428": "Ġrum", "6429": "etroit", "6430": "Ġversions", "6431": "Ġmotion", "6432": "Ġmetal", "6433": "hips", "6434": "Ġevolution", "6435": "ometimes", "6436": "Ġvice", "6437": "anish", "6438": "Ġrelevant", "6439": "Ġsees", "6440": "ĠImage", "6441": "Ġbag", "6442": "Ġindustrial", "6443": "Ġzero", "6444": "IR", "6445": "Ġsick", "6446": "Ġdownt", "6447": "oma", "6448": "Ġclosely", "6449": "ĠAnn", "6450": "hetic", "6451": "Ġemotional", "6452": "chen", "6453": "game", "6454": "IF", "6455": "ĠYouTube", "6456": "ĠYear", "6457": "va", "6458": "Ġfewer", "6459": "Ġdivision", "6460": "olve", "6461": "Ġadm", "6462": "Ġharder", "6463": "Ġcustomer", "6464": "Ġhoping", "6465": "ologist", "6466": "Ġtom", "6467": "ĠBrook", "6468": "Donald", "6469": "En", "6470": "ĠValley", "6471": "Ġhur", "6472": "ĠGra", "6473": "Ġmechanism", "6474": "ittle", "6475": "ml", "6476": "ĠHouston", "6477": "ĠElect", "6478": "inem", "6479": "Ġreturns", "6480": "NC", "6481": "atell", "6482": "Ġvolunte", "6483": "Ġparticipants", "6484": "Ġextent", "6485": "Ġintention", "6486": "po", "6487": "alian", "6488": "esc", "6489": "ellect", "6490": "Ġexcellent", "6491": "ĠSoviet", "6492": "Ġacknowled", "6493": "Ġsyn", "6494": "ulous", "6495": "oming", "6496": "ĠMot", "6497": "Ġbatt", "6498": "ĠGames", "6499": "Ġsquad", "6500": "greg", "6501": "Ġcircumstances", "6502": "pan", "6503": "Ġfashion", "6504": "Ġisol", "6505": "Ã¼", "6506": "otal", "6507": "Ġimmediate", "6508": "ĠEric", "6509": "Ġsuffering", "6510": "ĠWatch", "6511": "str", "6512": "Ġlies", "6513": "Ġtiny", "6514": "Ġauthors", "6515": "Ġ38", "6516": "Ġgrown", "6517": "ĠGar", "6518": "iger", "6519": "efully", "6520": "Ġimmigrants", "6521": "Ãĥ", "6522": "print", "6523": "ora", "6524": "Ġkinds", "6525": "utch", "6526": "Ġ49", "6527": "ĠDie", "6528": "Ġcheap", "6529": "Ġmine", "6530": "Ġdetailed", "6531": "ordan", "6532": "ĠHel", "6533": "name", "6534": "Ġfeatured", "6535": "ĠWik", "6536": "ĠEr", "6537": "ĠSar", "6538": "ayers", "6539": "Ġmeat", "6540": "Ġunus", "6541": "ĠAut", "6542": "Ġcompetitive", "6543": "Ġdescribe", "6544": "Ġformed", "6545": "ĠHome", "6546": "ĠIP", "6547": "friend", "6548": "nic", "6549": "certain", "6550": "Ġcarrying", "6551": "Ġtournament", "6552": "Ġtermin", "6553": "Ġtrick", "6554": "Ġrelationships", "6555": "Ġfundamental", "6556": "kel", "6557": "Ġwave", "6558": "Ġcycle", "6559": "obb", "6560": "Ġcrazy", "6561": "ĠCy", "6562": "Ġsigning", "6563": "ĠWay", "6564": "Ġguide", "6565": "Ġwins", "6566": "ĠCatholic", "6567": "Ġearned", "6568": "08", "6569": "Ġdecline", "6570": "Ġregional", "6571": "nam", "6572": "ensus", "6573": "style", "6574": "Ġembr", "6575": "Ġstrange", "6576": "ĠPalestinian", "6577": "ĠJesus", "6578": "ĠLong", "6579": "Ġancient", "6580": "Ġfrequently", "6581": "06", "6582": "Ġacting", "6583": "ĠPutin", "6584": "Ġmanner", "6585": "Ġefficient", "6586": "rome", "6587": "Ġpushing", "6588": "ĠCIA", "6589": "Ġcomfortable", "6590": "ĠCard", "6591": "Ġpip", "6592": "ORE", "6593": "Per", "6594": "Ġsharing", "6595": "Ġwire", "6596": "Ġskill", "6597": "ĠEconom", "6598": "ockey", "6599": "chers", "6600": "Ġinstru", "6601": "ĠEll", "6602": "Ġowned", "6603": "bar", "6604": "Ġcommitment", "6605": "Ġalongside", "6606": "ĠOF", "6607": "uated", "6608": "anes", "6609": "ĠLord", "6610": "09", "6611": "ĠDavis", "6612": "rison", "6613": "Ġcontroversial", "6614": "Ġartists", "6615": "Ġreferred", "6616": "weight", "6617": "Ġegg", "6618": "Ġmouth", "6619": "Ġrepeatedly", "6620": "Ġ48", "6621": "ĠTop", "6622": "ï¿", "6623": "Ġ34", "6624": "FP", "6625": "awa", "6626": "Ġattempted", "6627": "Ġfemin", "6628": "umber", "6629": "Ġupdated", "6630": "foot", "6631": "Ġcert", "6632": "ua", "6633": "Ġpregn", "6634": "ĠOld", "6635": "Ġschedule", "6636": "vin", "6637": "xy", "6638": "ĠPS", "6639": "amily", "6640": "adel", "6641": "Ġdedicated", "6642": "Ð½", "6643": "ĠAL", "6644": "Ġsentence", "6645": "Ġupcoming", "6646": "ĠRight", "6647": "ĠNY", "6648": "ĠDown", "6649": "ĠDi", "6650": "Ġcolumn", "6651": "hus", "6652": "Ġdepth", "6653": "Ġpled", "6654": "Ġvirtual", "6655": "uable", "6656": "Ġjourney", "6657": "Ġstruck", "6658": "ÑĢ", "6659": "Ġdesk", "6660": "Ġstudio", "6661": "Ġrealized", "6662": "ĠEnergy", "6663": "Despite", "6664": "ceived", "6665": "%)", "6666": "ographic", "6667": "ko", "6668": "ugh", "6669": "Ġmedic", "6670": "DS", "6671": "Ġserving", "6672": "iami", "6673": "Ġwalked", "6674": "rive", "6675": "iveness", "6676": "Ġking", "6677": "Ġring", "6678": "Ġreput", "6679": "you", "6680": "Ġurban", "6681": "phy", "6682": "07", "6683": "ĠCle", "6684": "ĠCharles", "6685": "ĠWild", "6686": "Ġtargeted", "6687": "Ġchannel", "6688": "Ġassets", "6689": "luding", "6690": "Ġtort", "6691": "Ġinspired", "6692": "Ġhotel", "6693": "ĠArizona", "6694": "Ġposts", "6695": "Ġnewslet", "6696": "Like", "6697": "Two", "6698": "ĠSupp", "6699": "Ġuniverse", "6700": "Ġagenda", "6701": "Ġcausing", "6702": "Ġwatched", "6703": "Ġsuicide", "6704": "Ġstream", "6705": "Ġoverwhel", "6706": "ĠPy", "6707": "Ġusual", "6708": "Ġsurveillance", "6709": "ĠMen", "6710": "Ġintent", "6711": "sole", "6712": "People", "6713": "Ġliqu", "6714": "Ġsister", "6715": "Ġopponents", "6716": "Ġchairman", "6717": "Ġdu", "6718": "ĠWars", "6719": "ĠCruz", "6720": "Ġmainstream", "6721": "gor", "6722": "bel", "6723": "Ġlatter", "6724": "Ġhall", "6725": "Ġsurrounding", "6726": "Ġfolks", "6727": "Ġknowing", "6728": "Ġorders", "6729": "ĠInf", "6730": "Ġremote", "6731": "Ġ75", "6732": "Ġsand", "6733": "Ġliterally", "6734": "ĠJava", "6735": "Ġobserved", "6736": "ĠAgain", "6737": "Ġsubsid", "6738": "Fr", "6739": "ĠDefense", "6740": "Ġinfl", "6741": "Ġapproval", "6742": "acc", "6743": "ĠVan", "6744": "iments", "6745": "Ġbasket", "6746": "rence", "6747": "burg", "6748": "Ġteachers", "6749": "azi", "6750": "avor", "6751": "izz", "6752": "Ġwinter", "6753": "iciency", "6754": "alle", "6755": "Ġexciting", "6756": "aze", "6757": "iro", "6758": "aylor", "6759": "ĠTal", "6760": "Ġformat", "6761": "boy", "6762": "Ġcongress", "6763": "Ġprotected", "6764": "ati", "6765": "Ġnoticed", "6766": "Ġsimpl", "6767": "Ġdealing", "6768": "ĠYoung", "6769": "rations", "6770": "ĠChild", "6771": "Ġprecise", "6772": "67", "6773": "xual", "6774": "Ġdeeply", "6775": "ipl", "6776": "Ġcommunication", "6777": "Ġgang", "6778": "Ġsending", "6779": "Ġforth", "6780": "ĠJr", "6781": "Ġfasc", "6782": "Ġbattery", "6783": "Ġwal", "6784": "mun", "6785": "Ġsky", "6786": "Ġnarr", "6787": "Ġfixed", "6788": "post", "6789": "abis", "6790": "Ġaside", "6791": "Ġrequirements", "6792": "Int", "6793": "Ġproperties", "6794": "rors", "6795": "Ġalive", "6796": "Ġnarrow", "6797": "Ġwake", "6798": "allas", "6799": "Ġpassion", "6800": "ĠArch", "6801": "onymous", "6802": "Ġeating", "6803": "Or", "6804": "ensity", "6805": "Ġmistake", "6806": "woman", "6807": "Ġexplore", "6808": "Ġcoffee", "6809": "ĠPan", "6810": "Ġ1970", "6811": "Ġrape", "6812": "Ġvolume", "6813": "Ġpromised", "6814": "Ġdiet", "6815": "acking", "6816": "Ġrisks", "6817": "Ġexhib", "6818": "ĠPolit", "6819": "ĠFort", "6820": "Ġsweet", "6821": "May", "6822": "âĢĻ.", "6823": "ĠEnter", "6824": "ĠWat", "6825": "Ġneut", "6826": "Ġinvolving", "6827": "Ġwage", "6828": "Ġselection", "6829": "ĠMax", "6830": "Ġtested", "6831": "ether", "6832": "Ġflu", "6833": "ulture", "6834": "Ġdefeat", "6835": "Ġnorthern", "6836": "Ġreward", "6837": "Ġwelcome", "6838": "ĠCast", "6839": "Ġextended", "6840": "Ġputs", "6841": "Ġterritory", "6842": "Ġphenomen", "6843": "Ġunemploy", "6844": "Ġrefugees", "6845": "Ġsample", "6846": "Ġheight", "6847": "Ġapproximately", "6848": "ĠKevin", "6849": "59", "6850": "Ġblame", "6851": "ĠBrad", "6852": "Ġanyway", "6853": "ums", "6854": "ĠDetroit", "6855": "Ġdestroyed", "6856": "obile", "6857": "ta", "6858": "Ġimpressive", "6859": "ĠStephen", "6860": "asks", "6861": "Ġgod", "6862": "Ġproof", "6863": "Ġgap", "6864": "Ġdry", "6865": "ï¿½", "6866": "Ġcrash", "6867": "Ġunknown", "6868": "Ġlocations", "6869": "04", "6870": "igg", "6871": "Ġselected", "6872": "apse", "6873": "Ġwest", "6874": "anges", "6875": "gery", "6876": "stone", "6877": "ĠFil", "6878": "Ġattacked", "6879": "Ġmaximum", "6880": "ĠMiller", "6881": "ĠWilson", "6882": "ĠTit", "6883": "Ġpromote", "6884": "Ġshel", "6885": "aser", "6886": "Ġmerely", "6887": "Ġfranchise", "6888": "arry", "6889": "lv", "6890": "Ġrequests", "6891": "Ġsho", "6892": "Ġretire", "6893": "Ġsuddenly", "6894": "Ġslowly", "6895": "Ġprotesters", "6896": "Ġdisag", "6897": "dro", "6898": "Ġteacher", "6899": "ixt", "6900": "Ġtypical", "6901": "ogan", "6902": "ĠWomen", "6903": "ĠIns", "6904": "ingu", "6905": "Ġconver", "6906": "list", "6907": "Ġchose", "6908": "ĠCamer", "6909": "ĠClass", "6910": "ĠLu", "6911": "Ġmatches", "6912": "Ġprote", "6913": "Ġlicense", "6914": "Ġproperly", "6915": "Ġassume", "6916": "oration", "6917": "Ġdiscover", "6918": "03", "6919": "Ġwid", "6920": "ĠPR", "6921": "ĠMic", "6922": "Rel", "6923": "Ġworried", "6924": "Ġmoder", "6925": "fire", "6926": "Ġabortion", "6927": "owered", "6928": "Ġallies", "6929": "ao", "6930": "Ġoblig", "6931": "Ġterrorism", "6932": "02", "6933": "Ġsupports", "6934": "ĠÎ", "6935": "uilding", "6936": "ÃĥÃĤ", "6937": "inson", "6938": "verty", "6939": "Ġarguments", "6940": "Ġadapt", "6941": "Ġtheme", "6942": "Ġconfront", "6943": "Ġfacilities", "6944": "Ġsustain", "6945": "gender", "6946": "Ġeast", "6947": "Ġpal", "6948": "Ġrecognize", "6949": "igure", "6950": "Ġfuck", "6951": "ÃĥÃĤÃĥÃĤ", "6952": "lies", "6953": "Ġequival", "6954": "mo", "6955": "Ġobtained", "6956": "Ġpoverty", "6957": "Ġrub", "6958": "ĠItaly", "6959": "Ġnomine", "6960": "Ġdeals", "6961": "Ġfees", "6962": "alo", "6963": "itarian", "6964": "osis", "6965": "ĠHollywood", "6966": "Ġunderstood", "6967": "Ġcontrolled", "6968": "VER", "6969": "ĠBest", "6970": "ĠDam", "6971": "Ġtopic", "6972": "Ġcritics", "6973": "ĠSociety", "6974": "ĠAgency", "6975": "axy", "6976": "ĠFord", "6977": "Ġsole", "6978": "ĠJersey", "6979": "arity", "6980": "Ġvillage", "6981": "Ġdiagn", "6982": "ĠAdminist", "6983": "raid", "6984": "68", "6985": "Ġlikes", "6986": "celer", "6987": "han", "6988": "sters", "6989": "ĠFour", "6990": "Ġevil", "6991": "Te", "6992": "Ġpunish", "6993": "Ġdress", "6994": "cript", "6995": "Ġped", "6996": "ĠGeorgia", "6997": "Ġbunch", "6998": "ĠCompany", "6999": "Ġjournalists", "7000": "John", "7001": "Ġexposed", "7002": "Ġregions", "7003": "redit", "7004": "ocation", "7005": "Ġscheme", "7006": "Ġcommunications", "7007": "Ġtransp", "7008": "Ġstim", "7009": "Ġlimits", "7010": "Ġsomehow", "7011": "Ġstrongly", "7012": "Ġhonor", "7013": "Ġdrag", "7014": "Ġresistance", "7015": "lls", "7016": "aire", "7017": "aug", "7018": "Ġchampion", "7019": "ĠLabor", "7020": "Ġconstant", "7021": "Ġphase", "7022": "ĠNASA", "7023": "asts", "7024": "ĠCarl", "7025": "pool", "7026": "Ġprofit", "7027": "Ġtruck", "7028": "Ġcondem", "7029": "Ġescape", "7030": "Ġpersonally", "7031": "ĠNight", "7032": "ĠDun", "7033": "rimination", "7034": "ĠLand", "7035": "Ġbid", "7036": "ĠNHL", "7037": "ĠStand", "7038": "Ġvacc", "7039": "Ġdeck", "7040": "CA", "7041": "nesota", "7042": "iform", "7043": "Ġfalling", "7044": "GBT", "7045": "ĠNetwork", "7046": "Ġsomewhere", "7047": "ems", "7048": "cers", "7049": "Ġemployee", "7050": "Ġharass", "7051": "ads", "7052": "Ġbear", "7053": "ĠCD", "7054": "iner", "7055": "Ġcomparison", "7056": "orted", "7057": "ciples", "7058": "Ġpolls", "7059": "owa", "7060": "Ġinqu", "7061": "ĠLove", "7062": "pected", "7063": "Ġsouthern", "7064": "oric", "7065": "Ġdecent", "7066": "cow", "7067": "ĠSpanish", "7068": "Ġencourage", "7069": "Ġemissions", "7070": "Ġ39", "7071": "ĠKn", "7072": "ĠView", "7073": "enders", "7074": "Ġempty", "7075": "ĠMiami", "7076": "Ġhits", "7077": "oster", "7078": "ĠCam", "7079": "Ġdefinition", "7080": "57", "7081": "Ġpic", "7082": "wan", "7083": "Ġdirected", "7084": "pes", "7085": "Ġflex", "7086": "zens", "7087": "ĠOk", "7088": "Ġmeetings", "7089": "ĠEnd", "7090": "ĠBell", "7091": "Ð¾Ð", "7092": "Ġcomprom", "7093": "Ġwinner", "7094": "intend", "7095": "icken", "7096": "Ġgotten", "7097": "ĠDaniel", "7098": "ĠTurk", "7099": "Ġelectricity", "7100": "aun", "7101": "Ġchosen", "7102": "Ġofficially", "7103": "Ġbench", "7104": "Ġstretch", "7105": "Ġdatabase", "7106": "Com", "7107": "ĠDespite", "7108": "Ġintellect", "7109": "Ġspin", "7110": "igation", "7111": "Ġstronger", "7112": "Ġdeleg", "7113": "Ġpurposes", "7114": "ĠDNA", "7115": "Ġcutting", "7116": "ĠTurn", "7117": "Ġfold", "7118": "rary", "7119": "Ġextensive", "7120": "Ġamounts", "7121": "Ġdesper", "7122": "Ġtrees", "7123": "Ġanx", "7124": "Ġideal", "7125": "ĠAsian", "7126": "Ġthread", "7127": "Ġfifth", "7128": "ĪĴ", "7129": "UR", "7130": "Ġgoods", "7131": "Ġcolon", "7132": "Ġdeveloper", "7133": "Ġclaiming", "7134": "unning", "7135": "Any", "7136": "Ġretain", "7137": "Ġsoul", "7138": "Ġcaptured", "7139": "ĠThough", "7140": "Ġfinds", "7141": "Ġdriven", "7142": "Ġpayments", "7143": "asters", "7144": "ĠJordan", "7145": "ras", "7146": "CS", "7147": "Ġties", "7148": "Ġreasonable", "7149": "Ġdogs", "7150": "âĸ", "7151": "Ġsomebody", "7152": "Ġending", "7153": "ĠNations", "7154": "Ġchoices", "7155": "Ġble", "7156": "Ġseats", "7157": "ĠServices", "7158": "ĠThank", "7159": "Ġpod", "7160": "Ġengage", "7161": "Ġdrawn", "7162": "Ġsight", "7163": "CE", "7164": "Ġparam", "7165": "ĠDar", "7166": "Ġthreatened", "7167": "Ġruled", "7168": "eping", "7169": "ĠAttorney", "7170": "ĠIrish", "7171": "ura", "7172": "ĠSea", "7173": "Ġtrading", "7174": "owed", "7175": "Ġprimarily", "7176": "Ġaspects", "7177": "Ġfighters", "7178": "ML", "7179": "Ġanswers", "7180": "Ġperfectly", "7181": "irms", "7182": "ĠAcadem", "7183": "Ġincl", "7184": "Ġrival", "7185": "Ġparking", "7186": "Ġrejected", "7187": "ĠGall", "7188": "Ġconstantly", "7189": "ĠHun", "7190": "fast", "7191": "Ġpayment", "7192": "ĠCat", "7193": "Ġdistinct", "7194": "Ġflying", "7195": "Ġrig", "7196": "Ġtechnologies", "7197": "ĠReal", "7198": "</", "7199": "Ġcomponents", "7200": "Police", "7201": "Ġadmit", "7202": "ĠScotland", "7203": "Ġelsewhere", "7204": "ĠDark", "7205": "Ġconstit", "7206": "Ġtur", "7207": "Ġanymore", "7208": "lder", "7209": "Ġicon", "7210": "Ġfields", "7211": "Ġestimates", "7212": "EW", "7213": "sea", "7214": "Ġsolutions", "7215": "Ġresulting", "7216": "78", "7217": "ĠBru", "7218": "Ġawesome", "7219": "Ġencoun", "7220": "Ġprovince", "7221": "mod", "7222": "Ġworldwide", "7223": "Ġactor", "7224": "Ġregularly", "7225": "ĠMoore", "7226": "Ġcourts", "7227": "Ġnarrative", "7228": "ĠUt", "7229": "Once", "7230": "Ġboot", "7231": "Ġenemies", "7232": "Ġmixed", "7233": "regon", "7234": "ĠOS", "7235": "ĠDisney", "7236": "sm", "7237": "icer", "7238": "Ġhouses", "7239": "Ġnobody", "7240": "ĠSk", "7241": "inations", "7242": "Ġcontrols", "7243": "ĠWater", "7244": "Ġletters", "7245": "ez", "7246": "apes", "7247": "agram", "7248": "iana", "7249": "imp", "7250": "Ġ42", "7251": "Ġmurd", "7252": "Ġmayor", "7253": "Ġloan", "7254": "Ġoutcome", "7255": "ĠMS", "7256": "Ġcontem", "7257": "sell", "7258": "Sec", "7259": "vy", "7260": "ship", "7261": "ĠLight", "7262": "onic", "7263": "isan", "7264": "Ġapartment", "7265": "ĠSteven", "7266": "Ġcoalition", "7267": "Ġcontributed", "7268": "ĠBas", "7269": "Ġtank", "7270": "Ġconcluded", "7271": "ĠAdam", "7272": "Ġexists", "7273": "ĠTw", "7274": "Ġfounder", "7275": "ĠBrian", "7276": "earing", "7277": "ĠLew", "7278": "Ġatmosphere", "7279": "Ġprofile", "7280": "Ġbrew", "7281": "ĠId", "7282": "Ġsituations", "7283": "ĠChampionship", "7284": "ĠAuthor", "7285": "rates", "7286": "Ġincredible", "7287": "ĠConstitution", "7288": "Ġsignal", "7289": "otes", "7290": "ĠRog", "7291": "Ġaccurate", "7292": "300", "7293": "ĠVictor", "7294": "otten", "7295": "Ġunp", "7296": "ĠWhere", "7297": "ker", "7298": "ĠSouthern", "7299": ".\"[", "7300": "Ġemployment", "7301": "Ġclients", "7302": "Dr", "7303": "Ġkeeps", "7304": "Ġinformed", "7305": "Ġcontinuing", "7306": "inity", "7307": "Ġbaseball", "7308": "Ġgenerate", "7309": "Ġticket", "7310": "Ġconven", "7311": "Also", "7312": "ĠConf", "7313": "Ġweird", "7314": "Ġtied", "7315": "lock", "7316": "adelph", "7317": "Ġcategory", "7318": "Ġinfect", "7319": "ilarly", "7320": "acked", "7321": "Ġangry", "7322": "ĠOrgan", "7323": "Ġroutine", "7324": "aron", "7325": "Ġkil", "7326": "Ġraising", "7327": "ifer", "7328": "Ġmachines", "7329": "Ġregistered", "7330": "Ġproved", "7331": "there", "7332": "Ġdemands", "7333": "Ġgaming", "7334": "ĠItalian", "7335": "Ġincredibly", "7336": "Ġcrucial", "7337": "Ġstuck", "7338": "ĠCivil", "7339": "ĠDallas", "7340": "cr", "7341": "Ġterrible", "7342": "56", "7343": "MP", "7344": "Ġfeedback", "7345": "Ġupper", "7346": "Ġplastic", "7347": "Ġimper", "7348": "Ġnewly", "7349": "ĠJoseph", "7350": "Ġconsumption", "7351": "Ġdozen", "7352": "Ġenthus", "7353": "Ġestate", "7354": "ali", "7355": "rage", "7356": "Ġinnoc", "7357": "Ġmanip", "7358": "ĠTem", "7359": "Ġconscious", "7360": "Ġbills", "7361": "ĠCross", "7362": "ĠSpain", "7363": "ifications", "7364": "Today", "7365": "Ġwriters", "7366": "Ġexcess", "7367": "inding", "7368": "Ġaggressive", "7369": "Ġreporter", "7370": "Ġcompens", "7371": "Ġreturning", "7372": "Ġstead", "7373": "Ġprogramming", "7374": "ĠThanks", "7375": "Ġrepresented", "7376": "Ġconclusion", "7377": "98", "7378": "Ġrus", "7379": "ĠBowl", "7380": "ĠAR", "7381": "MS", "7382": "Ġorigin", "7383": "Ġassistant", "7384": "adelphia", "7385": "Ġroster", "7386": "ĠMinnesota", "7387": "Ġorganized", "7388": "ria", "7389": "Ġpenalty", "7390": "lers", "7391": "Ġdrinking", "7392": "Ġpaint", "7393": "Ġsatell", "7394": "Ġgro", "7395": "ĠProgram", "7396": "Ġcapture", "7397": "ni", "7398": "Ġconspir", "7399": "Ġinterpret", "7400": "Ġexplanation", "7401": "iscal", "7402": "58", "7403": "Ġcounty", "7404": "iscons", "7405": "essed", "7406": "mont", "7407": "ima", "7408": "Ġ%", "7409": "anny", "7410": "gorith", "7411": "emen", "7412": "isconsin", "7413": "Ġassistance", "7414": "ĠRoman", "7415": "Ġcomplaint", "7416": "Ġru", "7417": "Ġnut", "7418": "LA", "7419": "Ġmagic", "7420": "Ġtall", "7421": "ĠOper", "7422": "Ġgranted", "7423": "Ed", "7424": "Because", "7425": "ĠContin", "7426": "star", "7427": "Off", "7428": "ĠParliament", "7429": "Ġcomplicated", "7430": "Ġaudio", "7431": "Ġchances", "7432": "Ġextract", "7433": "rypt", "7434": "ĠGi", "7435": "Ġ1999", "7436": "Ġhel", "7437": "ĠEduc", "7438": "era", "7439": "Ġshares", "7440": "Ġsuccessfully", "7441": "esy", "7442": "........", "7443": "ĠIT", "7444": "zy", "7445": "Ġpilot", "7446": "ĠEp", "7447": "ĠHot", "7448": "Ġmyth", "7449": "Ġrecovery", "7450": "ĠTest", "7451": "Ġtechniques", "7452": "Ġiron", "7453": "ĠCare", "7454": "ĠZeal", "7455": "ĠSC", "7456": "Ġscenes", "7457": "ĠFre", "7458": "Ġveteran", "7459": "ĠWin", "7460": "Ġ($", "7461": "Ġdegrees", "7462": "actions", "7463": "ked", "7464": "Ġsympt", "7465": "thew", "7466": "Ġlawmakers", "7467": "Ġwestern", "7468": "Ġoperate", "7469": "Ġads", "7470": "rating", "7471": "Ġhabit", "7472": "Ġaimed", "7473": "Inst", "7474": "anchester", "7475": "Ġphr", "7476": "rep", "7477": "rete", "7478": "Ġtaste", "7479": "idency", "7480": "Ġengaged", "7481": "Ġprivile", "7482": "Ġ55", "7483": "========", "7484": "Ġrating", "7485": "Ġteaching", "7486": "ĠOs", "7487": "Ġacademic", "7488": "itar", "7489": "Ġtherap", "7490": "Ġpasses", "7491": "Ġdollar", "7492": "hent", "7493": "Ġautomatically", "7494": "ĠPacific", "7495": "Ġmonit", "7496": "Ġblocks", "7497": "abama", "7498": "Ġattended", "7499": "Ġpermanent", "7500": "Ġsurvive", "7501": "uan", "7502": "Ġanticip", "7503": "Ġenable", "7504": "ĠLook", "7505": "Ġextrem", "7506": "ĠForeign", "7507": "chain", "7508": "%.", "7509": "Ġmarked", "7510": "itals", "7511": "Ġhidden", "7512": "Ġaccomp", "7513": "Ġtitles", "7514": "ĠSenator", "7515": "ĠNBC", "7516": "Ġtaught", "7517": "aed", "7518": "ĠLinux", "7519": "Ġbom", "7520": "Ġindex", "7521": "everal", "7522": "Ġelite", "7523": "ibilities", "7524": "Ġlawyers", "7525": "from", "7526": "Ġdepending", "7527": "Ġvaluable", "7528": "Ġinstalled", "7529": "Ġchampionship", "7530": "Ġroot", "7531": "Ġcompre", "7532": "mal", "7533": "ĠBull", "7534": "Ġdowntown", "7535": "Ġequivalent", "7536": "Ġsolve", "7537": "rific", "7538": "Ġduty", "7539": "ĠSpecial", "7540": "ĠBusiness", "7541": "Ġ64", "7542": "Ġpace", "7543": "HS", "7544": "Ġreputation", "7545": "Ġuncertain", "7546": "Ġphones", "7547": "uine", "7548": "Ġoverse", "7549": "bal", "7550": "ĠTaylor", "7551": "Ġpersonnel", "7552": "Ġpin", "7553": "reams", "7554": "aturally", "7555": "Ġsufficient", "7556": "Ġvisited", "7557": "Ġwarming", "7558": "Ġprinciples", "7559": "Ġvulnerable", "7560": "Ġenjoyed", "7561": "Ġfake", "7562": "ĠNick", "7563": "Ġadvis", "7564": "Ġnegotiations", "7565": "inder", "7566": "Ġgenerated", "7567": "Ġexposure", "7568": "Ġrecording", "7569": "Ġcollected", "7570": "Ġregardless", "7571": "Ġdict", "7572": "EA", "7573": "Ġbitcoin", "7574": "Ġelev", "7575": "ãĢ", "7576": "active", "7577": "ĠKelly", "7578": "ĠAnth", "7579": "Ġcup", "7580": "Ġpatterns", "7581": "Getty", "7582": "ĠTake", "7583": "))", "7584": "ĠAvenue", "7585": "ĠJosh", "7586": "bro", "7587": "Ġdisaster", "7588": "Ġcable", "7589": "Ġ65", "7590": "Ġchat", "7591": "Ġworker", "7592": "Ġmainly", "7593": "Ġracial", "7594": "quarters", "7595": "ĠCoast", "7596": "ĠViet", "7597": "month", "7598": "Ġpounds", "7599": "Ġ150", "7600": "ĠCall", "7601": "Ġportion", "7602": "Ġafraid", "7603": "Ġinspir", "7604": "ĠAh", "7605": "Ġdefence", "7606": "Ġbes", "7607": "ĠEastern", "7608": "da", "7609": "ĠTony", "7610": "Ġtracks", "7611": "Ġbusy", "7612": "Ġgrant", "7613": "Ġshit", "7614": "Ġintense", "7615": "ĠSeries", "7616": "ĠLGBT", "7617": "orne", "7618": "ĠStill", "7619": "athy", "7620": "Ġfunny", "7621": "Ġapolog", "7622": "Ġsurgery", "7623": "ĠMoscow", "7624": "mann", "7625": "ĠColl", "7626": "Ġpossession", "7627": "Ġprominent", "7628": "ĠMars", "7629": "Ġcomic", "7630": "ĠGer", "7631": "ashes", "7632": "97", "7633": "ules", "7634": "ĠRay", "7635": "Ġthin", "7636": "Ġengineering", "7637": "Ġtroub", "7638": "ĠKurd", "7639": "this", "7640": "Ġprocesses", "7641": "ĠNation", "7642": "fall", "7643": "ĠKent", "7644": "ĠCome", "7645": "Ġentit", "7646": "ĠâĢĻ", "7647": "Ġunusual", "7648": "raph", "7649": "etary", "7650": "Ġdescribes", "7651": "Col", "7652": "world", "7653": "96", "7654": "Ġresulted", "7655": "Ġemerged", "7656": "Ġtaxp", "7657": "Ġgall", "7658": "iler", "7659": "Ġdim", "7660": "Ġpropag", "7661": "ĠIowa", "7662": "ĠOregon", "7663": "Ġcoordin", "7664": "Ġcorruption", "7665": "Ġstations", "7666": "ĠInvest", "7667": "Ġfought", "7668": "ĠAD", "7669": "Ġbrut", "7670": "Ġextension", "7671": "ref", "7672": "Ġblind", "7673": "Ġadopted", "7674": "prise", "7675": "ye", "7676": "Ġcompete", "7677": "Ġrecru", "7678": "ĠZealand", "7679": "Ġhadn", "7680": "Pr", "7681": "Ġ400", "7682": "Ġmail", "7683": "Ġeverywhere", "7684": "ĠBalt", "7685": "Ġcrypt", "7686": "ĠHom", "7687": "ba", "7688": "Rec", "7689": "Mean", "7690": "herent", "7691": "icate", "7692": "ĠAli", "7693": "Ġcontracts", "7694": "front", "7695": "Ġneuro", "7696": "ĠLo", "7697": "ĠDead", "7698": "ĠRick", "7699": "Ġfeelings", "7700": "Ġfirms", "7701": "idelines", "7702": "âĢĻ,", "7703": "Ġminority", "7704": "Ġspr", "7705": "cles", "7706": "HA", "7707": "Ġadvertising", "7708": "tes", "7709": "Ġrarely", "7710": "Ġdiscipl", "7711": "making", "7712": "ĠNorthern", "7713": "Ġsanctions", "7714": "gun", "7715": "ĠVeg", "7716": "scape", "7717": "ĠPhiladelphia", "7718": "upid", "7719": "Ġcameras", "7720": "Ġexplicit", "7721": "Ġstrict", "7722": "viously", "7723": "log", "7724": "Ġenorm", "7725": "Ġfinance", "7726": "Ġcited", "7727": "ifies", "7728": "ĠBefore", "7729": "Ġshortly", "7730": "UL", "7731": "ĠPolicy", "7732": "olt", "7733": "Ġexpectations", "7734": "Ġimplementation", "7735": "ogen", "7736": "Ġrecip", "7737": "cling", "7738": "ĠGreek", "7739": "Ġthick", "7740": "Ġthousand", "7741": "antic", "7742": "ĠMu", "7743": "Ġloud", "7744": "istent", "7745": "Ġaffili", "7746": "urrent", "7747": "orough", "7748": "ĠNavy", "7749": "Ġinev", "7750": "rell", "7751": "cus", "7752": "Ġphotograph", "7753": "Ġmedium", "7754": "azz", "7755": "ĠWisconsin", "7756": "Ġscenario", "7757": "ĠFood", "7758": "ĠLive", "7759": "Ġsup", "7760": "ilton", "7761": "Ġplug", "7762": "Ġveget", "7763": "Ġho", "7764": "Ġvisible", "7765": "LC", "7766": "Ġlights", "7767": "Ġcreates", "7768": "Ġpriority", "7769": "Ġven", "7770": "Ġbridge", "7771": "eland", "7772": "inking", "7773": "Ġobst", "7774": "Ġagric", "7775": "ATE", "7776": "Ġpermission", "7777": "ĠFoot", "7778": "Ġalgorith", "7779": "izon", "7780": "Co", "7781": "elect", "7782": "Ġparticipate", "7783": "aska", "7784": "Ġwing", "7785": "who", "7786": "asion", "7787": "Ġbrowser", "7788": "ĠGlobal", "7789": "Ġtag", "7790": "ĠOl", "7791": "ĠHas", "7792": "Ġmel", "7793": "Ġacceler", "7794": "Ġdozens", "7795": "ĠKingdom", "7796": "Ġhistoric", "7797": "Ġcomputers", "7798": "Ġlaid", "7799": "Ġbasketball", "7800": "Ġlosses", "7801": "text", "7802": "ĠSaf", "7803": "ĠAsh", "7804": "76", "7805": "ogether", "7806": "Ġunw", "7807": "::", "7808": "Ġtor", "7809": "ĠAmendment", "7810": "Mar", "7811": "Ġstrikes", "7812": "Ġprinciple", "7813": "ĠDevelopment", "7814": "Ġformal", "7815": "EP", "7816": "igen", "7817": "54", "7818": "Ġscoring", "7819": "obs", "7820": "athered", "7821": "Ġ44", "7822": "Ġcounsel", "7823": "found", "7824": "++", "7825": "Ġshock", "7826": "Ġwonderful", "7827": "ĠSP", "7828": "Ġbehalf", "7829": "abs", "7830": "Ġuncom", "7831": "profit", "7832": "52", "7833": "enth", "7834": "Ġinterface", "7835": "Ġestablishment", "7836": "Ġtoler", "7837": "ĠHenry", "7838": "ĠGreg", "7839": "amber", "7840": "car", "7841": "ĠMajor", "7842": "ĠThus", "7843": "Us", "7844": "Ġgained", "7845": "Ġfee", "7846": "lete", "7847": "she", "7848": "Ġfounded", "7849": "etime", "7850": "Ġfoundation", "7851": "jo", "7852": "51", "7853": "ĠESP", "7854": "ilipp", "7855": "Ġclubs", "7856": "Ġcannabis", "7857": "Ġju", "7858": "Ġairport", "7859": "ĠKey", "7860": "ystem", "7861": "Ġborrow", "7862": "olis", "7863": "weet", "7864": "BO", "7865": "Ġmanufacturing", "7866": "Ġrely", "7867": "ĠHit", "7868": "aus", "7869": "ĠPay", "7870": "ĠAlabama", "7871": "Ġgenuine", "7872": "ĠRoyal", "7873": "rators", "7874": "Before", "7875": "uer", "7876": "Ġcomponent", "7877": "Ġridic", "7878": "osexual", "7879": "Ġwheel", "7880": "rative", "7881": "ĠOak", "7882": "Ġjournalist", "7883": "Ġrelief", "7884": "ĠSn", "7885": "Ġsaved", "7886": "Ġhole", "7887": "Ġyield", "7888": "Ġheaded", "7889": "Ġcyber", "7890": "Ne", "7891": "ĠMoh", "7892": "ependent", "7893": "Ġgift", "7894": "bell", "7895": "Ġfault", "7896": "Ġwithdraw", "7897": "Ġindicate", "7898": "Ġdrawing", "7899": "Ġuniform", "7900": "umer", "7901": "ĠRand", "7902": "ĠVis", "7903": "arlier", "7904": "Ġstable", "7905": "Ġships", "7906": "Ġ->", "7907": "Ġbanned", "7908": "Ġmagn", "7909": "ĠMid", "7910": "Ġfootage", "7911": "Meanwhile", "7912": "rous", "7913": "Ġdoors", "7914": "lan", "7915": "Ġrecognized", "7916": "Ġ1960", "7917": "Ġcontaining", "7918": "pread", "7919": "ĠFC", "7920": "Ġriver", "7921": "ami", "7922": "Ġstruggling", "7923": "Sub", "7924": "Ġspark", "7925": "ĠAcademy", "7926": "Ġwalls", "7927": "Ġachieved", "7928": "opher", "7929": "ounced", "7930": "Ġneighb", "7931": "aning", "7932": "Ġplate", "7933": "Ġedition", "7934": "ĠHT", "7935": "portion", "7936": "mate", "7937": "Ġmovements", "7938": "Ġdeliber", "7939": "uce", "7940": "teen", "7941": "Post", "7942": "Ġsharp", "7943": "ĠAS", "7944": "ĠSnow", "7945": "ulating", "7946": "ĠThree", "7947": "Ġepisodes", "7948": "Ġneutral", "7949": "ĠPremier", "7950": "ĠRet", "7951": "ĠFund", "7952": "Ġexception", "7953": "etts", "7954": "Ġproducer", "7955": "________________", "7956": "ĠFred", "7957": "Ġdestruction", "7958": "Ġ1998", "7959": "oured", "7960": "Ġbeliefs", "7961": "Ġ47", "7962": "ĠReview", "7963": "Ġlegend", "7964": "Ġpump", "7965": "ĠMcG", "7966": "Ġbacked", "7967": "umin", "7968": "Ġliked", "7969": "Ġhired", "7970": "idespread", "7971": "cription", "7972": "Ġroles", "7973": "Ġlanguages", "7974": "Ġprofession", "7975": "Ġentering", "7976": "osa", "7977": "ĠVR", "7978": "Ġinterviews", "7979": "Ġhang", "7980": "isp", "7981": "ĠKir", "7982": "eman", "7983": "Ġtox", "7984": "Ġphilosophy", "7985": "ĠAdministration", "7986": "Ġarrange", "7987": "oen", "7988": "interest", "7989": "Ġflaw", "7990": "Those", "7991": "ĠNob", "7992": "sylv", "7993": "imore", "7994": "Ġstadium", "7995": "ĠAtlanta", "7996": "ĠJac", "7997": "Ġreduction", "7998": "Ġdinner", "7999": "ca", "8000": "ja", "8001": "Ġbath", "8002": "ĠReport", "8003": "iel", "8004": "uper", "8005": "ĠTurkish", "8006": "400", "8007": "Ġaver", "8008": "Ġfinger", "8009": "ĠNote", "8010": "ĠConference", "8011": "Ġtackle", "8012": "Ġcha", "8013": "burgh", "8014": "Ġgonna", "8015": "ĠDiego", "8016": "ĠPoint", "8017": "Ġcrop", "8018": "ĠCentre", "8019": "Ġfarmers", "8020": "ĠManchester", "8021": "Ġnominee", "8022": "Ġ41", "8023": "53", "8024": "aching", "8025": "ĠJason", "8026": "Ġbarely", "8027": "ATO", "8028": "Ġstructures", "8029": "Ġcontained", "8030": "Ġsynt", "8031": "ĠOtt", "8032": "Ġdelivery", "8033": "Ġconvin", "8034": "%,", "8035": "Ġprocessing", "8036": "Ġdiscrimination", "8037": "Ġincent", "8038": "riers", "8039": "ĠFair", "8040": "erved", "8041": "RS", "8042": "ĠData", "8043": "then", "8044": "ĠArm", "8045": "abinet", "8046": "Ġintellectual", "8047": "ĠRadio", "8048": "amsung", "8049": "Ġ46", "8050": "ĠBry", "8051": "ĠOK", "8052": "ĠField", "8053": "Me", "8054": "ĠDid", "8055": "Ġupset", "8056": "ĠPerhaps", "8057": "ĠMir", "8058": "ĠEducation", "8059": "sylvania", "8060": "away", "8061": "President", "8062": "Ġchallenging", "8063": "Ġproven", "8064": "Ġrestrictions", "8065": "rik", "8066": "Ġforever", "8067": "ho", "8068": "https", "8069": "olen", "8070": "Ġelectronic", "8071": "Ġhitting", "8072": "ĠHay", "8073": "Ġeuro", "8074": "Ġunex", "8075": "Ġreviews", "8076": "ĠFed", "8077": "ĠChristians", "8078": "Ġ43", "8079": "ĠNC", "8080": "Ġconvicted", "8081": "Star", "8082": "Ġillness", "8083": "Ġsmooth", "8084": "page", "8085": "Dav", "8086": "ĠHor", "8087": "Ġretired", "8088": "Ġindicated", "8089": "usive", "8090": "Ġproducing", "8091": "ĠAbout", "8092": "ĠHarry", "8093": "Ġrapidly", "8094": "Ġrose", "8095": "Ġhide", "8096": "fr", "8097": "Ġcorporations", "8098": "Ġocean", "8099": "iy", "8100": "ĠRus", "8101": "aying", "8102": "owing", "8103": "Ġlistening", "8104": "ĠReuters", "8105": "ĠUFC", "8106": "ĠSat", "8107": "Ġtechnique", "8108": "Ġmo", "8109": "yard", "8110": "sels", "8111": "Ġloyal", "8112": "ĠNic", "8113": "lessly", "8114": "Ġrobot", "8115": "Ġclimb", "8116": "Ġnotion", "8117": "Ġbegun", "8118": "87", "8119": "Ġutil", "8120": "Ġrecognition", "8121": "Ġren", "8122": "ouver", "8123": "engers", "8124": "Ġperpet", "8125": "Ġassociation", "8126": "Ġmilk", "8127": "inf", "8128": "Ġasks", "8129": "Ġwebsites", "8130": "Ġdescription", "8131": "ĠPack", "8132": "Ġtickets", "8133": "ĠPen", "8134": "achus", "8135": "Ġflash", "8136": "Ġbra", "8137": "Ġsuggesting", "8138": "enny", "8139": "ĠJudge", "8140": "Ġexclusive", "8141": "Ġreaching", "8142": "Ġprepare", "8143": "iti", "8144": "ĠKansas", "8145": "Who", "8146": "ione", "8147": "Ġbail", "8148": "Ġfrag", "8149": "Ġprogressive", "8150": "Ġburd", "8151": "Ġexceed", "8152": "Ġequally", "8153": "ĠHard", "8154": "Ġhardly", "8155": "Ġwidespread", "8156": "ĠABC", "8157": "Ġcampaigns", "8158": "ĠMayor", "8159": "Ġcontribute", "8160": "udes", "8161": "ologists", "8162": "Ġbranch", "8163": "Look", "8164": "ĠRose", "8165": "Ġgrass", "8166": "Ġinitiative", "8167": "ĠMarket", "8168": "Ġethnic", "8169": "Ġexternal", "8170": "ikes", "8171": "ĠCirc", "8172": "uma", "8173": "rient", "8174": "Ġsensitive", "8175": "Ġpractical", "8176": "usted", "8177": "elf", "8178": "Ġunclear", "8179": "Ġnormally", "8180": "Ref", "8181": "Ġrepresentative", "8182": "pat", "8183": "ls", "8184": "89", "8185": "thon", "8186": "Ġwelf", "8187": "ĠFull", "8188": "Ġreducing", "8189": "appy", "8190": "Ġfriendly", "8191": "bec", "8192": "Ġcarefully", "8193": "ĠArabia", "8194": "ĠRef", "8195": "lad", "8196": "ester", "8197": "ĠLy", "8198": "PM", "8199": "ĠLuc", "8200": "Ġracist", "8201": "Ġinvent", "8202": "rical", "8203": "ouch", "8204": "PG", "8205": "ĠCO", "8206": "ĠNext", "8207": "Ġrespectively", "8208": "senal", "8209": "rator", "8210": "Ġtail", "8211": "imm", "8212": "ĠMcCain", "8213": "ĠBernie", "8214": "ancouver", "8215": "Ġoverwhelming", "8216": "Ġviewers", "8217": "ĠBeach", "8218": "stract", "8219": "Ġwelfare", "8220": "arrass", "8221": "ĠFurther", "8222": "Ġconvinced", "8223": "UN", "8224": "Ġsmoke", "8225": "umes", "8226": "Ġcollapse", "8227": "Ġinvolvement", "8228": "ĠLind", "8229": "Ġthrown", "8230": "pload", "8231": "Ġconnections", "8232": "heast", "8233": "Ġterrorists", "8234": "ĠBattle", "8235": "Ġstrategic", "8236": "Ġhook", "8237": "Ġ00", "8238": "ĠLatin", "8239": "Ġrecover", "8240": "omething", "8241": "igrant", "8242": "ĠOnt", "8243": "Ġwine", "8244": "Mc", "8245": "inois", "8246": "ĠMusic", "8247": "rolled", "8248": "Ġminds", "8249": "Ġvital", "8250": "Ġsettlement", "8251": "Ġstatistics", "8252": "Ġlists", "8253": "Ġvary", "8254": "ĠSir", "8255": "Ġfeaturing", "8256": "ĠESPN", "8257": "ecut", "8258": "ĠDig", "8259": "achusetts", "8260": "Ġbehaviour", "8261": "Ġindependence", "8262": "worth", "8263": "Ġfantasy", "8264": "Ġdevast", "8265": "nedy", "8266": "core", "8267": "uties", "8268": "Ġinvited", "8269": "Ġcomplaints", "8270": "Ġjoining", "8271": "Ġscores", "8272": "dem", "8273": "Ġfiscal", "8274": "Ġdeeper", "8275": "abil", "8276": "ĠPennsylvania", "8277": "ifest", "8278": "Ġsteal", "8279": "Ġanger", "8280": "Ġdeputy", "8281": "Ġelig", "8282": "Ġwars", "8283": "ĠSquare", "8284": "ĠTenn", "8285": "Ġinvestigate", "8286": "ĠTown", "8287": "Ġsugar", "8288": "Ġconstitutional", "8289": "ĠIII", "8290": "Ġscholars", "8291": "ĠPit", "8292": "ĠiOS", "8293": "Ġanybody", "8294": "Ġsubjects", "8295": "ĠAND", "8296": "Ġarray", "8297": "Ġalien", "8298": "FA", "8299": "ĠUlt", "8300": "ĠGov", "8301": "Ġlobby", "8302": "Ġownership", "8303": "Ġframework", "8304": "Ġunemployment", "8305": "ĠDivision", "8306": "Ġtransgender", "8307": "bn", "8308": "Ġimprovements", "8309": "ĠSS", "8310": "Ġmenu", "8311": "Ġpeak", "8312": "Back", "8313": "Ġscreens", "8314": "ihad", "8315": "Ġinject", "8316": "Ġluck", "8317": "iversary", "8318": "Ġdefine", "8319": "Ġtasks", "8320": "ĠXbox", "8321": "Ġdemocratic", "8322": "Ġscandal", "8323": "icking", "8324": "Ġjury", "8325": "acon", "8326": "ĠAnton", "8327": "Che", "8328": "ĠMinistry", "8329": "Ġcos", "8330": "ĠEs", "8331": "Ġcomprehens", "8332": "osit", "8333": "ĠKat", "8334": "Ġremem", "8335": "Ġdiscovery", "8336": "unior", "8337": "Ġregister", "8338": "Ġcasual", "8339": "Ġcitizen", "8340": "RI", "8341": "Ġfab", "8342": "Under", "8343": "een", "8344": "Ġroads", "8345": "Ġdisagree", "8346": "Ġfailing", "8347": "ĠNever", "8348": "ĠLittle", "8349": "ĠJay", "8350": "Ġdynamic", "8351": "Ġserves", "8352": "ĠCameron", "8353": "ĠBrother", "8354": "ĠMah", "8355": "Ġtestim", "8356": "Ġgathered", "8357": "ĠStone", "8358": "ĠInformation", "8359": "Sm", "8360": "Ġsoph", "8361": "oding", "8362": "Ġimplemented", "8363": "Ġcontroversy", "8364": "Ġcollective", "8365": "Ġtrained", "8366": "anna", "8367": "ĠNSA", "8368": "Ġneighbour", "8369": "Ġfears", "8370": "leveland", "8371": "Ġsamples", "8372": "Ġfiction", "8373": "Ġprosec", "8374": "agg", "8375": "Ġestimate", "8376": "ĠCommunity", "8377": "69", "8378": "ĠIce", "8379": "ĠMedical", "8380": "Ġ1997", "8381": "ĠPhilipp", "8382": "Ġreferring", "8383": "Ġtip", "8384": "Ġcaptain", "8385": "Will", "8386": "Ġ1996", "8387": "Ġspaces", "8388": "cific", "8389": "ĠWalker", "8390": "Ġversus", "8391": "Ġlegs", "8392": "ĠSanta", "8393": "'.", "8394": "Ġtemporary", "8395": "PC", "8396": "Ġnoise", "8397": "ĠHD", "8398": "Ġovert", "8399": "Ġincorpor", "8400": "Ġtone", "8401": "Ġvisitors", "8402": "Ġreven", "8403": "Ġcivilians", "8404": "Ġwages", "8405": "Ġhypot", "8406": "Ġsin", "8407": "Ġremarks", "8408": "Ġawareness", "8409": "ĠON", "8410": "ĠSpring", "8411": "Ġrecommended", "8412": "Ġstupid", "8413": "ĠAllen", "8414": "Ġheading", "8415": "Ġhandful", "8416": "Ġregulation", "8417": "icket", "8418": "ĠAction", "8419": "ĠCore", "8420": "Ġplatforms", "8421": "Ġaccus", "8422": "ĠAnthony", "8423": "Ġaffairs", "8424": "Ġtouchdown", "8425": "Ġrural", "8426": "Ġattacking", "8427": "gener", "8428": "Ġextend", "8429": "Ġultimate", "8430": "Ġattached", "8431": "ĠVegas", "8432": "Ġdiscussions", "8433": "ĠRen", "8434": "Ġhorse", "8435": "ĠBrew", "8436": "mad", "8437": "Ġreprodu", "8438": "Ġgenetic", "8439": "Ġexpanded", "8440": "Ġattempting", "8441": "phones", "8442": "ĠMatthew", "8443": "Ġraces", "8444": "including", "8445": "iry", "8446": "ĠQueen", "8447": "Ġraw", "8448": "Ġignore", "8449": "ĠColumbia", "8450": "serv", "8451": "ĠPent", "8452": "ĠGuardian", "8453": "hour", "8454": "ĠCook", "8455": "ĠiP", "8456": "itionally", "8457": "Ġgear", "8458": "Ġsymptoms", "8459": "ĠPatrick", "8460": "Ġsuffer", "8461": "Ġsettings", "8462": "ĠMake", "8463": "âĢĶâĢĶâĢĶâĢĶ", "8464": "alling", "8465": "Ġsalary", "8466": "case", "8467": "Ġlicens", "8468": "mary", "8469": "GO", "8470": "Ġtweeted", "8471": "angel", "8472": "Ġpublication", "8473": "Ġbrill", "8474": "Ġfactory", "8475": "Ġsuspected", "8476": "Ġpurchased", "8477": "aret", "8478": "Ġintervention", "8479": "Ġeastern", "8480": "Ġholiday", "8481": "type", "8482": "2014", "8483": "Ġtheat", "8484": "esh", "8485": "About", "8486": "Ġdispl", "8487": "Ġranked", "8488": "ĠBudd", "8489": "Ġneck", "8490": "ĠAustin", "8491": "ĠConservative", "8492": "ĠMuseum", "8493": "ective", "8494": "ĠRoy", "8495": "\")", "8496": "Ġcro", "8497": "Ġenormous", "8498": "Sen", "8499": "####", "8500": "intendo", "8501": "Ġcogn", "8502": "Ġlogic", "8503": "ultural", "8504": "ictions", "8505": "Ġimprovement", "8506": "ĠAPI", "8507": "Ġviewed", "8508": "Ġingred", "8509": "Ġentertainment", "8510": "Ass", "8511": "Ġlegitimate", "8512": "ĠProfessor", "8513": "ommod", "8514": "Ġpresum", "8515": "ĠAlbert", "8516": "ĠMassachusetts", "8517": "ĠBall", "8518": "Ġ2019", "8519": "Ġwww", "8520": "News", "8521": "Ġactors", "8522": "Ġsubstantial", "8523": "Ġhumanity", "8524": "Ġinvolves", "8525": "Ġresource", "8526": "arms", "8527": "Ġbrothers", "8528": "Ġliquid", "8529": "Ġrational", "8530": "Ġseemingly", "8531": "Ġsorry", "8532": "Ġlayer", "8533": "Ġloans", "8534": "Ġrook", "8535": "Ġinvestigating", "8536": "Ġabsence", "8537": "Ġproviders", "8538": "Ġtomorrow", "8539": "Ġfallen", "8540": "Ġbureau", "8541": "Ġgrounds", "8542": "Ġcoaches", "8543": "Ġstake", "8544": "Ġresign", "8545": "Ġouts", "8546": "rec", "8547": "Ġadvocates", "8548": "ĠâĤ¬", "8549": "RC", "8550": "Ġinvestigators", "8551": "Ġconspiracy", "8552": "Where", "8553": "Ġmedicine", "8554": "Ġdramatic", "8555": "Ġfulf", "8556": "Ġmonitor", "8557": "ĠChair", "8558": "EST", "8559": "repre", "8560": "Ġovers", "8561": "Ġchapter", "8562": "ĠSeason", "8563": "Ġcoc", "8564": "oval", "8565": "GE", "8566": "lah", "8567": "ĠHo", "8568": ".-", "8569": "Ġactivist", "8570": "plete", "8571": "ped", "8572": "Ġboat", "8573": "ĠCheck", "8574": "aka", "8575": "ĠControl", "8576": "Ġjur", "8577": "Ġsuspended", "8578": "Ġpapers", "8579": "Script", "8580": "ĠGreece", "8581": "Ġopinions", "8582": "ĠSuch", "8583": "ĠRoss", "8584": "Ġmissile", "8585": "ĠGolden", "8586": "Ġceleb", "8587": "ĠRevolution", "8588": "2016", "8589": "Ġstayed", "8590": "Ġcovers", "8591": "ĠRa", "8592": "ĠHead", "8593": "iverpool", "8594": "Ġdiversity", "8595": "otype", "8596": "Ġbars", "8597": "Part", "8598": "Ġgam", "8599": "Russ", "8600": "Ġembarrass", "8601": "xit", "8602": "Ġoffices", "8603": "ĠAcc", "8604": "rets", "8605": "ourse", "8606": "claim", "8607": "ĠPot", "8608": "hot", "8609": "ĠIranian", "8610": "ammed", "8611": "Ġdisrupt", "8612": "cover", "8613": "ĠWW", "8614": "Ġpreced", "8615": "Ġpoly", "8616": "Ġforest", "8617": "wered", "8618": "Ġcareful", "8619": "mat", "8620": "reprene", "8621": "vard", "8622": "Ġamid", "8623": "ĠHistory", "8624": "79", "8625": "ĠHospital", "8626": "isting", "8627": "ĠAle", "8628": "Ġauthent", "8629": "quest", "8630": "ĠIllinois", "8631": "ĠCBS", "8632": "ĠSony", "8633": "uction", "8634": "Ġham", "8635": "geon", "8636": "Related", "8637": "dit", "8638": "ĠAp", "8639": "74", "8640": "72", "8641": "rine", "8642": "Ġtransportation", "8643": "ĠVancouver", "8644": "ĠGaza", "8645": "Ġhanded", "8646": "Ġprotocol", "8647": "Ġconsistently", "8648": "Ġmountain", "8649": "Ġ52", "8650": "Ġreads", "8651": "ĠStat", "8652": "Ġpref", "8653": "Ġclothes", "8654": "Ġattitude", "8655": "iability", "8656": "ĠShare", "8657": "ĠKennedy", "8658": "Ġporn", "8659": "Ġprincip", "8660": "ĠFreedom", "8661": "Ġdepends", "8662": "Ġmining", "8663": "Ġpetition", "8664": "Ġnoting", "8665": "Ġwarrant", "8666": "des", "8667": "Ġconce", "8668": "Ġcolors", "8669": "Ġlowest", "8670": "ĠAnderson", "8671": "ĠTri", "8672": "Ġaddressed", "8673": "ĠFamily", "8674": "bi", "8675": "unes", "8676": "Ġentr", "8677": "Ste", "8678": "ĠStadium", "8679": "xx", "8680": "Ġthrowing", "8681": "Ġje", "8682": "Ġfruit", "8683": "Ġvirtually", "8684": "!)", "8685": "Ġstone", "8686": "Ġfoss", "8687": "ĠMean", "8688": "Ġguarantee", "8689": "Ġreferend", "8690": "Both", "8691": "??", "8692": "Ġspeaks", "8693": "ĠBaltimore", "8694": "inch", "8695": "Ġsteel", "8696": "Ġclosing", "8697": "Ġreader", "8698": "dri", "8699": "FF", "8700": "Ġbuff", "8701": "Ġpersonality", "8702": "Ġappreciate", "8703": "ĠCre", "8704": "ĠIraqi", "8705": "Ġsurf", "8706": "ĠEnvironment", "8707": "Ġnerv", "8708": "iences", "8709": "maker", "8710": "Ġkm", "8711": "keep", "8712": "Ġhandling", "8713": "Ġprofits", "8714": "ordon", "8715": "Ġgrav", "8716": "Ġmarks", "8717": "low", "8718": "Ġtries", "8719": "ĠBroad", "8720": "Ġcontributions", "8721": "ĠEngine", "8722": "ropri", "8723": "zed", "8724": "Ġspiritual", "8725": "Ġconversations", "8726": "Ġfantastic", "8727": "ĠTro", "8728": "Ġlands", "8729": "Ġconsole", "8730": "ila", "8731": "Ġhorror", "8732": "ppers", "8733": "\".[", "8734": "icity", "8735": "Ġgains", "8736": "Ġcovering", "8737": "Ġtea", "8738": "ivals", "8739": "ĠHarris", "8740": "Her", "8741": "Ġhint", "8742": "Ġastron", "8743": "aval", "8744": "Ġshoulder", "8745": "scale", "8746": "Ġwrest", "8747": "Ġguest", "8748": "ĠExt", "8749": "Ġaccommod", "8750": "uted", "8751": "uits", "8752": "Ġdepression", "8753": "ĠCA", "8754": "Ġ_", "8755": "ĠLewis", "8756": "Ġlucky", "8757": "ĠBang", "8758": "Ġencouraged", "8759": "flix", "8760": "amac", "8761": "Ġjudges", "8762": "Ġincidents", "8763": "ĠCleveland", "8764": "Ġdrew", "8765": "Ġsubsequent", "8766": "ira", "8767": "Ġspoken", "8768": "ĠHoward", "8769": "annels", "8770": "ĠBad", "8771": "Ġbrown", "8772": "Ġbacter", "8773": "Please", "8774": "ixed", "8775": "Ġrhet", "8776": "Ġranks", "8777": "ĠGetty", "8778": "Ġphotograp", "8779": "Ġinflation", "8780": "Ġinner", "8781": "ĠIntelligence", "8782": "ĠPo", "8783": "itting", "8784": "ĠBa", "8785": "Ġmaps", "8786": "abeth", "8787": "ĠPatri", "8788": "ported", "8789": "ijing", "8790": "plate", "8791": "Ġdivided", "8792": "Ġ1995", "8793": "ĠNATO", "8794": "********", "8795": "Ġparalle", "8796": "Ġdrama", "8797": "ĠMexican", "8798": "Ġdistributed", "8799": "Ġgal", "8800": "Ġinnovation", "8801": "Ġswing", "8802": "unicip", "8803": "Ġcust", "8804": "ĠUnfortunately", "8805": "Ġpremium", "8806": "Ġvoter", "8807": "Ġpermit", "8808": "Ġrevel", "8809": "ĠKong", "8810": "Ġtrem", "8811": "Ġdance", "8812": "Ġclim", "8813": "pled", "8814": "ĠLas", "8815": "Ġefficiency", "8816": "Ġpromises", "8817": "ĠIndeed", "8818": "Note", "8819": "eding", "8820": "ĠCH", "8821": "ĠWhich", "8822": "Ġballot", "8823": "Ġ51", "8824": "pie", "8825": "ĠAdv", "8826": "Ġtemperatures", "8827": "ĠSamsung", "8828": "Ġportray", "8829": "Ġspokesperson", "8830": "Ġlocked", "8831": "Ġlying", "8832": "Ġimproving", "8833": "Ġthrew", "8834": "Ġjoy", "8835": "Ġdump", "8836": "Art", "8837": "Ġmusical", "8838": "PP", "8839": "Ġmistakes", "8840": "dated", "8841": "Ġshout", "8842": "ĠStart", "8843": "Ġhomeless", "8844": "conf", "8845": "Ġreplacement", "8846": "eries", "8847": "Ġcomedy", "8848": "Ġchecks", "8849": "ĠWithout", "8850": "ĠMoon", "8851": "Ġinstrument", "8852": "ounce", "8853": "ĠConnect", "8854": "Ġacknowledged", "8855": "Ġbarrel", "8856": "Ġresponses", "8857": "Ġprotecting", "8858": "backs", "8859": "ĠDet", "8860": "ÂĴ", "8861": "Ġsilver", "8862": "Ġcopies", "8863": "heim", "8864": "Ġles", "8865": "ĠAC", "8866": "Ġdad", "8867": "Ġbreaks", "8868": "ĠPlus", "8869": "ĠBuff", "8870": "Ġcommonly", "8871": "Ġlets", "8872": "Ġlegacy", "8873": "itage", "8874": "Ġprotein", "8875": "Ġmathem", "8876": "Ġjoke", "8877": "amacare", "8878": "erted", "8879": "hop", "8880": "arre", "8881": "Ġpassengers", "8882": "2015", "8883": "Ġyellow", "8884": "ĠMarvel", "8885": "Ġnaturally", "8886": "Your", "8887": "ĠScient", "8888": "Ġnomination", "8889": "Source", "8890": "Ġmeasured", "8891": "aping", "8892": "oded", "8893": "alia", "8894": "ĠUse", "8895": "Ġabandoned", "8896": "Ġmad", "8897": "ĠPrince", "8898": "Ġstudied", "8899": "800", "8900": "ĠFootball", "8901": "helsea", "8902": "Ġdiverse", "8903": "argo", "8904": "Ġacquired", "8905": "ieties", "8906": "ĠLyn", "8907": "Cons", "8908": "esty", "8909": "Ġsoil", "8910": "ĠMarsh", "8911": "Ġdemonstrated", "8912": "Ġblast", "8913": "Ġrear", "8914": "Ġfunded", "8915": "Ġheadquarters", "8916": "hesis", "8917": "yo", "8918": "Ġstolen", "8919": "Ġscan", "8920": "Ġcounts", "8921": "Ġtape", "8922": "Ġpartnership", "8923": "Ġmidfield", "8924": "ĠNOT", "8925": "Ġ(âĢľ", "8926": "Ġupgrade", "8927": "ĠCost", "8928": "ĠAtlantic", "8929": "yer", "8930": "Ġmarch", "8931": "Ġordinary", "8932": "ĠAud", "8933": "ĠNev", "8934": "Ġrom", "8935": "aware", "8936": "Ġliterature", "8937": "Ġplain", "8938": "Ġstages", "8939": "ĠâĢ¢", "8940": "Ġassert", "8941": "Ġ1994", "8942": "high", "8943": "ĠAI", "8944": "Ġhelpful", "8945": "Ġarrive", "8946": "Ġexit", "8947": "Ġscope", "8948": "Ġfalls", "8949": "63", "8950": "dog", "8951": "Ġignored", "8952": "BM", "8953": "Ġtwenty", "8954": "eters", "8955": "ĠMaster", "8956": "Ġclock", "8957": "Ġcompe", "8958": "inction", "8959": "Ġvirus", "8960": "ĠTrib", "8961": "Ġreferendum", "8962": "Ġinequ", "8963": "Ġunions", "8964": "ĠDoes", "8965": "assador", "8966": "ĠGun", "8967": "Ġconservatives", "8968": "Ġrif", "8969": "Ġgrid", "8970": "Ġsymp", "8971": "Ġfestival", "8972": "Ġfro", "8973": "Ġshopping", "8974": "Ġwaters", "8975": "ĠPop", "8976": "Ġcapabilities", "8977": "ĠBron", "8978": "Ġax", "8979": "lahoma", "8980": "Ġusage", "8981": "ĠHind", "8982": "iate", "8983": "zing", "8984": "ĠEmpire", "8985": "aeda", "8986": "ĠAbb", "8987": "ington", "8988": "ĠIndiana", "8989": "iley", "8990": "Ġtransactions", "8991": "erg", "8992": "Ġhoped", "8993": "Ġdistract", "8994": "ĠAst", "8995": "Ġguitar", "8996": "VE", "8997": "ĠEag", "8998": "Ġsty", "8999": "Ġramp", "9000": "Ġassessment", "9001": "ctic", "9002": "Ġuniversities", "9003": "ĠDave", "9004": "Ġmoon", "9005": "Ġmonitoring", "9006": "ormal", "9007": "acket", "9008": "bridge", "9009": "Ġrepresenting", "9010": "Facebook", "9011": "Ġratio", "9012": "ĠDeath", "9013": "encing", "9014": "ught", "9015": "62", "9016": "ĠProv", "9017": "Ġconventional", "9018": "comes", "9019": "UST", "9020": "orge", "9021": "Ġtrave", "9022": "ĠSet", "9023": "Ġtracking", "9024": "door", "9025": "ntil", "9026": "ĠSometimes", "9027": "61", "9028": "only", "9029": "shire", "9030": "Ġhung", "9031": "ĠSus", "9032": "Ġreliable", "9033": "Ġtie", "9034": "Ġproposals", "9035": "Ġskept", "9036": "ĠHell", "9037": "Ġreplied", "9038": "ĠRos", "9039": "fund", "9040": "uh", "9041": "Ġcriticized", "9042": "Ġappearances", "9043": "rimin", "9044": "ĠHa", "9045": "ecutive", "9046": "ela", "9047": "Ġracism", "9048": "Ġinsisted", "9049": "organ", "9050": "Ġintroduction", "9051": "Ġ2020", "9052": "Ġappointed", "9053": "dney", "9054": "ĠBureau", "9055": "olph", "9056": "agic", "9057": "ĠPass", "9058": "cut", "9059": "Ke", "9060": "ĠLine", "9061": "Ġbeauty", "9062": "Ġconcrete", "9063": "Ġreceiver", "9064": "Ġsupplies", "9065": "Ġperforming", "9066": "made", "9067": "ji", "9068": "Ġbub", "9069": "Ġexch", "9070": "rite", "9071": "Ġvisiting", "9072": "ĠTechnology", "9073": "ĠDenver", "9074": "ocument", "9075": "EE", "9076": "omes", "9077": "ĠCapt", "9078": "theless", "9079": "RL", "9080": "Ġletting", "9081": "AND", "9082": "Ġdeficit", "9083": "Ġclassified", "9084": "ĠGalaxy", "9085": "Ġauto", "9086": "HT", "9087": "Ġrender", "9088": "Ġabsor", "9089": "ĠOrig", "9090": "Ġswim", "9091": "Ġaccomplish", "9092": "Ġprogramme", "9093": "Ġpresidency", "9094": "crib", "9095": "Ġblocked", "9096": "ĠSweden", "9097": "archy", "9098": "Ġdust", "9099": "ĠUtah", "9100": "Ġdrove", "9101": "Ġlandscape", "9102": "Ġcance", "9103": "ĠPortland", "9104": "plus", "9105": "Ġdismissed", "9106": "ĠLA", "9107": "Ġhyper", "9108": "Ġabroad", "9109": "Ġbonus", "9110": "ĠJam", "9111": "ĠTour", "9112": "har", "9113": "Ġsequence", "9114": "Ġpredicted", "9115": "Ġsenator", "9116": "Â°", "9117": "ĠAge", "9118": "Ġdomain", "9119": "ĠCode", "9120": "Ġec", "9121": "Ġmuseum", "9122": "Ġwarn", "9123": "ĠAssociated", "9124": "acco", "9125": "Ġpersons", "9126": "NS", "9127": "Ġdub", "9128": "iano", "9129": "aga", "9130": "Ġrequested", "9131": "Ġtrigger", "9132": "ĠOntario", "9133": "Ġhockey", "9134": "ĠCorpor", "9135": "Ġartific", "9136": "Ġdates", "9137": "Ġtestimony", "9138": "Ġcenters", "9139": "Ð»", "9140": "Ġrocket", "9141": "irts", "9142": "Ġves", "9143": "Ġtransit", "9144": "Ġcongressional", "9145": "Ġentitled", "9146": "ultane", "9147": "Ġspokeswoman", "9148": "ĠFront", "9149": "ĠNintendo", "9150": "ĠAlexander", "9151": "Ġrescue", "9152": "ĠCooper", "9153": "mony", "9154": "Ġassign", "9155": "ĠBon", "9156": "Ġequality", "9157": "Ġpatch", "9158": "Ġurged", "9159": "Ġbread", "9160": "ĠOlympic", "9161": "Ġdocumentary", "9162": "Ġveterans", "9163": "Ġclar", "9164": "fol", "9165": "93", "9166": "ais", "9167": "king", "9168": "ĠâĢĿ", "9169": "pton", "9170": "Ġrecall", "9171": "Ġpopulations", "9172": "94", "9173": "ĠLow", "9174": "Ġbreath", "9175": "Still", "9176": "92", "9177": "rooms", "9178": "Ġwhenever", "9179": "Ġviolation", "9180": "Ġtactics", "9181": "Ġwider", "9182": "71", "9183": "ounding", "9184": "ĠKar", "9185": "Ġtargeting", "9186": "Yet", "9187": "through", "9188": "Ġpursue", "9189": "Ġsalt", "9190": "\">", "9191": "Are", "9192": "izabeth", "9193": "Ġfiring", "9194": "don", "9195": "ĠMill", "9196": "Ġacid", "9197": "Ġmole", "9198": "inating", "9199": "Ġrestaurants", "9200": "Ġcompare", "9201": "73", "9202": "fare", "9203": "Comp", "9204": "orous", "9205": "ennis", "9206": "Ġwedd", "9207": "Ġemployed", "9208": "ĠRoberts", "9209": "Ġcontrad", "9210": "ĠBible", "9211": "Ġpolitically", "9212": "Ġphrase", "9213": "Ġsatellite", "9214": "ĠCro", "9215": "Ġsurvival", "9216": "Ġretirement", "9217": "Ġbanking", "9218": "ĠForm", "9219": "Ġbrilliant", "9220": "isons", "9221": "ĠGirl", "9222": "atar", "9223": "Ġchannels", "9224": "Ġservers", "9225": "ĠBeijing", "9226": "Ġsoccer", "9227": "trans", "9228": "aver", "9229": "ĠMach", "9230": "they", "9231": "Ġintroduce", "9232": "ĠJustin", "9233": "Ġexperiments", "9234": "enez", "9235": "Ġprisoners", "9236": "rapped", "9237": "Ġcig", "9238": "ĠWH", "9239": "afe", "9240": "jud", "9241": "Ġfighter", "9242": "600", "9243": "Ġscientist", "9244": "OK", "9245": "ĠYOU", "9246": "usalem", "9247": "ĠList", "9248": "Ġsubmit", "9249": "Ġapproached", "9250": "ĠAward", "9251": "Ġmonthly", "9252": "ĠLiverpool", "9253": "Ġdesigns", "9254": "Ġrepresentatives", "9255": "Ġtitled", "9256": "ordinary", "9257": "Ġquote", "9258": "Ġpopularity", "9259": "olves", "9260": "Ġabilities", "9261": "oenix", "9262": "Ġcul", "9263": "ĠPD", "9264": "Ġmembership", "9265": "Ġinvestigations", "9266": "Ġfocusing", "9267": "mans", "9268": "Ġhosp", "9269": "Ġbab", "9270": "ĠBridge", "9271": "Though", "9272": "ĠMaryland", "9273": "Ġsaving", "9274": "pa", "9275": "Ġrush", "9276": "ĠGovernor", "9277": "Ġshadow", "9278": "ouri", "9279": "bow", "9280": "ĠHur", "9281": "ĠBase", "9282": "Ġobjective", "9283": "berry", "9284": "ĠTed", "9285": "emed", "9286": "erts", "9287": "ederation", "9288": "Ġmit", "9289": "Ġprepar", "9290": "Ġtips", "9291": "ĠWas", "9292": "Ġpipeline", "9293": "David", "9294": "Ġchildhood", "9295": "ika", "9296": "Ġratings", "9297": "Ġthorough", "9298": "Ġentreprene", "9299": "enter", "9300": "ĠVill", "9301": "ĠDutch", "9302": "was", "9303": "break", "9304": "Ġactively", "9305": "ĠHarvard", "9306": "Ġpig", "9307": "ĠSom", "9308": "Ġdemanding", "9309": "Ġloose", "9310": "asty", "9311": "ĠBra", "9312": "Ġunexpected", "9313": "CO", "9314": "Ġsmoking", "9315": "Ġsmell", "9316": "Ġdeny", "9317": "Ġuniversal", "9318": "Ġforecast", "9319": "Ġargues", "9320": "Ġphenomenon", "9321": "Ġoverseas", "9322": "mers", "9323": "olds", "9324": "Ġsettled", "9325": "walk", "9326": "ĠBeck", "9327": "Ġgenerations", "9328": "Ġweekly", "9329": "Ġchicken", "9330": "Ġpreparing", "9331": "Ġ95", "9332": "Ġsmartphone", "9333": "Ġproducers", "9334": "Ġbutt", "9335": "ĠPA", "9336": "Ġlegislative", "9337": "Ġanxiety", "9338": "Ġdisturb", "9339": "ĠHave", "9340": "Ġinnocent", "9341": "minute", "9342": "ĠClick", "9343": "Ġmortg", "9344": "Ġcelebrate", "9345": "Dem", "9346": "ĠUr", "9347": "iki", "9348": "Ġprovision", "9349": "ĠDO", "9350": "Ġkeys", "9351": "ded", "9352": "Ġshame", "9353": "Ġarguing", "9354": "ĠDesign", "9355": "held", "9356": "Ġquestioned", "9357": "Ġforcing", "9358": "ĠCow", "9359": "ĠHop", "9360": "ompson", "9361": "agh", "9362": "âĶ", "9363": "Ġbroader", "9364": "Ġencounter", "9365": "SL", "9366": "Ġflags", "9367": "Ġfool", "9368": "Ġmac", "9369": "Ġ53", "9370": "Ġdeadly", "9371": "Ġfur", "9372": "84", "9373": "Ġreverse", "9374": "oz", "9375": "Ġweigh", "9376": "ĠEdward", "9377": "ĠAmong", "9378": "Ġtens", "9379": "Ġ~", "9380": "Ġmos", "9381": "Ġwealthy", "9382": "ĠObamacare", "9383": "Ġunpre", "9384": "Ġmaintained", "9385": "Ġsurely", "9386": "Ġshield", "9387": "ĠProp", "9388": "ocolate", "9389": "oret", "9390": "Ġsecondary", "9391": "isa", "9392": "aved", "9393": "Sim", "9394": "Ġsavings", "9395": "irlf", "9396": "Ġroof", "9397": "Ġstability", "9398": "Ġcivilian", "9399": "Ġtab", "9400": "elson", "9401": "Äĥ", "9402": "ĠCarter", "9403": "Ġreveals", "9404": "mind", "9405": "Ġmini", "9406": "Ġalarm", "9407": "Ġanniversary", "9408": "Ġsorts", "9409": "ois", "9410": "ĠAk", "9411": "vernment", "9412": "El", "9413": "Ġtonight", "9414": "Ġreleases", "9415": "ĠHon", "9416": "Ġrooms", "9417": "irlfriend", "9418": "isk", "9419": "ĠGulf", "9420": "Ġoutrage", "9421": "Ġprosecutors", "9422": "ĠLeft", "9423": "Ġdisorder", "9424": "inals", "9425": "Ġexha", "9426": "orious", "9427": "Ġshr", "9428": "Ġrelax", "9429": "Ġwindows", "9430": "Ġthreatening", "9431": "Ġdifferently", "9432": "Ġharassment", "9433": "Ġquoted", "9434": "Ġhealthcare", "9435": "Ġsubmitted", "9436": "Ġarbit", "9437": "Ġlunch", "9438": "step", "9439": "itter", "9440": "ĠRun", "9441": "Ġreforms", "9442": "Ġtorture", "9443": "rection", "9444": "Ġfate", "9445": "Ġstored", "9446": "Ġokay", "9447": "ĠBelg", "9448": "Ġpropaganda", "9449": "Ġspots", "9450": "Ġinstructions", "9451": "ĠVietnam", "9452": "Ġsevent", "9453": "Ġrounds", "9454": "Ġodds", "9455": "Ġ1992", "9456": "aa", "9457": "Ġaer", "9458": "html", "9459": "tenance", "9460": "Ġerrors", "9461": "ested", "9462": "ĠOklahoma", "9463": "Ġhydro", "9464": "icism", "9465": "GA", "9466": "Ġdelic", "9467": "ailed", "9468": "ĠLiberal", "9469": "Ġsilence", "9470": "ĠGraham", "9471": "acts", "9472": "ĠWarren", "9473": "Ġgraduate", "9474": "ĠSab", "9475": "Ġaffordable", "9476": "Ġcircle", "9477": "sect", "9478": "ĠBloom", "9479": "Ġcooperation", "9480": "Ġpicks", "9481": "Ġsear", "9482": "itary", "9483": "ĠSarah", "9484": "ĠFall", "9485": "orship", "9486": "ĠExpl", "9487": "Ġstriking", "9488": "Ġpuzz", "9489": "Ġpersu", "9490": "Ġstreaming", "9491": "Ġcomprehensive", "9492": "race", "9493": "Ġimportantly", "9494": "Ġcow", "9495": "Ġpossess", "9496": "Watch", "9497": "Ġfing", "9498": "Ġexecution", "9499": "ĠRuby", "9500": "lined", "9501": "rows", "9502": "Ġintim", "9503": "Ġstruggled", "9504": "ĠPerson", "9505": "Ġassass", "9506": "ĠSilver", "9507": "ĠLeader", "9508": "uten", "9509": "ahu", "9510": "Ġgent", "9511": "Ty", "9512": "ĠPrice", "9513": "Reuters", "9514": "ishop", "9515": "Ġdeserve", "9516": "ĠJerusalem", "9517": "Ġlanding", "9518": "Ġcalm", "9519": "Ġalter", "9520": "Ġceremony", "9521": "Ġassumed", "9522": "Ġdemonstrate", "9523": "Ġdifficulty", "9524": "83", "9525": "Ġages", "9526": "Ġpron", "9527": "Ġdying", "9528": "Ġhal", "9529": "Ġdistingu", "9530": "asury", "9531": "Ġstepped", "9532": "ethe", "9533": "Ġborders", "9534": "Ġchest", "9535": "ĠWolf", "9536": "ĠLt", "9537": "Ġadventure", "9538": "Ġpointing", "9539": "ova", "9540": "Ġwaves", "9541": "Ġkilomet", "9542": "essee", "9543": "ierce", "9544": "ĠNetflix", "9545": "atern", "9546": "Ġautonom", "9547": "eals", "9548": "Ġprecisely", "9549": "Ġarchitecture", "9550": "Ġgreatly", "9551": "ĠDeb", "9552": "Ġpromising", "9553": "Ġconsent", "9554": "bury", "9555": "Ġconsideration", "9556": "ĠTen", "9557": "Ġdrives", "9558": "Ġdialogue", "9559": "ĠMain", "9560": "Ġtremend", "9561": "ĠBud", "9562": "asant", "9563": "Ġnewsletter", "9564": "Ġrookie", "9565": "Ġawarded", "9566": "ĠMeanwhile", "9567": "after", "9568": "Ġrepeat", "9569": "ĠStory", "9570": "Ġcontribution", "9571": "ĠTele", "9572": "Ġburning", "9573": "iev", "9574": "party", "9575": "Ġsimultane", "9576": "ĠScottish", "9577": "ĠVice", "9578": "Ġdonations", "9579": "ĠIndust", "9580": "akh", "9581": "Ġinterf", "9582": "itol", "9583": "ĠMagic", "9584": "Ġvoices", "9585": "Ġanalyst", "9586": "ĠBruce", "9587": "ĠTech", "9588": "ceptions", "9589": "Ġgif", "9590": "Ġfrequency", "9591": "ĠCommon", "9592": "Ġprocedure", "9593": "Ġwanting", "9594": "ĠPres", "9595": "Ġexecutives", "9596": "Ġplayoffs", "9597": "lee", "9598": "oice", "9599": "Ġstaying", "9600": "apolis", "9601": "Ġbirds", "9602": "Ġbias", "9603": "VD", "9604": "ĠHong", "9605": "ĠAz", "9606": "izer", "9607": "Ġinches", "9608": "Ġtrillion", "9609": "omy", "9610": "holders", "9611": "Ġhighlights", "9612": "Ġsemi", "9613": "Ġremarkable", "9614": "Ġwhereas", "9615": "EX", "9616": "ributes", "9617": "ĠPalestinians", "9618": "Ġknee", "9619": "open", "9620": "ĠJonathan", "9621": "Ġans", "9622": "raig", "9623": "Ġimplications", "9624": "scribe", "9625": "Ġformation", "9626": "Ġsuperior", "9627": "Ġstrategies", "9628": "itual", "9629": "ĠBerlin", "9630": "Step", "9631": "ĠLink", "9632": "stal", "9633": "div", "9634": "ĠSydney", "9635": "ĠMORE", "9636": "Ġcategories", "9637": "ĠArk", "9638": "Ġfet", "9639": "Ġfollowers", "9640": "Ġcream", "9641": "Story", "9642": "portation", "9643": "FO", "9644": "Ġcontacted", "9645": "Ms", "9646": "Ġjudgment", "9647": "annon", "9648": "Ġsmile", "9649": "Ġinfo", "9650": "Ġemerging", "9651": "igious", "9652": "rif", "9653": "js", "9654": "onder", "9655": "omed", "9656": "yes", "9657": "bered", "9658": "vision", "9659": "ĠEff", "9660": "vertisements", "9661": "iffs", "9662": "hatt", "9663": "Ġaccessible", "9664": "Ġcrimin", "9665": "TP", "9666": "Ġphysically", "9667": "Ġassigned", "9668": "Ġ54", "9669": "ĠAndre", "9670": "Ġguidelines", "9671": "Ġdefeated", "9672": "Ġwounded", "9673": "Ġtrials", "9674": "Ġstem", "9675": "Ġmanaging", "9676": "Ġspell", "9677": "Ġministry", "9678": "Ġgrade", "9679": "Ġcoinc", "9680": "Ġriding", "9681": "Ġindicates", "9682": "Ġcenturies", "9683": "Christ", "9684": "cest", "9685": "ĠAffairs", "9686": "Ġopens", "9687": "aki", "9688": "Ġpharm", "9689": "lla", "9690": "->", "9691": "Ġmeaningful", "9692": "Ġtiss", "9693": "erent", "9694": "ĠMrs", "9695": "Ġease", "9696": "child", "9697": "Ġmargin", "9698": "ĠStore", "9699": "Ġclothing", "9700": "ĠâĪĴ", "9701": "ĠTes", "9702": "ĠSix", "9703": "ĠCapital", "9704": "Ġparticipation", "9705": "cedented", "9706": "Mus", "9707": "Ġrevers", "9708": "aria", "9709": "Ġpoison", "9710": "ĠBrexit", "9711": "Ġ120", "9712": "ĠYemen", "9713": "Ġlapt", "9714": "Ġcompeting", "9715": "Ġmemories", "9716": "ĠCS", "9717": "Ġtheories", "9718": "Ġrecipe", "9719": "Ġgross", "9720": "umble", "9721": "author", "9722": "hard", "9723": "91", "9724": "Ġpassage", "9725": "sl", "9726": "Ġaged", "9727": "ĠCredit", "9728": "Ġbin", "9729": "Ġdrone", "9730": "Ġblank", "9731": "Ġdispute", "9732": "Ġdamaged", "9733": "Ġ1993", "9734": "van", "9735": "ĠHamilton", "9736": "base", "9737": "Ġsubstance", "9738": "Ġhosted", "9739": "TER", "9740": "Google", "9741": "ĠChelsea", "9742": "ĠLam", "9743": "Ġpromoting", "9744": "Ġfacilit", "9745": "Ġopenly", "9746": "ĠInstagram", "9747": "Ġ1950", "9748": "ĠVik", "9749": "View", "9750": "ĠChildren", "9751": "ĠCrime", "9752": "Ġclinical", "9753": "Out", "9754": "Ġnic", "9755": "eremy", "9756": "ĠHold", "9757": "bits", "9758": "Ġinvestments", "9759": "Ġconsensus", "9760": "even", "9761": "igate", "9762": "ĠLeon", "9763": "ses", "9764": "ĠFal", "9765": "Ġeducational", "9766": "ito", "9767": "const", "9768": "Ġdish", "9769": "Ġmanifest", "9770": "Ġcustody", "9771": "week", "9772": "82", "9773": "Ġeligible", "9774": "ĠHawai", "9775": "Ġlegally", "9776": "Ġmissions", "9777": "Ġendorse", "9778": "Ġgate", "9779": "eria", "9780": "Ġmemo", "9781": "ĠGT", "9782": "Ġtables", "9783": "ĠPict", "9784": "Ġnin", "9785": "Ġstudying", "9786": "Hz", "9787": "Ġ?", "9788": "Ġcharity", "9789": "aration", "9790": "adi", "9791": "Ġaddresses", "9792": "Ġinspect", "9793": "Ġdiscount", "9794": "rix", "9795": "left", "9796": "Ġbattles", "9797": "ALL", "9798": "ĠDer", "9799": "Ġ250", "9800": "ĠAssembly", "9801": "Ġathletes", "9802": "Pre", "9803": "ĠTrade", "9804": "Ġfossil", "9805": "Ġenthusi", "9806": "ĠManagement", "9807": "iac", "9808": "Ġsuspects", "9809": "Ġtired", "9810": "Ġhelic", "9811": "Act", "9812": "Ġcounterpart", "9813": "Ġna", "9814": "achel", "9815": "Ġdating", "9816": "ĠEth", "9817": "Ġspectrum", "9818": "ĠMetro", "9819": "ateral", "9820": "ĠStation", "9821": "ĠBal", "9822": "Ġpresentation", "9823": "Ġlux", "9824": "gered", "9825": "arts", "9826": "Ġbottle", "9827": "Ġtap", "9828": "riors", "9829": "Ġvig", "9830": "Ġfundra", "9831": "Ġenhance", "9832": "assy", "9833": "ĠSean", "9834": "Ġtherapy", "9835": "ĠWales", "9836": "ĠExper", "9837": "Ġperceived", "9838": "market", "9839": "ĠTok", "9840": "Ġdominant", "9841": "Def", "9842": "math", "9843": "Ġbacking", "9844": "ĠFestival", "9845": "Ġunderlying", "9846": "Ġdefending", "9847": "ĠThrough", "9848": "Ġracing", "9849": "Ġdiscussing", "9850": "Ġburden", "9851": "Ġexpanding", "9852": "Ġmuscle", "9853": "Ġstops", "9854": "uz", "9855": "Ġbeings", "9856": "ĠMarx", "9857": "ĠEqu", "9858": "Ġtransaction", "9859": "ĠUber", "9860": "Ġ99", "9861": "Cal", "9862": "Ġrecruit", "9863": "itudes", "9864": "acher", "9865": "ĠGary", "9866": "Ġmood", "9867": "Ġpicking", "9868": "81", "9869": "lando", "9870": "ylum", "9871": "player", "9872": "Ġmanagers", "9873": "orable", "9874": "Ġgathering", "9875": "Ġhopefully", "9876": "angle", "9877": "ĠSon", "9878": "alysis", "9879": "ĠVideo", "9880": "section", "9881": "Ġcrus", "9882": "ĠLibya", "9883": "Ġimpression", "9884": "Ġhip", "9885": "olar", "9886": "Ã¢", "9887": "Ġscrut", "9888": "Ġroy", "9889": "ĠTai", "9890": "igenous", "9891": "Ġinstitution", "9892": "ĠBatman", "9893": "}}", "9894": "Ġstere", "9895": "Ġprocedures", "9896": "Ã±", "9897": "Ġpocket", "9898": "Ġcreatures", "9899": "ĠBoe", "9900": "Ġcompat", "9901": "Ġarrival", "9902": "ptions", "9903": "sa", "9904": "watch", "9905": "Ġeager", "9906": "Ġpollution", "9907": "iture", "9908": "Ġkitchen", "9909": "Ġfoods", "9910": "ocial", "9911": "Ġrecre", "9912": "Ġsurviv", "9913": "roph", "9914": "Ġorganic", "9915": "ĠPentagon", "9916": "ĠMorgan", "9917": "Ġshipping", "9918": "Ġcapitalism", "9919": "Ġinsult", "9920": "Ġtiming", "9921": "sub", "9922": "odox", "9923": "Ġrequirement", "9924": "Ġunfair", "9925": "aders", "9926": "Ġ56", "9927": "Ġmice", "9928": "ĠAssad", "9929": "Rem", "9930": "ĠRepresent", "9931": "ĠMess", "9932": "ĠMLS", "9933": "bing", "9934": "atively", "9935": "ĠElizabeth", "9936": "ĠOp", "9937": "Ġdiseases", "9938": "Mod", "9939": "Ġindustries", "9940": "ĠOakland", "9941": "dy", "9942": "Ġbowl", "9943": "oln", "9944": "ĠMurray", "9945": "ĠCreat", "9946": "Ġsed", "9947": "Ġhelicop", "9948": "Ġdivor", "9949": "agger", "9950": "Ġbeach", "9951": "Ġpunishment", "9952": "abet", "9953": "Ġshell", "9954": "***", "9955": "Ġfled", "9956": "Ġhospitals", "9957": "missions", "9958": "Ġtons", "9959": "AF", "9960": "ĠKick", "9961": "Ġseed", "9962": "ogy", "9963": "ĠComey", "9964": "opyright", "9965": "Ġstatist", "9966": "Ġengineers", "9967": "Ġobsc", "9968": "Ġhire", "9969": "SC", "9970": "Ġmodule", "9971": "AY", "9972": "amous", "9973": "Ġcoaching", "9974": "oca", "9975": "Ġanswered", "9976": "rac", "9977": "Reg", "9978": "TR", "9979": "Ġgraphics", "9980": "Ġregulatory", "9981": "Ġsovere", "9982": "Ġstance", "9983": "alties", "9984": "Ġbow", "9985": "ĠKeep", "9986": "Click", "9987": "Ġexplaining", "9988": "Ġrhetoric", "9989": "Ġbeating", "9990": "ĠFriend", "9991": "Ġtut", "9992": "ĠEmail", "9993": "rior", "9994": "ĠYeah", "9995": "emic", "9996": "Ġacknowledge", "9997": "ĠMichel", "9998": "Ġprincipal", "9999": "ĠMit", "10000": "Ġpulling", "10001": "erves", "10002": "Ġsignature", "10003": "brid", "10004": "olving", "10005": "Ġconvince", "10006": "ĠRoll", "10007": "Ġvariable", "10008": "cosystem", "10009": "Ġpill", "10010": "Ġsearching", "10011": "ĠOx", "10012": "Ġdies", "10013": "Ġovercome", "10014": "Ġpreferred", "10015": "duction", "10016": "Ġsixth", "10017": "Ġadviser", "10018": "ĠTennessee", "10019": "Ġtrends", "10020": "Ġ!", "10021": "ĠRussell", "10022": "Ġ(\"", "10023": "ĠThompson", "10024": "Ge", "10025": "Ġmerch", "10026": "Ġrebels", "10027": "Ġinteraction", "10028": "Ġperiods", "10029": "ĠYan", "10030": "Ġpsychological", "10031": "Mich", "10032": "ĠSure", "10033": "ĠUsing", "10034": "Ġeconomics", "10035": "ĠCharlie", "10036": "ĠBi", "10037": "Ġoutlets", "10038": "ĠGil", "10039": "ĠIntel", "10040": "Ġsignals", "10041": "pg", "10042": "Ġecho", "10043": "ĠExecutive", "10044": "ĠKentucky", "10045": "Ġtempor", "10046": "Ġbillions", "10047": "Ġlineup", "10048": "Ġmath", "10049": "2013", "10050": "Ġ1991", "10051": "Ġsetup", "10052": "Ġrend", "10053": "Finally", "10054": "netic", "10055": "mic", "10056": "Ġeggs", "10057": "Ġsegment", "10058": "Ġarr", "10059": "Ġbadly", "10060": "kee", "10061": "ĠLi", "10062": "ui", "10063": "Ġsentenced", "10064": "Ġeveryday", "10065": "ĠDragon", "10066": "Ġcommander", "10067": "ĠHoll", "10068": "ĠAN", "10069": "Ġloves", "10070": "unicipal", "10071": "ds", "10072": "Ġgenes", "10073": "NBC", "10074": "Ġbold", "10075": "Ġrequiring", "10076": "Ġbullet", "10077": "Ġinvasion", "10078": "will", "10079": "Comm", "10080": "Ġpartly", "10081": "Ġescal", "10082": "Ġinstant", "10083": "Ġgig", "10084": "ĠJean", "10085": "check", "10086": "Ġarts", "10087": "Ġgene", "10088": "Ġremoval", "10089": "Ġundert", "10090": "Ġupload", "10091": "liest", "10092": "ĠHart", "10093": "Ġtopics", "10094": "ĠIron", "10095": "enezuel", "10096": "Ġinquiry", "10097": "Ġamendment", "10098": "Ġweakness", "10099": "ĠRather", "10100": "news", "10101": "Ġconcepts", "10102": "ĠZe", "10103": "ĠMcK", "10104": "has", "10105": "PL", "10106": "Ġshoes", "10107": "arted", "10108": "ĠSound", "10109": "Ġfabric", "10110": "izza", "10111": "grade", "10112": "ĠDelhi", "10113": "Earlier", "10114": "tsburgh", "10115": "Ġfrequent", "10116": "Ġsections", "10117": "Ġoccurs", "10118": "oli", "10119": "Ġmigrants", "10120": "Ġcompensation", "10121": "Ġengineer", "10122": "eness", "10123": "Ġlad", "10124": "ĠFinally", "10125": "Ġfo", "10126": "Ġattractive", "10127": "ĠBox", "10128": "Ġunve", "10129": "instein", "10130": "Ġ).", "10131": "Ġciting", "10132": "Ġtweets", "10133": "Ġutility", "10134": "arency", "10135": "cor", "10136": "Ġposting", "10137": "Ġridiculous", "10138": "Ġblockchain", "10139": "Ġcler", "10140": "ĠClark", "10141": "Ġspeaker", "10142": "âĶĢ", "10143": "Ġdiam", "10144": "Ø§", "10145": "Ġcorrupt", "10146": "Ġtalented", "10147": "Ġlect", "10148": "Ġcollaps", "10149": "Ġmask", "10150": "âĢĲ", "10151": "necess", "10152": "screen", "10153": "Ġnotable", "10154": "ĠTherefore", "10155": "Ġelder", "10156": "Ġgenre", "10157": "Ġdeadline", "10158": "Ġrolling", "10159": "Ġcarries", "10160": "ĠBM", "10161": "gus", "10162": "Top", "10163": "ĠFinal", "10164": "via", "10165": "ĠET", "10166": "ental", "10167": "Ġapproaches", "10168": "Ġeliminate", "10169": "ĠPriv", "10170": "Ġanalysts", "10171": "Ġsits", "10172": "Ġcens", "10173": "State", "10174": "Ġinstances", "10175": "ĠSimon", "10176": "Ġpublishing", "10177": "Ġunprecedented", "10178": "Ġcolour", "10179": "ĠVe", "10180": "Ġroots", "10181": "ĠPhoenix", "10182": "VP", "10183": "Ġcock", "10184": "Ġbene", "10185": "ĠPsych", "10186": "Ġtoxic", "10187": "Ġcollaboration", "10188": "Ġarc", "10189": "Ġinequality", "10190": "Ġneighbors", "10191": "Ġinsight", "10192": "Ġdramatically", "10193": "ĠHarper", "10194": "Ġhomosexual", "10195": "Ġprize", "10196": "Ġtowns", "10197": "Ġextraordinary", "10198": "Ġperception", "10199": "ĠGordon", "10200": "ĠWhether", "10201": "ĠPhill", "10202": "Ġparad", "10203": "arget", "10204": "Ġgest", "10205": "Ġmaintenance", "10206": "owski", "10207": "rowing", "10208": "ĠGro", "10209": "ĠGO", "10210": "Ġcheaper", "10211": "isdom", "10212": "Ġassociate", "10213": "Ġcoup", "10214": "Mark", "10215": "ĠEvent", "10216": "Ġsheet", "10217": "ĠBow", "10218": "ĠBelow", "10219": "ĠSav", "10220": "ĠCaptain", "10221": "pack", "10222": "Ġcognitive", "10223": "Ġencouraging", "10224": "Ġdreams", "10225": "ĠPers", "10226": "Ġseized", "10227": "Ġinterviewed", "10228": "Ġdeployed", "10229": "Ġviolations", "10230": "Ġcamps", "10231": "Ġcomics", "10232": "Ġconstitu", "10233": "ĠReagan", "10234": "Ġreserved", "10235": "Ġbuck", "10236": "Ġemployers", "10237": "Ġaims", "10238": "atus", "10239": "Ġfunctional", "10240": "Ġmystery", "10241": "Ġdisplayed", "10242": "Paul", "10243": "iban", "10244": "Ġspan", "10245": "Ġloop", "10246": "Ġdelight", "10247": "apore", "10248": "cre", "10249": "AB", "10250": "Ġtraged", "10251": "ĠEconomic", "10252": "ixture", "10253": "ĠSa", "10254": "Ġ57", "10255": "ricane", "10256": "Ġglad", "10257": "Ġoccasionally", "10258": "Ġvend", "10259": "Ġexport", "10260": "TON", "10261": "Ġbirthday", "10262": "Ġheroes", "10263": "Ġfatal", "10264": "estyle", "10265": "oga", "10266": "Ġcorrectly", "10267": "ĠStew", "10268": "Ġprompted", "10269": "wa", "10270": "Ġstamp", "10271": "ĠCole", "10272": "elle", "10273": "Ġcontemporary", "10274": "ĠAccess", "10275": "ĠJenn", "10276": "Ġprospects", "10277": "oting", "10278": "endar", "10279": "Ġirre", "10280": "vi", "10281": "Ġrecommendations", "10282": "mir", "10283": "Ġdiplomatic", "10284": "throp", "10285": "Ġpa", "10286": "ighth", "10287": "Ġbell", "10288": "Ġparallel", "10289": "Ġexclud", "10290": "eling", "10291": "Ġconstitution", "10292": "onz", "10293": "Ġdisappointed", "10294": "Ġmanufacturers", "10295": "Ġadequ", "10296": "Ġintr", "10297": "ĠStaff", "10298": "Ġmoderate", "10299": "ĠEver", "10300": "ĠDog", "10301": "Ġecosystem", "10302": "Ġaccompan", "10303": "Time", "10304": "Ġdemanded", "10305": "Ġ85", "10306": "ĠGDP", "10307": "ĠPhotos", "10308": "Ġnose", "10309": "ĠMontreal", "10310": "ĠDick", "10311": "ailable", "10312": "Ġinterpre", "10313": "Ġpleased", "10314": "2017", "10315": "Ġlabour", "10316": "Ġlifetime", "10317": "ĠBrooklyn", "10318": "ĠTax", "10319": "ĠEst", "10320": "ĠReserve", "10321": "rock", "10322": "Ġcommunicate", "10323": "Ġfights", "10324": "Ġmodified", "10325": "Ġdrunk", "10326": "ĠOcean", "10327": "Ġsessions", "10328": "Ġwedding", "10329": "Ġknock", "10330": "Ġexplosion", "10331": "ĠLibrary", "10332": "Ġbiological", "10333": "Ġlanded", "10334": "Ġrepair", "10335": "ĠEPA", "10336": "Ġ58", "10337": "ĠAuthority", "10338": "Ġsubsc", "10339": "Ġrepresentation", "10340": "ĠGiven", "10341": "ĠBol", "10342": "Ġartificial", "10343": "250", "10344": "leans", "10345": "fit", "10346": "Fi", "10347": "Ġrelation", "10348": "Ġowns", "10349": "ĠKhan", "10350": "ixon", "10351": "ĠAntonio", "10352": "ĠDigital", "10353": "Ġlift", "10354": "agen", "10355": "Ġdesigner", "10356": "rot", "10357": "Ġrecon", "10358": "Thanks", "10359": "Ġemp", "10360": "Ġconsciousness", "10361": "Ġkicked", "10362": "ĠOrder", "10363": "Ġdefender", "10364": "Ġhanging", "10365": "Ġlessons", "10366": "hist", "10367": "Ġimposed", "10368": "Ġguests", "10369": "Ġadopt", "10370": "Ġanonymous", "10371": "150", "10372": "Ġsli", "10373": "Ġconcerning", "10374": "wind", "10375": "Ġpregnant", "10376": "ĠFive", "10377": "incoln", "10378": "ĠBul", "10379": "Ġunderground", "10380": "acre", "10381": "Ġmaintaining", "10382": "Ġasset", "10383": "ĠAlan", "10384": "Ġpunch", "10385": "ĠRome", "10386": "ols", "10387": "bourne", "10388": "Ġshirt", "10389": "Ġingredients", "10390": "Update", "10391": "Ġcheese", "10392": "wed", "10393": "Ġintellig", "10394": "isition", "10395": "ĠChannel", "10396": "ĠConvention", "10397": "Ġpodcast", "10398": "Ġinterior", "10399": "graph", "10400": "\":\"", "10401": "Ġemotions", "10402": "ching", "10403": "human", "10404": "Ġabstract", "10405": "ĠArgent", "10406": "Ġcouples", "10407": "Ġlesson", "10408": "Ġcreature", "10409": "Ġresolve", "10410": "Ġshocked", "10411": "Ġoppose", "10412": "Whe", "10413": "Ġsummit", "10414": "Ġperformances", "10415": "ĠSU", "10416": "Ġvolunteers", "10417": "ĠBurn", "10418": "Dis", "10419": "Ġsoldier", "10420": "Ñĥ", "10421": "some", "10422": "Ġstimul", "10423": "Ġlogo", "10424": "à¤", "10425": "appropri", "10426": "istant", "10427": "Ġterr", "10428": "Ġvocal", "10429": "Ġaccum", "10430": "Ġgirlfriend", "10431": "ĠProtection", "10432": "ben", "10433": "ĠDur", "10434": "ulty", "10435": "SE", "10436": "Ġjumped", "10437": "Ġannoy", "10438": "ĠPage", "10439": "Ġjihad", "10440": "Ġmile", "10441": "Ġnurs", "10442": "ĠLear", "10443": "user", "10444": "Ġmilitants", "10445": "acles", "10446": "Ġguid", "10447": "ĠFant", "10448": "ĠMissouri", "10449": "Ġprofessionals", "10450": "Gener", "10451": "(\"", "10452": "ĠAnna", "10453": "ikh", "10454": "Instead", "10455": "Ġbutter", "10456": "ials", "10457": "Ġswit", "10458": "Ġrefers", "10459": "Ġdesktop", "10460": "dr", "10461": "Ġtraveling", "10462": "Ġlibr", "10463": "gets", "10464": "Ġisolated", "10465": "Ġforum", "10466": "Ġadvocate", "10467": "Ġexisted", "10468": "ĠLim", "10469": "Ġopposing", "10470": "ĠCoal", "10471": "gate", "10472": "Ġrecalled", "10473": "âĢ¦.", "10474": "Next", "10475": "Station", "10476": "ĠCase", "10477": "ĠHan", "10478": "Israel", "10479": "Ġ600", "10480": "Ġintegration", "10481": "Ġdescribing", "10482": "Ġboxes", "10483": "ĠJavaScript", "10484": "ĠOrleans", "10485": "early", "10486": "Ġstro", "10487": "CD", "10488": "ĠMail", "10489": "Ġminimal", "10490": "ĠHal", "10491": "tainment", "10492": "Ġconfused", "10493": "ĠCustom", "10494": "ĠSD", "10495": "umph", "10496": "Ġpeaceful", "10497": "Ġinherent", "10498": "abe", "10499": "odge", "10500": "cal", "10501": "Ġsurrounded", "10502": "Ġvert", "10503": "owned", "10504": "ĠCapitol", "10505": "hattan", "10506": "ĠHand", "10507": "commun", "10508": "Ġholes", "10509": "Ġmeal", "10510": "Ġ1989", "10511": "Ġintegrity", "10512": "ĠKnow", "10513": "ĠPlayer", "10514": "Ġpm", "10515": "ĠBarb", "10516": "Ġinspiration", "10517": "Ġconfiguration", "10518": "ĠRs", "10519": "Ġsne", "10520": "ĠTrust", "10521": "ĠBan", "10522": "hero", "10523": "ðŁ", "10524": "Ġexpense", "10525": "Ġcredits", "10526": "ĠNon", "10527": "Ġsubur", "10528": "Ġelectoral", "10529": "Ġideology", "10530": "Ġyell", "10531": "Ġsilent", "10532": "Ġdual", "10533": "ĠMarine", "10534": "ĠDoctor", "10535": "Ġstack", "10536": "Ġsuspic", "10537": "Ġburied", "10538": "TE", "10539": "ĠNevada", "10540": "iens", "10541": "Ã§", "10542": "imize", "10543": "Ġdesperate", "10544": "ĠOcc", "10545": "starter", "10546": "Ðº", "10547": "Ġscream", "10548": "Ġclip", "10549": "Ġchoosing", "10550": "Ġbombs", "10551": "Trans", "10552": "ĠCB", "10553": "Ġbands", "10554": "Ġteammates", "10555": "Ġfleet", "10556": "ĠSH", "10557": "Ġconvert", "10558": "Ġacceptable", "10559": "tra", "10560": "ĠOrlando", "10561": "ibl", "10562": "Ġjer", "10563": "Gu", "10564": "ĠWright", "10565": "Ġregistration", "10566": "List", "10567": "ĠPortug", "10568": "ĠHitler", "10569": "Ġbrutal", "10570": "SU", "10571": "awks", "10572": "Net", "10573": "ĠMove", "10574": "Ġscar", "10575": "Ġancest", "10576": "ĠOnline", "10577": "ĠAlliance", "10578": "election", "10579": "Ġsubscribe", "10580": "Ġstruggles", "10581": "Ġkeyboard", "10582": "Ġmomentum", "10583": "ĠLeban", "10584": "ĠArea", "10585": "aro", "10586": "Ġpromotion", "10587": "ĠArsenal", "10588": "ĠVen", "10589": "Ġevident", "10590": "Fl", "10591": "Ġquit", "10592": "hire", "10593": "father", "10594": "Name", "10595": "Ġorganisation", "10596": "Ġwondering", "10597": "ĠIndones", "10598": "Ġclosest", "10599": "mits", "10600": "too", "10601": "Ġembrace", "10602": "ĠSteel", "10603": "books", "10604": "ĠFollowing", "10605": "Ġrefugee", "10606": "ĠHamp", "10607": "Ġteeth", "10608": "ART", "10609": "Ġprobe", "10610": "Ġutter", "10611": "Speaking", "10612": "chell", "10613": "Ġathe", "10614": "ĠWord", "10615": "Ġoccasional", "10616": "Ġmonster", "10617": "strong", "10618": "Ġassembly", "10619": "Ġbankrupt", "10620": "Ġreferences", "10621": "isd", "10622": "Ġjournalism", "10623": "Ġexpenses", "10624": "Ġsubsequently", "10625": "oub", "10626": "stop", "10627": "oker", "10628": "Ġpride", "10629": "Ġguards", "10630": "ĠMun", "10631": "Ġinterpretation", "10632": "ĠVenezuel", "10633": "Ġyeah", "10634": "ï¼", "10635": "Ġlin", "10636": "hr", "10637": "grad", "10638": "Ġremoving", "10639": "Ġorbit", "10640": "Gl", "10641": "ĠIndependent", "10642": "ĠWrit", "10643": "Ġprofound", "10644": "ipedia", "10645": "rett", "10646": "2012", "10647": "ĠPittsburgh", "10648": "Ġcompromise", "10649": "Ġknife", "10650": "Ġdistricts", "10651": "Ġexclusively", "10652": "Ġsurvived", "10653": "ĠSource", "10654": "Ġconsiderable", "10655": "Ġmathemat", "10656": "Ġstating", "10657": "Ġengaging", "10658": "ĠCould", "10659": "Ġrefuse", "10660": "Ġbird", "10661": "Ġcharacteristics", "10662": "ĠMountain", "10663": "Ġlobb", "10664": "ĠRaj", "10665": "Ġjustify", "10666": "Ġdominated", "10667": "HP", "10668": "Ġ72", "10669": "QL", "10670": "Ġbriefly", "10671": "ĠNazi", "10672": "bound", "10673": "arson", "10674": "ĠRest", "10675": "Ġchip", "10676": "Ġministers", "10677": "Ġprost", "10678": "Ġelectron", "10679": "Ġtremendous", "10680": "Ġcontrary", "10681": "rend", "10682": "Ġgri", "10683": "Ġsustainable", "10684": "Share", "10685": "Ġloaded", "10686": "Ġflour", "10687": "Ġdisappear", "10688": "Ġnervous", "10689": "Ġroutes", "10690": "orneys", "10691": "Ġproportion", "10692": "Ġsophistic", "10693": "attered", "10694": "Ġexecuted", "10695": "ocated", "10696": "elve", "10697": "ĠDuke", "10698": "utter", "10699": "Ġasylum", "10700": "ĠEveryone", "10701": "Ġgameplay", "10702": "Ġsexually", "10703": "inst", "10704": "Thank", "10705": "Hey", "10706": "ĠBu", "10707": "Ġpir", "10708": "Ġdonors", "10709": "Ġconfusion", "10710": "ĠDream", "10711": "Ġrevolutionary", "10712": "amine", "10713": "cap", "10714": "ĠAaron", "10715": "ĠAndy", "10716": "ĠPant", "10717": "Ġcurious", "10718": "ĠTreasury", "10719": "Ġharsh", "10720": "limited", "10721": "lihood", "10722": "income", "10723": "KE", "10724": "Ġattending", "10725": "Ġ800", "10726": "ĠAdams", "10727": "immer", "10728": "ĠIM", "10729": "Ã¨", "10730": "security", "10731": "UC", "10732": "Ġspeakers", "10733": "Ã³n", "10734": "Ġcabinet", "10735": "Ġnowhere", "10736": "Ag", "10737": "reek", "10738": "Ġflee", "10739": "Ġvoid", "10740": "Ġbrands", "10741": "Ġchronic", "10742": "Ġprinted", "10743": "ĠTesla", "10744": "ĠShort", "10745": "Ġcharging", "10746": "Ġengines", "10747": "Ġphysics", "10748": "reck", "10749": "anim", "10750": "ĠHaving", "10751": "function", "10752": "urse", "10753": "ĠMult", "10754": "Ġconcert", "10755": "scar", "10756": "ĠSheriff", "10757": "inge", "10758": "Ġoutcomes", "10759": "ĠAren", "10760": "ĠOfficer", "10761": "MAN", "10762": "ublished", "10763": "olid", "10764": "otte", "10765": "Ġorient", "10766": "Ġmirror", "10767": "Ġstrengthen", "10768": "ĠGib", "10769": "ĠJun", "10770": "thood", "10771": "Ġfails", "10772": "opt", "10773": "Ġspo", "10774": "Ġobser", "10775": ".]", "10776": "Ġchaos", "10777": "Ġpassenger", "10778": "ĠiPad", "10779": "ĠCurrent", "10780": "Ġcriminals", "10781": "Ġfel", "10782": "ĠSpir", "10783": "Ġsteady", "10784": "ĠRobinson", "10785": "Red", "10786": "700", "10787": "ĠNether", "10788": "merce", "10789": "ĠÂ±", "10790": "Ġrobust", "10791": "ĠCON", "10792": "ĠManhattan", "10793": "white", "10794": "IE", "10795": "Ġendors", "10796": "Ġspeculation", "10797": "ĠChange", "10798": "reshold", "10799": "Ġcertific", "10800": "Ġdeemed", "10801": "ĠTaliban", "10802": "Ġdropping", "10803": "Ġhiring", "10804": "ĠNorm", "10805": "ĠGiants", "10806": "ĠSingapore", "10807": "ĠAlp", "10808": "Ġintegrated", "10809": "ĠPerry", "10810": "Ġpresents", "10811": "Ġavo", "10812": "ĠTs", "10813": "ĠBand", "10814": "ĠFA", "10815": "Ġguaranteed", "10816": "apper", "10817": "Ġfert", "10818": "Ġepic", "10819": "Ġleaked", "10820": "ĠKings", "10821": "Ġpackages", "10822": "mble", "10823": "Ġpleasure", "10824": "BN", "10825": "ele", "10826": "Ġsuspension", "10827": "Ġchallenged", "10828": "Ġpacked", "10829": "good", "10830": "Ġchecking", "10831": "à¸", "10832": "Ġbits", "10833": "Ġvit", "10834": "Ġengagement", "10835": "Ġradiation", "10836": "Ġslot", "10837": "Ġbombing", "10838": "ĠHu", "10839": "Ġpatri", "10840": "leep", "10841": "Ġda", "10842": "Ġalert", "10843": "Pal", "10844": "istle", "10845": "Ġwet", "10846": "rics", "10847": "Ġhunting", "10848": "ĠUSB", "10849": "ĠTel", "10850": "riv", "10851": "Äģ", "10852": "ÃĥÃĤÃĥÃĤÃĥÃĤÃĥÃĤ", "10853": "Ġproduces", "10854": "Ġwitnesses", "10855": "ĠCraig", "10856": "ophob", "10857": "Ġeditorial", "10858": "Ġdefended", "10859": "Ġrecovered", "10860": "ĠHoly", "10861": "mented", "10862": "Ġdevelopments", "10863": "Ġsimultaneously", "10864": "Ġboom", "10865": "Ġbacteria", "10866": "ĠLog", "10867": "Ġblocking", "10868": "Right", "10869": "ĠLater", "10870": "Ġ59", "10871": "Ġattracted", "10872": "Ġ66", "10873": "Ġfigured", "10874": "ĠOpp", "10875": "Ġcorrel", "10876": "ĠHung", "10877": "Ġalliance", "10878": "Ġresearcher", "10879": "Ġtaxpayers", "10880": "ĠEntertainment", "10881": "ĠLes", "10882": "ĠNone", "10883": "Ġcaps", "10884": "card", "10885": "ĠJeremy", "10886": "Ġhosts", "10887": "Ġcinem", "10888": "Ġpatent", "10889": "ĠRussians", "10890": "izarre", "10891": "Ġexamine", "10892": "ATCH", "10893": "ĠFuture", "10894": "Ġvariables", "10895": "aste", "10896": "ĠLincoln", "10897": "ifier", "10898": "Ġoxy", "10899": "Ġembed", "10900": "--------------------------------", "10901": "Ġjunior", "10902": "lynn", "10903": "ateful", "10904": "Black", "10905": "ĠGh", "10906": "uter", "10907": "oned", "10908": "ĠChairman", "10909": "Ġpublish", "10910": "ĠTower", "10911": "JP", "10912": "Ġtear", "10913": "Ġ62", "10914": "Ġmeth", "10915": "gly", "10916": "Ġbreast", "10917": "ĠVlad", "10918": "DR", "10919": "Ġvent", "10920": "ĠPoland", "10921": "Car", "10922": "ĠUkrainian", "10923": "ĠStudies", "10924": "adesh", "10925": "gged", "10926": "dep", "10927": "Ġenact", "10928": "may", "10929": "ĠDak", "10930": "Ġflights", "10931": "omic", "10932": "Ġaccuracy", "10933": "Ġflav", "10934": "ĠBor", "10935": "ĠWi", "10936": "Ġdistribut", "10937": "Ġlos", "10938": "Ġimpacts", "10939": "ĠKit", "10940": "Ġsurprisingly", "10941": "Ġsolo", "10942": "Ġraises", "10943": "Ġburned", "10944": "Ġric", "10945": "ĠSci", "10946": "Ġangle", "10947": "secutive", "10948": "ĠWould", "10949": "Ġevac", "10950": "Ġqualified", "10951": "Ġdecrease", "10952": "ĠCPU", "10953": "oft", "10954": "nie", "10955": "vas", "10956": "Ġevolved", "10957": "Ġflavor", "10958": "olitical", "10959": "test", "10960": "Ġunnecess", "10961": "bin", "10962": "aco", "10963": "Ġassemb", "10964": "ĠTotal", "10965": "Ġintimid", "10966": "wich", "10967": "imir", "10968": "Ġcourtesy", "10969": "ĠOR", "10970": "Cor", "10971": "ERE", "10972": "Ġfingers", "10973": "ĠMPs", "10974": "rition", "10975": "Ġproductive", "10976": "Ġvoc", "10977": "Ġblamed", "10978": "etheless", "10979": "ĠHIV", "10980": "Ġdependent", "10981": "Ġexpecting", "10982": "Ġtransferred", "10983": "ĠRangers", "10984": "Ġenabled", "10985": "Ġidentical", "10986": "Ġvisits", "10987": "nan", "10988": "Ġexpects", "10989": "Ġlane", "10990": "ĠGill", "10991": "dict", "10992": "Ġignor", "10993": "ĠUb", "10994": "Ġaccord", "10995": "ĠGriff", "10996": "terror", "10997": "ishers", "10998": "Book", "10999": "ĠStewart", "11000": "Ġventure", "11001": "ĠCC", "11002": "Ġbarg", "11003": "Br", "11004": "Ġshops", "11005": "Ġdeparture", "11006": "ĠCommand", "11007": "iere", "11008": "ĠMississ", "11009": "TO", "11010": "Ġkiller", "11011": "Ġrepeal", "11012": "Ġmotivated", "11013": "Ġrestore", "11014": "Ġagreements", "11015": "ĠDu", "11016": "Ġconflicts", "11017": "Ġorganis", "11018": "thodox", "11019": "Ġscared", "11020": "Ġforgotten", "11021": "ĠThink", "11022": "iden", "11023": "icked", "11024": "ulse", "11025": "Ġinher", "11026": "Ġnationwide", "11027": "ĠEdition", "11028": "bian", "11029": "Ġcycl", "11030": "Ġinfluenced", "11031": "Ġcriteria", "11032": "ĠNi", "11033": "ernand", "11034": "Ġoccupied", "11035": "Ġanimation", "11036": "ĠBC", "11037": "Ġtrailer", "11038": "Ġranking", "11039": "ĠPope", "11040": "ĠShould", "11041": "ĠThings", "11042": "Ġ`", "11043": "Ġbacks", "11044": "ahoo", "11045": "Ġtelephone", "11046": "df", "11047": "Ġoccasion", "11048": "about", "11049": "unity", "11050": "Ġanalys", "11051": "ĠReddit", "11052": "Ġfunctionality", "11053": "Ġchecked", "11054": "Ġconcentration", "11055": "ĠModel", "11056": "looking", "11057": "Ġhouseholds", "11058": "link", "11059": "Ġreass", "11060": "onduct", "11061": "Ġalgorithm", "11062": "Ġcourage", "11063": "rah", "11064": "ressing", "11065": "ĠSupport", "11066": "oup", "11067": "Ġpromoted", "11068": "ĠHug", "11069": "Ġimprison", "11070": "aments", "11071": "Ġexplicitly", "11072": "Ġbatter", "11073": "iar", "11074": "leted", "11075": "Ġdesp", "11076": "Ġbabies", "11077": "Ġtanks", "11078": "Ġought", "11079": "Ġstatic", "11080": "ĠProduct", "11081": "Ġreleasing", "11082": "Ġantib", "11083": "ĠPlace", "11084": "rike", "11085": "Ġsubtle", "11086": "Former", "11087": "ILL", "11088": "Ġstats", "11089": "Ġbases", "11090": "Ġstrip", "11091": "Ġdoct", "11092": "large", "11093": "uating", "11094": "Gr", "11095": "Ġprivilege", "11096": "ĠJerry", "11097": "ĠMoreover", "11098": "agine", "11099": "ĠEnt", "11100": "ippi", "11101": "ĠWarner", "11102": "ĠNO", "11103": "Ġmeters", "11104": "Ġentrance", "11105": "MB", "11106": "bat", "11107": "Ġtower", "11108": "Ġinvestigated", "11109": "Three", "11110": "Ġsenators", "11111": "zone", "11112": "ĠCold", "11113": "ĠCanadians", "11114": "Ġhub", "11115": "Ġwise", "11116": "Ġoverl", "11117": "Ġapplies", "11118": "Ġformula", "11119": "ĠStandard", "11120": "ĠEb", "11121": "ollar", "11122": "ĠEgyptian", "11123": "Ġmart", "11124": "ĠChristopher", "11125": "Ġinevitable", "11126": "breaking", "11127": "Ġuncertainty", "11128": "Ġprovider", "11129": "actor", "11130": "Ġpainting", "11131": "Ġcontinu", "11132": "Ġmodest", "11133": "Ġlens", "11134": "Ġinfluential", "11135": "Ġdestination", "11136": "ĠQueens", "11137": "Ġunre", "11138": "ĠMap", "11139": "forward", "11140": "izations", "11141": "Ġchips", "11142": "being", "11143": "Supp", "11144": "Ġally", "11145": "Ġinfection", "11146": "Ġdimin", "11147": "leading", "11148": "\",\"", "11149": "ĠUnivers", "11150": "Ġjet", "11151": "kes", "11152": "Ġsolely", "11153": "Ġbelt", "11154": "Ġscrew", "11155": "Ġinaug", "11156": "Ġ63", "11157": "Ġinsist", "11158": "Good", "11159": "Yeah", "11160": "rying", "11161": "ĠTR", "11162": "ĠNiger", "11163": "Ġtheft", "11164": "uccess", "11165": "ĠMarg", "11166": "Ġpolitician", "11167": "ĠAlaska", "11168": "Ġtransparency", "11169": "ĠPlayStation", "11170": "Ġinvested", "11171": "Ġsinger", "11172": "Ġimmune", "11173": "ĠOttawa", "11174": "Ġprovisions", "11175": "istance", "11176": "ĠStock", "11177": "town", "11178": "Ġhandled", "11179": "Ġpy", "11180": "overs", "11181": "Ġuncomfort", "11182": "ampa", "11183": "ĠOlympics", "11184": "ĠLouisiana", "11185": "Ġimpressed", "11186": "Ġinbox", "11187": "ĠOil", "11188": "Ġoperator", "11189": "SD", "11190": "ardo", "11191": "untu", "11192": "ĠNetherlands", "11193": "Em", "11194": "Ġballs", "11195": "Ġtent", "11196": "ilation", "11197": "ĠJane", "11198": "non", "11199": "Ġcolleg", "11200": "Ġbol", "11201": "Ġsimilarly", "11202": "Ġlifestyle", "11203": "offs", "11204": "Ġheadlines", "11205": "idal", "11206": "Ġboards", "11207": "rifice", "11208": "?)", "11209": "ĠTrek", "11210": "comp", "11211": "Ġdisabled", "11212": "ĠKr", "11213": "thur", "11214": "ante", "11215": "ixel", "11216": "ĠStanley", "11217": "Ġoperated", "11218": "olas", "11219": "Ġregarded", "11220": "var", "11221": "ĠType", "11222": "Ġlaunching", "11223": "ĠSN", "11224": "Ġreluct", "11225": "ĠExp", "11226": "achment", "11227": "wall", "11228": "Down", "11229": "ĠMother", "11230": "Ġvolunt", "11231": "Ġphotographs", "11232": "such", "11233": "Ġkidn", "11234": "ĠDrug", "11235": "?âĢĻ", "11236": "Ġsake", "11237": "citation", "11238": "Ġkeen", "11239": "Ġdetention", "11240": "track", "11241": "rc", "11242": "Ġconsecutive", "11243": "Obama", "11244": "Ġgym", "11245": "ĠUnlike", "11246": "million", "11247": "inite", "11248": ").[", "11249": "ĠBlood", "11250": "gov", "11251": "Ġprosecutor", "11252": "Ġfilter", "11253": "ĠDa", "11254": "Ġprosecution", "11255": "keley", "11256": "Ġsuck", "11257": "oning", "11258": "anguage", "11259": "Ġconviction", "11260": "ige", "11261": "uther", "11262": "Ġearthqu", "11263": "Ġlean", "11264": "Ġrolled", "11265": "Ġkiss", "11266": "ĠTable", "11267": "armed", "11268": "ista", "11269": "Ġinex", "11270": "ĠModi", "11271": "erald", "11272": "orate", "11273": "ĠCorporation", "11274": "ĠCaption", "11275": "tarian", "11276": "ĠCorp", "11277": "bitious", "11278": "Ġbulk", "11279": "first", "11280": "ĠHampshire", "11281": "Ġmales", "11282": "ĠFO", "11283": "ĠBir", "11284": "Jo", "11285": "Ġtears", "11286": "Ġtragedy", "11287": "Ġchocolate", "11288": "Ġmouse", "11289": "Ġpoet", "11290": "Ġpreserve", "11291": "llor", "11292": "Ġguidance", "11293": "ĠFather", "11294": "ĠBeing", "11295": "ĠSche", "11296": "Ġleak", "11297": "ĠPhilippines", "11298": "Bel", "11299": "ĠForest", "11300": "urches", "11301": "Ġnu", "11302": "assion", "11303": "Ġbags", "11304": "ĠSeveral", "11305": "Ġreck", "11306": "block", "11307": "Ġdestro", "11308": "Ġexamined", "11309": "Ġsynd", "11310": "Ġaccepting", "11311": "Ġelabor", "11312": "Ġmissiles", "11313": "Ġabsurd", "11314": "rin", "11315": "Further", "11316": "Ġbeneath", "11317": "Ġneur", "11318": "Ġparticipating",
[...]
