{"1": "Ā", "2": "ā", "3": "Ă", "4": "ă", "5": "Ą", "6": "ą", "7": "Ć", "8": "ć", "9": "Ĉ", "10": "ĉ", "11": "Ċ", "12": "ċ", "13": "Č", "14": "č", "15": "Ď", "16": "ď", "17": "Đ", "18": "đ", "19": "Ē", "20": "ē", "21": "Ĕ", "22": "ĕ", "23": "Ė", "24": "ė", "25": "Ę", "26": "ę", "27": "Ě", "28": "ě", "29": "Ĝ", "30": "ĝ", "31": "Ğ", "32": "ğ", "33": "Ġ", "34": "!", "35": "\"", "36": "#", "37": "$", "38": "%", "39": "&", "40": "'", "41": "(", "42": ")", "43": "*", "44": "+", "45": ",", "46": "-", "47": ".", "48": "/", "49": "0", "50": "1", "51": "2", "52": "3", "53": "4", "54": "5", "55": "6", "56": "7", "57": "8", "58": "9", "59": ":", "60": ";", "61": "<", "62": "=", "63": ">", "64": "?", "65": "@", "66": "A", "67": "B", "68": "C", "69": "D", "70": "E", "71": "F", "72": "G", "73": "H", "74": "I", "75": "J", "76": "K", "77": "L", "78": "M", "79": "N", "80": "O", "81": "P", "82": "Q", "83": "R", "84": "S", "85": "T", "86": "U", "87": "V", "88": "W", "89": "X", "90": "Y", "91": "Z", "92": "[", "93": "\\", "94": "]", "95": "^", "96": "_", "97": "`", "98": "a", "99": "b", "100": "c", "101": "d", "102": "e", "103": "f", "104": "g", "105": "h", "106": "i", "107": "j", "108": "k", "109": "l", "110": "m", "111": "n", "112": "o", "113": "p", "114": "q", "115": "r", "116": "s", "117": "t", "118": "u", "119": "v", "120": "w", "121": "x", "122": "y", "123": "z", "124": "{", "125": "|", "126": "}", "127": "~", "128": "ġ", "129": "Ģ", "130": "ģ", "131": "Ĥ", "132": "ĥ", "133": "Ħ", "134": "ħ", "135": "Ĩ", "136": "ĩ", "137": "Ī", "138": "ī", "139": "Ĭ", "140": "ĭ", "141": "Į", "142": "į", "143": "İ", "144": "ı", "145": "Ĳ", "146": "ĳ", "147": "Ĵ", "148": "ĵ", "149": "Ķ", "150": "ķ", "151": "ĸ", "152": "Ĺ", "153": "ĺ", "154": "Ļ", "155": "ļ", "156": "Ľ", "157": "ľ", "158": "Ŀ", "159": "ŀ", "160": "Ł", "161": "ł", "162": "¡", "163": "¢", "164": "£", "165": "¤", "166": "¥", "167": "¦", "168": "§", "169": "¨", "170": "©", "171": "ª", "172": "«", "173": "¬", "174": "Ń", "175": "®", "176": "¯", "177": "°", "178": "±", "179": "²", "180": "³", "181": "´", "182": "µ", "183": "¶", "184": "·", "185": "¸", "186": "¹", "187": "º", "188": "»", "189": "¼", "190": "½", "191": "¾", "192": "¿", "193": "À", "194": "Á", "195": "Â", "196": "Ã", "197": "Ä", "198": "Å", "199": "Æ", "200": "Ç", "201": "È", "202": "É", "203": "Ê", "204": "Ë", "205": "Ì", "206": "Í", "207": "Î", "208": "Ï", "209": "Ð", "210": "Ñ", "211": "Ò", "212": "Ó", "213": "Ô", "214": "Õ", "215": "Ö", "216": "×", "217": "Ø", "218": "Ù", "219": "Ú", "220": "Û", "221": "Ü", "222": "Ý", "223": "Þ", "224": "ß", "225": "à", "226": "á", "227": "â", "228": "ã", "229": "ä", "230": "å", "231": "æ", "232": "ç", "233": "è", "234": "é", "235": "ê", "236": "ë", "237": "ì", "238": "í", "239": "î", "240": "ï", "241": "ð", "242": "ñ", "243": "ò", "244": "ó", "245": "ô", "246": "õ", "247": "ö", "248": "÷", "249": "ø", "250": "ù", "251": "ú", "252": "û", "253": "ü", "254": "ý", "255": "þ", "256": "ÿ", "0": "<|endoftext|>", "257": "Ġt", "258": "he", "259": "Ġa", "260": "Ġs", "261": "Ġw", "262": "nd", "263": "Ġthe", "264": "ed", "265": "Ġb", "266": "Ġto", "267": "Ġand", "268": "Ġh", "269": "Ġf", "270": "in", "271": "ĠT", "272": "Ġwa", "273": "re", "274": "it", "275": "ou", "276": "Ġl", "277": "Ġd", "278": "Ġc", "279": "Ġp", "280": "ay", "281": "Ġm", "282": "er", "283": "Ġwas", "284": "om", "285": "ĠThe", "286": "Ġhe", "287": "is", "288": "ar", "289": "Ġn", "290": "im", "291": "on", "292": "Ġsa", "293": "id", "294": "ll", "295": "Ġha", "296": "Ġg", "297": "at", "298": "ĠS", "299": "ing", "300": "ot", "301": "en", "302": "an", "303": "le", "304": "or", "305": "ir", "306": "am", "307": "et", "308": "ĠH", "309": "Ġit", "310": "Ġth", "311": "ig", "312": "ĠThey", "313": "Ġin", "314": "il", "315": "Ġpl", "316": "ĠHe", "317": "Ġ\"", "318": "ow", "319": "ver", "320": "ri", "321": "ut", "322": "Ġbe", "323": "Ġu", "324": "Ġsaid", "325": "Ġplay", "326": "ith", "327": "Ġday", "328": "Ġwith", "329": "pp", "330": "On", "331": "Ġo", "332": "Ġy", "333": "oo", "334": "ked", "335": "Ġr", "336": "Ġher", "337": "ce", "338": "ĠI", "339": "ĠShe", "340": "ld", "341": "ĠTim", "342": "Ġhis", "343": "Ġst", "344": "ke", "345": "Ġe", "346": "Ġbig", "347": "nt", "348": "ck", "349": "Ġyou", "350": "very", "351": "st", "352": "ve", "353": "end", "354": "Ġon", "355": "un", "356": "Ġhapp", "357": "riend", "358": "Ġfriend", "359": "all", "360": "ily", "361": "ĠL", "362": "Ġthey", "363": "Ġwe", "364": "Ġhad", "365": "Ġnot", "366": "Ġli", "367": "Ġup", "368": "her", "369": "Ġwant", "370": "Ġof", "371": "ad", "372": "itt", "373": "se", "374": "ĠB", "375": "Ġdo", "376": "Ġhappy", "377": "ent", "378": "Ġvery", "379": "ĠM", "380": "es", "381": "Ġthat", "382": "Ġsaw", "383": "One", "384": "'s", "385": "ould", "386": "Ġmom", "387": "Ġfor", "388": "Ġsh", "389": "ittle", "390": "Ġlittle", "391": "Ġso", "392": "Ġshe", "393": "ch", "394": "ime", "395": "Ġne", "396": "Ġnam", "397": ".\"", "398": "Ġtime", "399": "Ġk", "400": "ound", "401": "Ġthere", "402": "Ġnamed", "403": "Ġsm", "404": "Ġbo", "405": "Ġwere", "406": "ĠLily", "407": "Ġwanted", "408": "Ġbut", "409": "out", "410": "The", "411": "Ġfriends", "412": "ved", "413": "!\"", "414": "ht", "415": "ĠTom", "416": "ird", "417": "el", "418": "Ġbird", "419": "al", "420": "Ġan", "421": "ake", "422": "Ġtoo", "423": "ome", "424": "ĠIt", "425": "ug", "426": "ide", "427": "Ġwent", "428": "Ġwh", "429": "Ġhel", "430": "Once", "431": "Ġis", "432": "Ġall", "433": "Ġhelp", "434": "ue", "435": "Ġloo", "436": "Ġlo", "437": "ter", "438": "ĠA", "439": "Ġupon", "440": "ry", "441": "ore", "442": "ind", "443": "Ġfun", "444": "get", "445": "Ġtoy", "446": "ill", "447": "ame", "448": "Ġas", "449": "Ġat", "450": "ra", "451": "Ġj", "452": "Ġdid", "453": "gether", "454": "Ġre", "455": "ur", "456": "Ġse", "457": "Ġtogether", "458": "ack", "459": "Ġcat", "460": "ly", "461": "Ġtre", "462": "ood", "463": "ic", "464": "ted", "465": "Ġdog", "466": "Ġcould", "467": "Ġcan", "468": "Ġtheir", "469": "ard", "470": "ec", "471": "ark", "472": "Ġgir", "473": "Ġplayed", "474": "Ġhim", "475": "Ġball", "476": "?\"", "477": "Ġgirl", "478": "way", "479": "Ġro", "480": "Ġgo", "481": "hed", "482": "my", "483": "Ġare", "484": "Ġout", "485": "Ġle", "486": "Ġfr", "487": "ain", "488": "Ġkn", "489": "hen", "490": "Ġthem", "491": "um", "492": "'t", "493": "ax", "494": "Ġsad", "495": "ul", "496": "Ġboy", "497": "Ġtree", "498": "other", "499": "Ġhave", "500": "Ġman", "501": "Ġcl", "502": "Ġloved", "503": "Ġlooked", "504": "oug", "505": "Ġfound", "506": "Ġsp", "507": "Ġstar", "508": "ĠSue", "509": "one", "510": "hing", "511": "Ġsc", "512": "Ġback", "513": "own", "514": "ĠMax", "515": "are", "516": "Ġlike", "517": "ful", "518": "side", "519": "Ġme", "520": "Ġbec", "521": "Ġpark", "522": "ight", "523": "ong", "524": "Ġcar", "525": "op", "526": "elt", "527": "ĠOne", "528": "Ġliked", "529": "Ġwould", "530": "Ġmake", "531": "round", "532": "Ġla", "533": "Ġfa", "534": "Ġfelt", "535": "You", "536": "ĠW", "537": "ell", "538": "Ġsee", "539": "ĠBut", "540": "omet", "541": "Ġasked", "542": "ag", "543": "Ġnew", "544": "Ġno", "545": "ice", "546": "ĠSam", "547": "ouse", "548": "Ġstarted", "549": "ared", "550": "Ġcame", "551": "ĠBen", "552": "Ġal", "553": "Ġother", "554": "ought", "555": "iled", "556": "Ġsomet", "557": "Ġag", "558": "Ġgood", "559": "Ġsmall", "560": "ss", "561": "Ġbr", "562": "Ġsmiled", "563": "Ġsay", "564": "ried", "565": "ade", "566": "ings", "567": "ob", "568": "pot", "569": "Ġwor", "570": "Ġfind", "571": "Ġex", "572": "ia", "573": "Ġaway", "574": "ty", "575": "Ġput", "576": "Ġwhat", "577": "Ġsomething", "578": "Ġco", "579": "Ġfrom", "580": "Ġmade", "581": "Ġthought", "582": "ened", "583": "Ġhome", "584": "Ġplaying", "585": "ook", "586": "Ġevery", "587": "Ġwal", "588": "Ġmu", "589": "uc", "590": "ach", "591": "arn", "592": "ĠSpot", "593": "Ġran", "594": "ile", "595": "ĠF", "596": "ie", "597": "ĠJ", "598": "ave", "599": "Ġagain", "600": "Ġsome", "601": "Ġlaug", "602": "dd", "603": "Ġhouse", "604": "Ġdown", "605": "Ġfl", "606": "king", "607": "Ġtook", "608": "Ġscared", "609": "Ġpr", "610": "ny", "611": "ure", "612": "Ġtoys", "613": "Ġlearn", "614": "ĠYou", "615": "if", "616": "Ġwill", "617": "Ġbox", "618": "ick", "619": "ret", "620": "ab", "621": "ep", "622": "Ġmy", "623": "Ġaround", "624": "Ġthings", "625": "Ġyour", "626": "oud", "627": "Ġbl", "628": "uck", "629": "Ġwhen", "630": "ish", "631": "Ġlived", "632": "Ġfe", "633": "Ġthen", "634": "Ġsun", "635": "as", "636": "Ġsw", "637": ",\"", "638": "Ġch", "639": "us", "640": "pped", "641": "Ġab", "642": "ĠMia", "643": "ank", "644": "Ġget", "645": "ucy", "646": "Tim", "647": "ump", "648": "Th", "649": "Ġlot", "650": "ist", "651": "oth", "652": "Ġtried", "653": "ap", "654": "Ġknow", "655": "Ġsays", "656": "Ġgot", "657": "ited", "658": "Ġwho", "659": "Ġkne", "660": "ust", "661": "Ġmany", "662": "nder", "663": "Ġint", "664": "Ġabout", "665": "Lily", "666": "Ġpret", "667": "Ġdec", "668": "Ġany", "669": "Ġred", "670": "ĠD", "671": "ive", "672": "Ġknew", "673": "ace", "674": "ous", "675": "Ġmore", "676": "ise", "677": "Ġcare", "678": "ally", "679": "Ġpic", "680": "au", "681": "qu", "682": "Ġhug", "683": "ĠLucy", "684": "Ġlearned", "685": "Ġpo", "686": "Ġwater", "687": "fter", "688": "Ġv", "689": "Ġbecame", "690": "Ġbest", "691": "ause", "692": "Ġop", "693": "Ġgre", "694": "Ġexc", "695": "urp", "696": "ways", "697": "âĢ", "698": "Ġoutside", "699": "Ġlaughed", "700": "Ġlook", "701": "Ġalways", "702": "Ġdecid", "703": "Ġshow", "704": "Ġun", "705": "ant", "706": "ĠBob", "707": "Ġroom", "708": "fe", "709": "Ġdecided", "710": "Ġho", "711": "Ġbecause", "712": "ĠSo", "713": "Ġinto", "714": "Ġeat", "715": "ite", "716": "Ġjump", "717": "ĠAnd", "718": "Ġpe", "719": "Ġboth", "720": "ers", "721": "ĠMom", "722": "Ġdad", "723": "They", "724": "udd", "725": "Ġke", "726": "Ġone", "727": "nn", "728": "Ġthis", "729": "Ġexcited", "730": "Ġfast", "731": "Ġnice", "732": "ĠE", "733": "Ġfeel", "734": "Tom", "735": "Yes", "736": "Ġrun", "737": "Ġlong", "738": "Ġtold", "739": "Ġsk", "740": "Ġam", "741": "urpr", "742": "our", "743": "Ġinside", "744": "ull", "745": "Ġtr", "746": "Ġsurpr", "747": "Ġmo", "748": "ink", "749": "Ġpretty", "750": "iny", "751": "Ġsor", "752": "Wh", "753": "Ġtake", "754": "og", "755": "Ġsl", "756": "Ġeach", "757": "Ġgave", "758": "Ġmuch", "759": "Ġgra", "760": "lew", "761": "nna", "762": "Ġrock", "763": "Ġhow", "764": "Ġstr", "765": "ara", "766": "imal", "767": "Ġanimal", "768": "ged", "769": "Ġneed", "770": "Ġthan", "771": "But", "772": "ven", "773": "etter", "774": "Ġtow", "775": "Ġor", "776": "ĠC", "777": "Ġunder", "778": "ess", "779": "Ġold", "780": "Ġsorry", "781": "ge", "782": "ised", "783": "ro", "784": "urt", "785": "Ġcle", "786": "Ġfish", "787": "Ġwalked", "788": "Ġclo", "789": "and", "790": "Ġbear", "791": "ft", "792": "ase", "793": "ast", "794": "Ġhand", "795": "urn", "796": "ĠWe", "797": "Ġkind", "798": "ĠHis", "799": "Ġte", "800": "here", "801": "Ġhappened", "802": "Ġjust", "803": "Ġflow", "804": "Ġfood", "805": "Ġlist", "806": "Ġdidn", "807": "Ġanimals", "808": "Ġhig", "809": "pl", "810": "Ġnear", "811": "Ġwat", "812": "Ġide", "813": "Ġtry", "814": "ched", "815": "Ġsky", "816": "ine", "817": "Ġsn", "818": "ving", "819": "Ġfi", "820": "rom", "821": "Ġus", "822": "Ġidea", "823": "Ġbetter", "824": "ĠAmy", "825": "Ġbug", "826": "Ġheard", "827": "gry", "828": "Ġits", "829": "Ġtw", "830": "Ġlet", "831": "pec", "832": "ate", "833": "able", "834": "ff", "835": "Ġen", "836": "Ġcareful", "837": "Ġshare", "838": "ex", "839": "Ġif", "840": "Thank", "841": "Mom", "842": "Ġfly", "843": "Ġstor", "844": "ial", "845": "Ġflew", "846": "more", "847": "Ġanymore", "848": "ĠTh", "849": "Ġspec", "850": "Ġspecial", "851": "ion", "852": "Ġcom", "853": "Ġlots", "854": "Ġnever", "855": "Ġby", "856": "lf", "857": "ream", "858": "Ġdan", "859": "Ġbu", "860": "Ġfo", "861": "Ġwind", "862": "Ġdon", "863": "Ġtal", "864": "Ġclean", "865": "ort", "866": "Ġgr", "867": "Ġlove", "868": "rm", "869": "ber", "870": "Ġend", "871": "ĊĊ", "872": "ĠThen", "873": "ople", "874": "Ġeven", "875": "Ġmag", "876": "Ġhard", "877": "Ġshiny", "878": "udden", "879": "Ġfore", "880": "Ġover", "881": "Ġcake", "882": "ak", "883": "Ġbook", "884": "Ġcol", "885": "Ġturn", "886": "Ġfam", "887": "Ġbad", "888": "Ġsafe", "889": "Ġafter", "890": "ady", "891": "ĠAnna", "892": "uddenly", "893": "Ġpeople", "894": "Ġproud", "895": "ĠEvery", "896": "Ġsurprised", "897": "pected", "898": "Let", "899": "Ġhigh", "900": "Ġcu", "901": "Ġhurt", "902": "Ġcome", "903": "imb", "904": "arden", "905": "Ġdoor", "906": "Ġgarden", "907": "bb", "908": "Ġground", "909": "Ġopened", "910": "Ġpicked", "911": "Ġloud", "912": "Ġclimb", "913": "expected", "914": "Ġunexpected", "915": "Ġgl", "916": "Ġche", "917": "ild", "918": "Ġim", "919": "As", "920": "Ġgive", "921": "Ġway", "922": "ail", "923": "'m", "924": "Ġthanked", "925": "Ġcolor", "926": "Ġblue", "927": "Ġstill", "928": "Ġever", "929": "Ġhugged", "930": "ĠFrom", "931": "Ġcall", "932": "Ġfar", "933": "ip", "934": "ĠHer", "935": "ĠSara", "936": "ĠWhen", "937": "No", "938": "Ġoff", "939": "Ġmagic", "940": "iz", "941": "ough", "942": "age", "943": "ummy", "944": "ĠK", "945": "Ġjumped", "946": "Ġshould", "947": "Ġfamily", "948": "Ġpar", "949": "ool", "950": "Ġkid", "951": "Ġsmile", "952": "hes", "953": "uff", "954": "Ġplace", "955": "kay", "956": "Ġwalk", "957": "Ġnow", "958": "ct", "959": "ĠIn", "960": "Ġgreat", "961": "em", "962": "ture", "963": "Ġqu", "964": "les", "965": "Ġstrong", "966": "Ġstay", "967": "Ġunt", "968": "Ġsto", "969": "aut", "970": "Ġforest", "971": "ane", "972": "Ġbra", "973": "itty", "974": "ĠP", "975": "Ġfrog", "976": "Ġbro", "977": "Ġuntil", "978": "oon", "979": "Ġbeaut", "980": "dy", "981": "Ġsqu", "982": "Ġstick", "983": "xt", "984": "Ġnext", "985": "Ġboat", "986": "lease", "987": "ning", "988": "Ġhappily", "989": "Ġlisten", "990": "aking", "991": "Ġkids", "992": "Ġtra", "993": "ies", "994": "iful", "995": "Ġbeautiful", "996": "Ġapp", "997": "th", "998": "Ġhelped", "999": "Ġdra", "1000": "Ġshowed", "1001": "Ġclos", "1002": "be", "1003": "Ġimp", "1004": "Ġstory", "1005": "unny", "1006": "oy", "1007": "Ġwhile", "1008": "Ġtown", "1009": "rel", "1010": "pt", "1011": "Ġrain", "1012": "ress", "1013": "Ġpicture", "1014": "Ġbeing", "1015": "Ġrem", "1016": "Ġeveryone", "1017": "It", "1018": "ary", "1019": "ree", "1020": "Ġmor", "1021": "Ġhat", "1022": "Ġcalled", "1023": "Ġmet", "1024": "Ġstopped", "1025": "Ġad", "1026": "Ġgame", "1027": "Now", "1028": "He", "1029": "Can", "1030": "Ġangry", "1031": "ger", "1032": "uffy", "1033": "Ġopen", "1034": "Ġwo", "1035": "Ġtruck", "1036": "Ġkeep", "1037": "Ġsoft", "1038": "When", "1039": "Ġcry", "1040": "Ġyummy", "1041": "Ġlost", "1042": "Ġbed", "1043": "ĠLet", "1044": "ĠSally", "1045": "Ġwarm", "1046": "by", "1047": "vent", "1048": "Ġbrave", "1049": "Ġmouse", "1050": "ĠWh", "1051": "Ġate", "1052": "ĠKitty", "1053": "ished", "1054": "Ġde", "1055": "fore", "1056": "Ġdoll", "1057": "so", "1058": "Ġcouldn", "1059": "Ġwatch", "1060": "Ġleave", "1061": "Ġalso", "1062": "dded", "1063": "Ġfell", "1064": "Ġgreen", "1065": "Ġface", "1066": "Ġtwo", "1067": "gan", "1068": "iss", "1069": "Ġflowers", "1070": "bit", "1071": "What", "1072": "ĠR", "1073": "ble", "1074": "Ġnoise", "1075": "abbit", "1076": "irst", "1077": "owl", "1078": "Ġwhere", "1079": "az", "1080": "ock", "1081": "Ġsoon", "1082": "self", "1083": "Ġslide", "1084": "Ġrabbit", "1085": "Ġhole", "1086": "luffy", "1087": "Ġbefore", "1088": "irrel", "1089": "Ġpus", "1090": "ired", "1091": "Ġsat", "1092": "illy", "1093": "Ġhear", "1094": "Ġuse", "1095": "âĢĿ", "1096": "Hi", "1097": "Ġpa", "1098": "Ġkept", "1099": "âĢľ", "1100": "That", "1101": "Ġsquirrel", "1102": "ear", "1103": "Then", "1104": "ma", "1105": "Ġnodded", "1106": "Ġexpl", "1107": "Ġstore", "1108": "Ġcook", "1109": "Ġhands", "1110": "Look", "1111": "Ġbirds", "1112": "Ġpain", "1113": "Ġgoing", "1114": "Ġfunny", "1115": "Ġhaving", "1116": "day", "1117": "Ġsing", "1118": "aybe", "1119": "uch", "1120": "Ġey", "1121": "aug", "1122": "Ġcatch", "1123": "aught", "1124": "ĠCan", "1125": "ĠFluffy", "1126": "uit", "1127": "Ġyell", "1128": "Ġthink", "1129": "leep", "1130": "Ġcra", "1131": "Ġfin", "1132": "Ben", "1133": "Ġbre", "1134": "Ġfix", "1135": "Ġtired", "1136": "Ġbunny", "1137": "Ġused", "1138": "Ġlooking", "1139": "Ġbus", "1140": "ange", "1141": "air", "1142": "Ġwork", "1143": "Ġwr", "1144": "Ġour", "1145": "Ġpull", "1146": "We", "1147": "Ġthr", "1148": "thing", "1149": "ĠNow", "1150": "Ġwait", "1151": "Ġkit", "1152": "Ġsound", "1153": "ting", "1154": "Ġjo", "1155": "Ġhas", "1156": "ĠG", "1157": "Ġmean", "1158": "Ġpond", "1159": "ember", "1160": "Ġbeh", "1161": "Ġdr", "1162": "Ġsunny", "1163": "led", "1164": "Ġothers", "1165": "Ġask", "1166": "ng", "1167": "chen", "1168": "Ġkitchen", "1169": "Ġtalk", "1170": "Ġflo", "1171": "Ġdif", "1172": "rew", "1173": "Ġpie", "1174": "ĠJo", "1175": "Ġhead", "1176": "Ġreal", "1177": "Ġfirst", "1178": "Ġtri", "1179": "Ġmommy", "1180": "Ġeyes", "1181": "ello", "1182": "Ġimport", "1183": "Hello", "1184": "Ġfav", "1185": "ath", "1186": "joy", "1187": "Ġz", "1188": "Ġremember", "1189": "Ġright", "1190": "Ġflower", "1191": "Ġcon", "1192": "Ġmess", "1193": "Ġparty", "1194": "Ġcold", "1195": "ĠDo", "1196": "Ġvo", "1197": "Ġswe", "1198": "ious", "1199": "Ġsand", "1200": "ĠâĢľ", "1201": "ac", "1202": "orn", "1203": "Ġrace", "1204": "Ġcuri", "1205": "imes", "1206": "Ġimportant", "1207": "Ġduck", "1208": "Ġmoral", "1209": "Ġshared", "1210": "zy", "1211": "ount", "1212": "ĠJack", "1213": "Ġice", "1214": "Ġokay", "1215": "Ġadvent", "1216": "Ġworked", "1217": "llow", "1218": "At", "1219": "Ġenjoy", "1220": "Ġdress", "1221": "Ġbright", "1222": "Ġmaking", "1223": "Ġcurious", "1224": "Ġown", "1225": "Ġtall", "1226": "Ġdir", "1227": "Ġhop", "1228": "reed", "1229": "Ġhid", "1230": "Ġfavor", "1231": "Ġri", "1232": "hn", "1233": "Ġsleep", "1234": "Ġdis", "1235": "Wow", "1236": "Ġfavorite", "1237": "Ġthing", "1238": "Ġbegan", "1239": "Ġmon", "1240": "Ġbag", "1241": "Ġhill", "1242": "Don", "1243": "Ġcla", "1244": "Ġdraw", "1245": "Ġrest", "1246": "Ġhere", "1247": "Ġyard", "1248": "Ġtell", "1249": "ĠFin", "1250": "ster", "1251": "Ġwatched", "1252": "que", "1253": "Ġfollow", "1254": "Ġmove", "1255": "Ġbel", "1256": "ect", "1257": "Ġcut", "1258": "Ġnight", "1259": "Ġagreed", "1260": "Ġpick", "1261": "co", "1262": "Ġblock", "1263": "Ġhun", "1264": "aper", "1265": "lly", "1266": "Ġstop", "1267": "Ġbehind", "1268": "ĠThis", "1269": "Ġsurprise", "1270": "ied", "1271": "Ġsho", "1272": "Ġhot", "1273": "After", "1274": "Ġtable", "1275": "Ġgrass", "1276": "Ġworry", "1277": "Ġdark", "1278": "Ġtrees", "1279": "Ġvoice", "1280": "Ġwalking", "1281": "fere", "1282": "Ġfloor", "1283": "Ġfarm", "1284": "Ġlion", "1285": "Ġtop", "1286": "Ġdiffere", "1287": "Ġplease", "1288": "Ġru", "1289": "Ġsong", "1290": "Ġbutter", "1291": "Ġtail", "1292": "Ġsweet", "1293": "Max", "1294": "Ġshout", "1295": "Ġcolors", "1296": "Ġread", "1297": "ĠDad", "1298": "Ġlady", "1299": "Ġforg", "1300": "isy", "1301": "Ġleaves", "1302": "Ġcloser", "1303": "ign", "1304": "Ġcars", "1305": "Ġturned", "1306": "Ġneeded", "1307": "Ġtast", "1308": "Why", "1309": "aring", "1310": "Ġwood", "1311": "Ġcried", "1312": "Ġdifferent", "1313": "Ġlaugh", "1314": "Ġdel", "1315": "Ġpiece", "1316": "âĢĻ", "1317": "ered", "1318": "ĠMr", "1319": "Ġroll", "1320": "Ġadventure", "1321": "Ġfire", "1322": "Ġdoes", "1323": "ike", "1324": "Ġcr", "1325": "Ġhungry", "1326": "Ġhair", "1327": "ĠSuddenly", "1328": "Ġpaper", "1329": "Ġfeeling", "1330": "Ġyellow", "1331": "Ġfull", "1332": "bo", "1333": "Ġprin", "1334": "Sue", "1335": "Ġtouch", "1336": "ĠAs", "1337": "Anna", "1338": "Sam", "1339": "Ġwet", "1340": "Ġfriendly", "1341": "Ġper", "1342": "oom", "1343": "ken", "1344": "cked", "1345": "ached", "1346": "Ġswing", "1347": "Ġfruit", "1348": "ient", "1349": "Ġbroken", "1350": "Ġready", "1351": "bye", "1352": "ppy", "1353": "Ġprom", "1354": "ĠThat", "1355": "Ġanother", "1356": "Ġlight", "1357": "Ġpretend", "1358": "Ġdance", "1359": "ater", "1360": "Ġclimbed", "1361": "where", "1362": "Ġlistened", "1363": "ĠBobo", "1364": "Ġdanc", "1365": "Ġrunning", "1366": "Ġonly", "1367": "Ġplan", "1368": "Ġgone", "1369": "Ġswim", "1370": "bbed", "1371": "Suddenly", "1372": "sh", "1373": "Ġtrain", "1374": "ila", "1375": "ndma", "1376": "Sara", "1377": "ĠJane", "1378": "Ġclose", "1379": "av", "1380": "She", "1381": "Ġsmell", "1382": "So", "1383": "aby", "1384": "Ġamaz", "1385": "Ġhold", "1386": "Ġblocks", "1387": "Ġwonder", "1388": "ĠTimmy", "1389": "Ġrepl", "1390": "ĠAll", "1391": "Ġbutterf", "1392": "Ġsees", "1393": "Ġreached", "1394": "Ġwall", "1395": "Ġpu", "1396": "oney", "1397": "red", "1398": "Ġslow", "1399": "Ġhelping", "1400": "Ġdri", "1401": "Ġcream", "1402": "Ġcool", "1403": "Ġglad", "1404": "af", "1405": "Ġant", "1406": "Ġless", "1407": "Ġbeen", "1408": "Ġgoodbye", "1409": "Ġac", "1410": "Ġfight", "1411": "ather", "1412": "Mia", "1413": "Ġpushed", "1414": "iced", "1415": "Ġfair", "1416": "Ġmust", "1417": "Ġhide", "1418": "Ġmoment", "1419": "Ġwindow", "1420": "ĠO", "1421": "Ġsit", "1422": "Ġballoon", "1423": "Ġsnow", "1424": "Ġchild", "1425": "Ġexplore", "1426": "ĠEveryone", "1427": "Ġar", "1428": "Ġwished", "1429": "Ġbaby", "1430": "Ġdone", "1431": "Ġwag", "1432": "Ġste", "1433": "Ġbuy", "1434": "Ġstuck", "1435": "Ġperf", "1436": "Ġthank", "1437": "Ġmight", "1438": "icy", "1439": "Ġname", "1440": "ized", "1441": "Ġtrying", "1442": "Ġbit", "1443": "Ġcoming", "1444": "Ġbar", "1445": "Ġquick", "1446": "Ġfall", "1447": "Ġapple", "1448": "ash", "1449": "Ġscary", "1450": "Ġlooks", "1451": "Ġbuild", "1452": "Ġdoing", "1453": "Ġwin", "1454": "Ġunderst", "1455": "aisy", "1456": "Ġdin", "1457": "Ġdream", "1458": "Ġdirty", "1459": "Ġheld", "1460": "ames", "1461": "Ġbooks", "1462": "Ġmar", "1463": "In", "1464": "Ġbutterfly", "1465": "Ġleft", "1466": "Ġshouted", "1467": "Ġcount", "1468": "Ġreplied", "1469": "avy", "1470": "Ġreach", "1471": "Ġtiny", "1472": "Ġthrough", "1473": "ott", "1474": "Ġdro", "1475": "Ġwhy", "1476": "Ġair", "1477": "Ġbran", "1478": "Ġland", "1479": "key", "1480": "Ġthree", "1481": "Ġpulled", "1482": "Ġspl", "1483": "Ġgrow", "1484": "Ġtreat", "1485": "Ġbrother", "1486": "Ġwise", "1487": "Ġwoods", "1488": "Ġsure", "1489": "'re", "1490": "Ġchair", "1491": "ix", "1492": "Ġmat", "1493": "ins", "1494": "Ġseen", "1495": "Ġpink", "1496": "Ġclapped", "1497": "Ġplant", "1498": "ely", "1499": "Ġowl", "1500": "Ġcup", "1501": "ield", "1502": "Ġsometimes", "1503": "andy", "1504": "Ġfill", "1505": "Ġcloud", "1506": "ask", "1507": "Ġswam", "1508": "outh", "1509": "Ġjob", "1510": "Ġcolorful", "1511": "Ġremembered", "1512": "Ġbigger", "1513": "Ġnest", "1514": "Ġmouth", "1515": "pe", "1516": "Okay", "1517": "Ġlesson", "1518": "Ġjoin", "1519": "Ġcre", "1520": "ph", "1521": "ĠThere", "1522": "oup", "1523": "room", "1524": "art", "1525": "Ġwaved", "1526": "uddy", "1527": "Ġgrabbed", "1528": "Ġstayed", "1529": "Oh", "1530": "Ġpaint", "1531": "This", "1532": "Ġclot", "1533": "Ġcont", "1534": "Ġclothes", "1535": "Ġve", "1536": "ower", "1537": "ĠAfter", "1538": "Ġwaited", "1539": "Ġquickly", "1540": "cle", "1541": "Ġword", "1542": "Ġbroke", "1543": "ucky", "1544": "Ġgames", "1545": "Ġcast", "1546": "Ġblew", "1547": "Ġgent", "1548": "ĠMommy", "1549": "Ġenjoyed", "1550": "Ġnoticed", "1551": "Jo", "1552": "ries", "1553": "ation", "1554": "Ġset", "1555": "Ġlikes", "1556": "Ġpictures", "1557": "ton", "1558": "de", "1559": "Ġsea", "1560": "Ġheavy", "1561": "Ġmus", "1562": "Ġalone", "1563": "Ġgif", "1564": "asure", "1565": "Ġanything", "1566": "Ġspot", "1567": "Ġmiss", "1568": "Ġhopped", "1569": "Ġworld", "1570": "Ġturns", "1571": "orm", "1572": "Ġyear", "1573": "der", "1574": "Ġbott", "1575": "Ġpat", "1576": "Ġpot", "1577": "Ġpen", "1578": "lc", "1579": "Her", "1580": "Ġmix", "1581": "Ġarm", "1582": "Ġbike", "1583": "Ġtight", "1584": "Ġeverywhere", "1585": "Ġwon", "1586": "Lucy", "1587": "Ġtower", "1588": "Ġthrew", "1589": "Ġhimself", "1590": "Ġfollowed", "1591": "ĠBuddy", "1592": "Ġride", "1593": "man", "1594": "less", "1595": "Ġju", "1596": "Ġje", "1597": "amp", "1598": "Bob", "1599": "ape", "1600": "Ġcomp", "1601": "Ġkey", "1602": "row", "1603": "\".", "1604": "Ġwhite", "1605": "ctor", "1606": "Ġwrong", "1607": "ĠDaisy", "1608": "Ġmakes", "1609": "ĠWhat", "1610": "Ġbreak", "1611": "Ġblack", "1612": "arent", "1613": "ee", "1614": "ner", "1615": "Spot", "1616": "Do", "1617": "Ġdeep", "1618": "thy", "1619": "Ġmusic", "1620": "Ġpol", "1621": "Ġdelic", "1622": "cess", "1623": "ued", "1624": "Ġforgot", "1625": "Ġbee", "1626": "Ġparent", "1627": "Ġcastle", "1628": "ves", "1629": "olly", "1630": "Ġem", "1631": "iet", "1632": "Ġwear", "1633": "Ġhit", "1634": "ister", "1635": "oun", "1636": "Ġquiet", "1637": "Ġround", "1638": "ance", "1639": "Ġstu", "1640": "Ġdanced", "1641": "Ġvis", "1642": "ully", "1643": "Ġwants", "1644": "Ġleaf", "1645": "Ġmonster", "1646": "Ġnap", "1647": "ĠJohn", "1648": "Ġunderstand", "1649": "ang", "1650": "Ġbowl", "1651": "os", "1652": "rot", "1653": "ren", "1654": "Ġbor", "1655": "Ġtalked", "1656": "itten", "1657": "Ġdry", "1658": "Ġfaster", "1659": "Ġcookies", "1660": "Ġbrought", "1661": "fully", "1662": "Ġleg", "1663": "ross", "1664": "Ġmum", "1665": "zz", "1666": "Ġside", "1667": "ts", "1668": "From", "1669": "Ġsign", "1670": "ĠInside", "1671": "Ġsmart", "1672": "cy", "1673": "Ġrocks", "1674": "Ġsomeone", "1675": "His", "1676": "Ġpoin", "1677": "Ġsec", "1678": "Ġsharing", "1679": "Ġfox", "1680": "Ġwell", "1681": "Ġres", "1682": "Ġrel", "1683": "Ġhappen", "1684": "Ġbutton", "1685": "Ġbranch", "1686": "ĠLila", "1687": "Ġreally", "1688": "Ġfinished", "1689": "ence", "1690": "ards", "1691": "Ġdinner", "1692": "Ġsister", "1693": "Ġflying", "1694": "eddy", "1695": "Ġcontin", "1696": "Ġworried", "1697": "Ġele", "1698": "ĠTo", "1699": "Ġvisit", "1700": "ĠMaybe", "1701": "Ġbeach", "1702": "Ġque", "1703": "Ġsecret", "1704": "Ġel", "1705": "ĠSarah", "1706": "Ġking", "1707": "John", "1708": "gy", "1709": "Ġtoday", "1710": "Ġperfect", "1711": "Ġriver", "1712": "Ġeverything", "1713": "Ġsilly", "1714": "Ġshin", "1715": "ĠJoe", "1716": "Ġdanger", "1717": "ipp", "1718": "Ġchildren", "1719": "Ġgu", "1720": "ĠSoon", "1721": "Ġfield", "1722": "Ġfilled", "1723": "Ġfur", "1724": "Ġelse", "1725": "Ġsmiles", "1726": "Ġwelc", "1727": "ĠAt", "1728": "Ġwish", "1729": "ĠEm", "1730": "While", "1731": "Ġsang", "1732": "Ġgi", "1733": "ze", "1734": "Ġpudd", "1735": "Ġsnack", "1736": "Ġeating", "1737": "Ġrealized", "1738": "Ġpieces", "1739": "Ġpromised", "1740": "ord", "1741": "Ġspr", "1742": "Ġpig", "1743": "Ġfree", "1744": "Ġcontinued", "1745": "Ġbite", "1746": "ead", "1747": "Ġparents", "1748": "Ġcarefully", "1749": "ated", "1750": "itting", "1751": "Ġear", "1752": "Just", "1753": "Ġjar", "1754": "Maybe", "1755": "Ġcow", "1756": "Amy", "1757": "Ġblank", "1758": "Ġdrag", "1759": "stead", "1760": "Ġorange", "1761": "Ġmud", "1762": "Ġcrying", "1763": "Ġblanket", "1764": "Ġenough", "1765": "Ġrolled", "1766": "cket", "1767": "Ġsoup", "1768": "Ġsail", "1769": "Ġpurp", "1770": "imi", "1771": "Ġyes", "1772": "ale", "1773": "Ġdrink", "1774": "Ġsnake", "1775": "ses", "1776": "Ġboun", "1777": "Ġpet", "1778": "Ġcrab", "1779": "Ġthrow", "1780": "Ġlaughing", "1781": "Ġfairy", "1782": "Ġwords", "1783": "Ġamazing", "1784": "Ġbath", "1785": "ich", "1786": "Ġpurple", "1787": "ĠZ", "1788": "Ġwithout", "1789": "ire", "1790": "Ġbottle", "1791": "ĠBilly", "1792": "Ġgift", "1793": "Ġgrandma", "1794": "Fin", "1795": "used", "1796": "ons", "1797": "Ġpast", "1798": "Ġmoney", "1799": "iver", "1800": "fort", "1801": "Ġmail", "1802": "ĠGra", "1803": "Ġbarked", "1804": "Ġwagged", "1805": "Ġatt", "1806": "chool", "1807": "Ġmonkey", "1808": "Ġdoctor", "1809": "unch", "1810": "Ġbrown", "1811": "Ġmoved", "1812": "ises", "1813": "Ġasks", "1814": "Ġgetting", "1815": "Ġclosed", "1816": "Ġwhe", "1817": "Ġwelcome", "1818": "Ġsu", "1819": "Ġcandy", "1820": "Ġschool", "1821": "Ġmorning", "1822": "Ġowner", "1823": "gg", "1824": "Ġlon", "1825": "Ġmother", "1826": "Ġhigher", "1827": "Ġsitting", "1828": "Ġtreasure", "1829": ".âĢĿ", "1830": "Ġsmo", "1831": "!âĢĿ", "1832": "Ġdangerous", "1833": "Ġlonely", "1834": "ĠCh", "1835": "Ġliving", "1836": "Ġapples", "1837": "ush", "1838": "Ġshop", "1839": "ased", "1840": "Ġstrange", "1841": "vel", "1842": "Ġshining", "1843": "Ġroad", "1844": "ere", "1845": "ĠTommy", "1846": "Ġcreat", "1847": "una", "1848": "Ġpaw", "1849": "Ġra", "1850": "ey", "1851": "Ġshoes", "1852": "Ġpre", "1853": "ible", "1854": "Ġ-", "1855": "Ġstre", "1856": "Ġtalking", "1857": "althy", "1858": "Ġcaught", "1859": "Ġegg", "1860": "ol", "1861": "Ġpass", "1862": "me", "1863": "Ġlake", "1864": "Ġruns", "1865": "Ġbuck", "1866": "Ġletter", "1867": "Ġwings", "1868": "Ġchee", "1869": "fish", "1870": "Ġmad", "1871": "Ġfan", "1872": "asket", "1873": "Ġbasket", "1874": "ass", "1875": "Ġdragon", "1876": "app", "1877": "Mommy", "1878": "set", "1879": "cks", "1880": "Ġstone", "1881": "Ġthinks", "1882": "Ġstand", "1883": "Ġdelicious", "1884": "Ġnose", "1885": "Ġpuddle", "1886": "Ġtom", "1887": "ĠBl", "1888": "ĠMimi", "1889": "Ġbelie", "1890": "Ġfarmer", "1891": "Ġsame", "1892": "Ġyears", "1893": "board", "1894": "Ġteddy", "1895": "Ġbat", "1896": "isk", "1897": "itch", "1898": "Ġmine", "1899": "Ġsear", "1900": "Ġcoat", "1901": "ches", "1902": "igh", "1903": "Ġdays", "1904": "Ġbring", "1905": "Ġgentle", "1906": "Ġfit", "1907": "Ġstart", "1908": "Ġfinally", "1909": "Ġwhist", "1910": "Ġcray", "1911": "igg", "1912": "Ġscream", "1913": "Ġkite", "1914": "Ġpill", "1915": "phant", "1916": "arm", "1917": "Ġvill", "1918": "Ġcho", "1919": "Ġsinging", "1920": "ella", "1921": "sw", "1922": "ined", "1923": "Ġtasty", "1924": "Ġph", "1925": "Ġben", "1926": "Ġtrou", "1927": "Ġshell", "1928": "Ġherself", "1929": "Ġhoped", "1930": "Ġansw", "1931": "Ġwore", "1932": "Ġswings", "1933": "sy", "1934": "Ġhor", "1935": "Ġbelong", "1936": "Please", "1937": "Ġpush", "1938": "Ġbush", "1939": "iskers", "1940": "Ġcarrot", "1941": "Ġarri", "1942": "aughty", "1943": "Ġteach", "1944": "bow", "1945": "ract", "1946": "Ġnaughty", "1947": "Ġelephant", "1948": "Ġdropped", "1949": "Ġshap", "1950": "ier", "1951": "Ġcoll", "1952": "sc", "1953": "Ġteac", "1954": "emy", "1955": "Ġwoke", "1956": "ball", "1957": "Ġpile", "1958": "Ġhiding", "1959": "Ġcour", "1960": "isa", "1961": "erry", "1962": "Ġtouc", "1963": "Ġmin", "1964": "Ġpuppy", "1965": "'ll", "1966": "Ġseem", "1967": "llie", "1968": "Ġtwins", "1969": "ama", "1970": "Ġlunch", "1971": "Ġbow", "1972": "Ġsack", "1973": "Ġpers", "1974": "Ġcourse", "1975": "Ġcheered", "1976": "Ġshapes", "1977": "ĠJen", "1978": "Ġgrew", "1979": "fused", "1980": "Ġrope", "1981": "Ġvillage", "1982": "irth", "1983": "irthday", "1984": "Ġjuice", "1985": "ipped", "1986": "Ġrainbow", "1987": "Ġspin", "1988": "OK", "1989": "Ġshook", "1990": "Jack", "1991": "Ġspoon", "1992": "Ġbench", "1993": "Ġstreet", "1994": "Ġfence", "1995": "Ġcute", "1996": "ĠFred", "1997": "Ġrob", "1998": "Ġnut", "1999": "Ġcheese", "2000": "Ġprob", "2001": "Ġtouched", "2002": "idge", "2003": "col", "2004": "Ġjoy", "2005": "ĠWhiskers", "2006": "Ġarrived", "2007": "Ġseed", "2008": "Ġwar", "2009": "Ġteacher", "2010": "Ġcorn", "2011": "Good", "2012": "Ġforever", "2013": "Ġable", "2014": "Ġbell", "2015": "Ġfew", "2016": "Ġcarry", "2017": "Ġmost", "2018": "Ġplane", "2019": "ĠBlue", "2020": "lem", "2021": "Ġeas", "2022": "Ġsounds", "2023": "lla", "2024": "Ġdes", "2025": "Ġspo", "2026": "Ġproblem", "2027": "Ġbirthday", "2028": "Ġpower", "2029": "Ġinc", "2030": "umb", "2031": "br", "2032": "ĊĠ", "2033": "Ġbugs", "2034": "ilk", "2035": "Ġwonderful", "2036": "Ġdolls", "2037": "Ġbusy", "2038": "ato", "2039": "irp", "2040": "eb", "2041": "Ġwra", "2042": "Ġpromise", "2043": "ĠThank", "2044": "Ġfeels", "2045": "ian", "2046": "ĠEmma", "2047": "eter", "2048": "Ġbread", "2049": "Ġneck", "2050": "Finally", "2051": "Ġmilk", "2052": "Ġrobot", "2053": "Ġrec", "2054": "Ġshy", "2055": "ountain", "2056": "Ġkiss", "2057": "irt", "2058": "Ġheart", "2059": "Ġband", "2060": "Ġcave", "2061": "Ġpocket", "2062": "ub", "2063": "Ġhelpful", "2064": "gly", "2065": "Ġslowly", "2066": "Ġbelieve", "2067": "Ġshake", "2068": "umpy", "2069": "eared", "2070": "Ġpatient", "2071": "Ġpop", "2072": "Ġob", "2073": "arp", "2074": "Ġlive", "2075": "Ġstorm", "2076": "Ġholding", "2077": "Ġugly", "2078": "Ġtowards", "2079": "Ġupset", "2080": "Ġturt", "2081": "Ġshr", "2082": "adow", "2083": "Ġcover", "2084": "Ġkitten", "2085": "ost", "2086": "ĠRemy", "2087": "Ġsharp", "2088": "Ġdisapp", "2089": "Ġstories", "2090": "Ġsuc", "2091": "Ġhoney", "2092": "ove", "2093": "ĠBella", "2094": "read", "2095": "Ġnoises", "2096": "ĠLe", "2097": "Ġcir", "2098": "Ġballs", "2099": "Ġspark", "2100": "Ġgray", "2101": "Ġdist", "2102": "Ġdirt", "2103": "oggy", "2104": "Ġlate", "2105": "Ġdriver", "2106": "Ġseat", "2107": "Ġbucket", "2108": "Ġmeet", "2109": "Ġyoung", "2110": "Ġamazed", "2111": "Ġturtle", "2112": "alm", "2113": "Ġspid", "2114": "Ġtreats", "2115": "Ġmagical", "2116": "unt", "2117": "ator", "2118": "Ġglow", "2119": "Ġseek", "2120": "Ġzoom", "2121": "Ġlem", "2122": "Ġsandw", "2123": "fortable", "2124": "umber", "2125": "Ġtrip", "2126": "Ġmist", "2127": "ourn", "2128": "Ġsplas", "2129": "Ġmark", "2130": "Ġjourn", "2131": "Ġfold", "2132": "Ġmach", "2133": "Ġpuzz", "2134": "Ġpart", "2135": "ling", "2136": "Ġhorse", "2137": "Ġorgan", "2138": "Ġwild", "2139": "Ġprincess", "2140": "pping", "2141": "oose", "2142": "Ġcookie", "2143": "Sure", "2144": "ens", "2145": "Ġhugs", "2146": "ĠMark", "2147": "Ġtaking", "2148": "ung", "2149": "Ġwheel", "2150": "epend", "2151": "Ġcloth", "2152": "ĠLisa", "2153": "Ġsug", "2154": "Ġinstead", "2155": "Ġbubb", "2156": "Ġstring", "2157": "Ġnet", "2158": "Ġdrove", "2159": "iling", "2160": "Ġrude", "2161": "Ġhuge", "2162": "ĠJim", "2163": "Ġcoin", "2164": "Ġstars", "2165": "Ġfighting", "2166": "Be", "2167": "Ġspicy", "2168": "Ġlucky", "2169": "Of", "2170": "Ġcraw", "2171": "Hey", "2172": "Ġbone", "2173": "Ġinv", "2174": "ĠGrandma", "2175": "ors", "2176": "not", "2177": "Ġca", "2178": "pper", "2179": "Ġforget", "2180": "up", "2181": "Ġdi", "2182": "aur", "2183": "Ġsal", "2184": "ĠFinally", "2185": "Ġcannot", "2186": "Ġwhistle", "2187": "Ġcard", "2188": "Ġsick", "2189": "Ġpath", "2190": "Ġcou", "2191": "Ġspider", "2192": "Ġwide", "2193": "Lila", "2194": "Ġfoot", "2195": "Ġsnowman", "2196": "Ġsongs", "2197": "Ġlife", "2198": "Ġpillow", "2199": "ize", "2200": "ular", "2201": "ĠJust", "2202": "Later", "2203": "est", "2204": "ĠAnn", "2205": "ert", "2206": "Ġfixed", "2207": "Ġgiant", "2208": "oph", "2209": "rill", "2210": "Ġnod", "2211": "Ġboss", "2212": "Ġlast", "2213": "Ġcomes", "2214": "Ġjoke", "2215": "Ġmoon", "2216": "Ġtaste", "2217": "den", "2218": "Ġmachine", "2219": "Ġgrumpy", "2220": "Ġwave", "2221": "Ġthin", "2222": "Ġdrive", "2223": "Ġcart", "2224": "Ġash", "2225": "Ġser", "2226": "Ġgrab", "2227": "Ġpeace", "2228": "lower", "2229": "Ġdaddy", "2230": "ĠOn", "2231": "ĠLeo", "2232": "ery", "2233": "Ġsel", "2234": "Ġshelf", "2235": "Ġhidden", "2236": "erest", "2237": "Ġsuddenly", "2238": "Ġwasn", "2239": "Ġwrite", "2240": "Ġlanded", "2241": "Ġconfused", "2242": "Ġring", "2243": "Ġchange", "2244": "Ġworm", "2245": "Ġinterest", "2246": "Ġchased", "2247": "oop", "2248": "Ġfruits", "2249": "Ġsour", "2250": "ity", "2251": "Ġmyster", "2252": "Ġbark", "2253": "Ġrad", "2254": "Ġsmooth", "2255": "ĠCome", "2256": "Ġadventures", "2257": "Ġval", "2258": "Ġstepped", "2259": "Ġfle", "2260": "ope", "2261": "Ġoven", "2262": "Ġtakes", "2263": "Ġmissed", "2264": "Ġselfish", "2265": "kin", "2266": "Ġsheep", "2267": "Ġmessy", "2268": "To", "2269": "Ġacross", "2270": "Ġent", "2271": "Ġexp", "2272": "to", "2273": "Ġce", "2274": "Ġlater", "2275": "elly", "2276": "ĠN", "2277": "ife", "2278": "Ġsticks", "2279": "Ġtie", "2280": "St", "2281": "ever", "2282": "ĠLuna", "2283": "Ġstep", "2284": "Ġbought", "2285": "Ġdrew", "2286": "Ġtea", "2287": "pect", "2288": "Ġban", "2289": "irpy", "2290": "box", "2291": "?âĢĿ", "2292": "Ġwash", "2293": "Ġlay", "2294": "Ġpour", "2295": "Ġbeak", "2296": "ose", "2297": "Ġjog", "2298": "Ġgrate", "2299": "Ġducks", "2300": "Ġspe", "2301": "Ġlegs", "2302": "ugg", "2303": "Ġfil", "2304": "ĠBu", "2305": "Ġemp", "2306": "mer", "2307": "Ġhope", "2308": "Ġempty", "2309": "Ġslid", "2310": "Ġfeather", "2311": "Ġsleepy", "2312": "Ġdrum", "2313": "amed", "2314": "ars", "2315": "eth", "2316": "Ġzoo", "2317": "Ġpan", "2318": "Ġphone", "2319": "Ġgrateful", "2320": "Ġfing", "2321": "ions", "2322": "Ġlemon", "2323": "let", "2324": "ĠCat", "2325": "Ġclever", "2326": "ĠMolly", "2327": "Ġsmelly", "2328": "Ġimag", "2329": "Ġsplash", "2330": "Ġinteresting", "2331": "ĠJill", "2332": "Ġsave", "2333": "Ġchick", "2334": "Ġcalm", "2335": "Ġmed", "2336": "Ġwatching", "2337": "Soon", "2338": "izzy", "2339": "izz", "2340": "Ġplate", "2341": "Ġign", "2342": "yard", "2343": "Ġclouds", "2344": "Ġbanan", "2345": "Ġline", "2346": "Ġfaces", "2347": "Ġba", "2348": "Ġact", "2349": "Ġlift", "2350": "Ġthough", "2351": "Ġwolf", "2352": "Ġbackyard", "2353": "wel", "2354": "Ġseemed", "2355": "Ġdogs", "2356": "Ġspray", "2357": "Come", "2358": "Ġprot", "2359": "Ġwhole", "2360": "Ġmot", "2361": "Ġfancy", "2362": "ĠDaddy", "2363": "Ġquest", "2364": "Ġarms", "2365": "Ġpuzzle", "2366": "Ġhealthy", "2367": "Ġsupp", "2368": "ward", "2369": "Ġfinish", "2370": "erly", "2371": "Ġalong", "2372": "llo", "2373": "Ġrocket", "2374": "Ġexplain", "2375": "dge", "2376": "Ġeasy", "2377": "Ġjewel", "2378": "ont", "2379": "Ġpract", "2380": "Ġjelly", "2381": "ĠChirpy", "2382": "Ġtid", "2383": "Ġfake", "2384": "Ġcrayons", "2385": "Ġwondered", "2386": "Ġmaybe", "2387": "Ġscar", "2388": "Ġship", "2389": "Ġnothing", "2390": "onest", "2391": "Ġemb", "2392": "iger", "2393": "Ġpool", "2394": "Ġlonger", "2395": "Ġanyone", "2396": "ĠBe", "2397": "ĠJerry", "2398": "ually", "2399": "Ġfront", "2400": "Ġworking", "2401": "Ġgives", "2402": "irr", "2403": "Ġpack", "2404": "Ġsuch", "2405": "ĠBunny", "2406": "ocked", "2407": "ment", "2408": "Ġbossy", "2409": "ĠDoggy", "2410": "Ġtrouble", "2411": "Ġsmelled", "2412": "Ġsaved", "2413": "Ġpin", "2414": "rass", "2415": "Ġneigh", "2416": "arrass", "2417": "iting", "2418": "Ġhonest", "2419": "Ġav", "2420": "arge", "2421": "Ġembarrass", "2422": "Ġvan", "2423": "Ġforgive", "2424": "Ġtidy", "2425": "Ġweak", "2426": "urse", "2427": "Ġputs", "2428": "unk", "2429": "Ġkick", "2430": "Ġshirt", "2431": "ĠWith", "2432": "Ġmind", "2433": "ĠOllie", "2434": "Ġneighb", "2435": "Ġplants", "2436": "Ġsol", "2437": "ĠMomo", "2438": "Ġgently", "2439": "Ġcozy", "2440": "orrow", "2441": "ming", "2442": "Ġexplor", "2443": "sp", "2444": "Ġmistake", "2445": "Ġyog", "2446": "oc", "2447": "oomy", "2448": "Ġpointed", "2449": "Ġlad", "2450": "Ġaf", "2451": "Ġstood", "2452": "ork", "2453": "Ġonto", "2454": "Ġwaiting", "2455": "Ġjumping", "2456": "Ġprince", "2457": "Ġcross", "2458": "Ġlock", "2459": "Ġcheer", "2460": "Ġqueen", "2461": "ĠWhy", "2462": "ĠMary", "2463": "Ġwing", "2464": "ones", "2465": "we", "2466": "Ġlarge", "2467": "Ġlovely", "2468": "ult", "2469": "Ġsur", "2470": "Ġret", "2471": "And", "2472": "Ġdeer", "2473": "Ġchew", "2474": "Ġcouch", "2475": "Ġbal", "2476": "aughter", "2477": "Ġstret", "2478": "era", "2479": "ĠTheir", "2480": "Ġplaces", "2481": "ĠMy", "2482": "Ġladder", "2483": "oof", "2484": "Ġreturn", "2485": "raid", "2486": "Ġants", "2487": "Ġdish", "2488": "Ġafraid", "2489": "Ġcleaned", "2490": "Ġtomorrow", "2491": "Ġbuilding", "2492": "Ġsandwich", "2493": "Ġperson", "2494": "Sally", "2495": "ned", "2496": "Ġpretended", "2497": "Ġbounce", "2498": "Ġwip", "2499": "gest", "2500": "Ġmatch", "2501": "Ġrich", "2502": "uce", "2503": "Ġpizz", "2504": "Ġgather", "2505": "Ġsearch", "2506": "Ġboring", "2507": "oman", "2508": "ĠSomet", "2509": "Ġteeth", "2510": "Ġhum", "2511": "Kitty", "2512": "My", "2513": "aced", "2514": "Ġdaughter", "2515": "Ġwoman", "2516": "Ġscarf", "2517": "Ġgoes", "2518": "ĠTogether", "2519": "Ġlaw", "2520": "Ġstra", "2521": "Ġswimming", "2522": "Ġfurry", "2523": "Ġsplashed", "2524": "Ġpri", "2525": "Ġloves", "2526": "Ġtrue", "2527": "Ġscreamed", "2528": "Ġlazy", "2529": "Ġgen", "2530": "Ġanswer", "2531": "Ġnumber", "2532": "Ġeag", "2533": "Ġashamed", "2534": "Ġpizza", "2535": "aw", "2536": "Ġappeared", "2537": "Ġfear", "2538": "Ġnearby", "2539": "Ġpowerful", "2540": "Ġflag", "2541": "ĠSt", "2542": "Ġhang", "2543": "vous", "2544": "Ġclown", "2545": "ek", "2546": "Ġchase", "2547": "Ġmotor", "2548": "Ġwand", "2549": "ĠTV", "2550": "Ġrub", "2551": "Ġsuccess", "2552": "Ġchocol", "2553": "ĠIf", "2554": "Ġcreative", "2555": "Ġtrust", "2556": "Ġwearing", "2557": "Ġnoisy", "2558": "Ġmatter", "2559": "pa", "2560": "Ġdig", "2561": "Ġhello", "2562": "Ġner", "2563": "Ġtool", "2564": "Ġsaf", "2565": "ĠBird", "2566": "ado", "2567": "Ġnervous", "2568": "elp", "2569": "Ġtest", "2570": "Ġsmiling", "2571": "Ġsold", "2572": "icked", "2573": "oppy", "2574": "osaur", "2575": "Ġcircle", "2576": "mb", "2577": "Ġmap", "2578": "Ġdrank", "2579": "Ġclass", "2580": "Ġtries", "2581": "Ġchocolate", "2582": "ĠPlease", "2583": "Ġimpress", "2584": "Ġknee", "2585": "Ġgener", "2586": "Ġdinosaur", "2587": "Ġpolite", "2588": "Ġmirr", "2589": "ĠBobby", "2590": "ĠTiny", "2591": "Ġballoons", "2592": "Ġgold", "2593": "Ġrare", "2594": "Ġprotect", "2595": "Ġcand", "2596": "Stop", "2597": "Ġcarried", "2598": "ĠGo", "2599": "ensive", "2600": "Ġap", "2601": "Ġshadow", "2602": "Ġmirror", "2603": "ĠDon", "2604": "Ġbald", "2605": "Ġgun", "2606": "ina", "2607": "Ġexpensive", "2608": "Ġreg", "2609": "iff", "2610": "Ġmysterious", "2611": "ĠSp", "2612": "Ġpump", "2613": "Ġnote", "2614": "Ġhero", "2615": "Ġmarch", "2616": "Ġhar", "2617": "arl", "2618": "Ġicy", "2619": "Ġrespect", "2620": "Ġweird", "2621": "Ġsnee", "2622": "Ġcri", "2623": "Ġgate", "2624": "Ġsoap", "2625": "rag", "2626": "ute", "2627": "issors", "2628": "Ġthese", "2629": "Ġpoor", "2630": "Ġtowel", "2631": "Ġwhale", "2632": "Ġfeet", "2633": "Ġtape", "2634": "Ġdizzy", "2635": "itter", "2636": "Ġgenerous", "2637": "ndpa", "2638": "Ġpres", "2639": "ĠBenny", "2640": "nic", "2641": "Ġdisco", "2642": "Help", "2643": "ventually", "2644": "Ġpicnic", "2645": "Ġmic", "2646": "Ġlead", "2647": "Ġsque", "2648": "Ġembarrassed", "2649": "Ġjourney", "2650": "Ġsugar", "2651": "isp", "2652": "scape", "2653": "Ġboot", "2654": "Ġtent", "2655": "Ġpeaceful", "2656": "Ġfat", "2657": "ĠBear", "2658": "Ġscissors", "2659": "Ġtasted", "2660": "Ġyelled", "2661": "Tommy", "2662": "Ġtick", "2663": "Ġmel", "2664": "Ġbrush", "2665": "Ġdancing", "2666": "ness", "2667": "Ġglue", "2668": "Ġhur", "2669": "Ġrough", "2670": "Ġclap", "2671": "Ġbridge", "2672": "ote", "2673": "Ġdecor", "2674": "Ġcloset", "2675": "Ġcrown", "2676": "Ġstir", "2677": "ual", "2678": "imp", "2679": "Ġprint", "2680": "ĠSometimes", "2681": "owed", "2682": "airs", "2683": "ĠHow", "2684": "ume", "2685": "Ġcap", "2686": "Ġlamp", "2687": "Ġvase", "2688": "Ġscare", "2689": "lebr", "2690": "Ġrelie", "2691": "lves", "2692": "any", "2693": "Ġeld", "2694": "Ġtele", "2695": "Ġcelebr", "2696": "Ġgigg", "2697": "Ġwhisp", "2698": "Ġlog", "2699": "Ġsco", "2700": "Ġblow", "2701": "Ġpainted", "2702": "ĠDucky", "2703": "Ġpay", "2704": "erries", "2705": "Ġwis", "2706": "Ġberries", "2707": "Ġmixed", "2708": "Ġspread", "2709": "Ġwouldn", "2710": "Ġcage", "2711": "Ġbake", "2712": "rob", "2713": "getable", "2714": "Ġmountain", "2715": "Ġadm", "2716": "Ġdrawing", "2717": "Ġbecome", "2718": "Ġfamous", "2719": "Ġknocked", "2720": "Ġbean", "2721": "Ġnorm", "2722": "Ġvegetable", "2723": "asp", "2724": "Ġkicked", "2725": "ustr", "2726": "Ġshark", "2727": "ser", "2728": "Ġincred", "2729": "Ġlose", "2730": "Ġnormal", "2731": "Ġwrap", "2732": "ced", "2733": "Ġgroup", "2734": "Ġthick", "2735": "Ġ3", "2736": "Ġfine", "2737": "Ġglass", "2738": "Ġignor", "2739": "Ġclock", "2740": "Ġteam", "2741": "Ġelderly", "2742": "Ġclear", "2743": "Ġcorner", "2744": "Ġfrustr", "2745": "Ġmighty", "2746": "robe", "2747": "Ġcone", "2748": "Ġincredible", "2749": "ĠBr", "2750": "ighed", "2751": "Dad", "2752": "Ġmoms", "2753": "Ġbalance", "2754": "Ġsock", "2755": "Ġspace", "2756": "Ġjam", "2757": "ragile", "2758": "Ġfright", "2759": "Ġorganized", "2760": "Ġbranches", "2761": "Ġroar", "2762": "port", "2763": "Ġsword", "2764": "alous", "2765": "ĠMama", "2766": "Ġguess", "2767": "Ġfool", "2768": "Ġsell", "2769": "Ġfeed", "2770": "ĠSome", "2771": "Ġwhich", "2772": "Ġhorn", "2773": "Ġpresent", "2774": "Ġjealous", "2775": "Ġyarn", "2776": "ony", "2777": "Ġfragile", "2778": "Ġburn", "2779": "Ġunderstood", "2780": "Ġmis", "2781": "Ġstubb", "2782": "Ġter", "2783": "Ġfrustrated", "2784": "Where", "2785": "ray", "2786": "Ġhose", "2787": "cient", "2788": "Ġspent", "2789": "Ġshoe", "2790": "Ġtaught", "2791": "Ġstubborn", "2792": "Ġtwist", "2793": "Ġcreature", "2794": "Ġchest", "2795": "Ġspoiled", "2796": "Ġrelieved", "2797": "Ġancient", "2798": "ique", "2799": "Ġwake", "2800": "Ġfier", "2801": "Ġpray", "2802": "Ġfierce", "2803": "Ġeggs", "2804": "Ġcab", "2805": "Ġterri", "2806": "Ġbarn", "2807": "Ġpumpkin", "2808": "Ġcomfortable", "2809": "Ġord", "2810": "ym", "2811": "Ġfrightened", "2812": "orry", "2813": "Ġtoug", "2814": "Ġunique", "2815": "Ġmeasure", "2816": "Ġgoat", "2817": "Ġwagon", "2818": "Ġunus", "2819": "Ġbreath", "2820": "Ġfoolish", "2821": "Ġuseful", "2822": "Ġexploring", "2823": "dle", "2824": "Ġstraw", "2825": "Ġunusual", "2826": "Ġdug", "2827": "Ġclay", "2828": "Ġdiscover", "2829": "Ġtomato", "2830": "ĠPe", "2831": "Ġdead", "2832": "Ġfinding", "2833": "Ġpolice", "2834": "Ġwrote", "2835": "Ġclum", "2836": "Ġexam", "2837": "lace", "2838": "Ġwaves", "2839": "Ġsquare", "2840": "Ġhears", "2841": "Ġcabin", "2842": "Ġtells", "2843": "Ġnecklace", "2844": "Ġdull", "2845": "Ġclumsy", "2846": "Ġtough", "2847": "Ġbubbles", "2848": "Ġnosy", "2849": "kn", "2850": "Ġsearched", "2851": "Together", "2852": "Ġwashed", "2853": "Ġbathroom", "2854": "Ġpaws", "2855": "bby", "2856": "ond", "2857": "unn", "2858": "anged", "2859": "Ġboard", "2860": "fic", "2861": "known", "2862": "Ġasking", "2863": "Ġcrazy", "2864": "Ġthankful", "2865": "Ġsunf", "2866": "Ġbitter", "2867": "yal", "2868": "Ġpir", "2869": "berry", "2870": "alk", "2871": "Ġind", "2872": "Ġdiffic", "2873": "Ġrose", "2874": "cil", "2875": "Ġswan", "2876": "Ġbloom", "2877": "Ġunknown", "2878": "ĠElla", "2879": "Ġcovered", "2880": "Ġdifficult", "2881": "Ġadd", "2882": "Ġpencil", "2883": "Ġfinger", "2884": "Ġham", "2885": "Ġhoop", "2886": "Ġjet", "2887": "Ġwitch", "2888": "Ġdrop", "2889": "Me", "2890": "Ġ'", "2891": "Ġchicken", "2892": "Ġgloomy", "2893": "apped", "2894": "Ġloyal", "2895": "als", "2896": "Here", "2897": "Ġwealthy", "2898": "com", "2899": "light", "2900": "Ġunl", "2901": "Ġcats", "2902": "Ġending", "2903": "Ġguit", "2904": "bled", "2905": "shine", "2906": "Ġdove", "2907": "Ġjoined", "2908": "Ġcher", "2909": "anut", "2910": "Ġmov", "2911": "Ġterrible", "2912": "Ġyours", "2913": "iant", "2914": "ĠU", "2915": "ĠRex", "2916": "Ġsalad", "2917": "ĠAndy", "2918": "Ġnuts", "2919": "Ġrat", "2920": "ground", "2921": "Ġtiger", "2922": "Ġpotato", "2923": "Ġmask", "2924": "xible", "2925": "selves", "2926": "Ġvalue", "2927": "Ġchanged", "2928": "Ġmoving", "2929": "Ġexciting", "2930": "ormous", "2931": "ĠMany", "2932": "Ġbody", "2933": "ĠTr", "2934": "Ġtoast", "2935": "Ġrecord", "2936": "erp", "2937": "Ġzip", "2938": "Ġdisg", "2939": "Ġcheap", "2940": "Ġguitar", "2941": "irsty", "2942": "Ġknowing", "2943": "Ġadventur", "2944": "Ġyourself", "2945": "Ġenormous", "2946": "Ġhairy", "2947": "Every", "2948": "Ġshoot", "2949": "ĠBrown", "2950": "Ġbored", "2951": "Ġpepper", "2952": "Ġremind", "2953": "ory", "2954": "land", "2955": "Ġacorn", "2956": "Ġadventurous", "2957": "Ġsunshine", "2958": "Ġsmaller", "2959": "Ġstuff", "2960": "Ġhats", "2961": "Ġsolve", "2962": "ĠJimmy", "2963": "Ġflexible", "2964": "Ġcost", "2965": "rilliant", "2966": "Ġknife", "2967": "Ġperform", "2968": "Ġsnacks", "2969": "Ġnods", "2970": "Ġshore", "2971": "Ġbrilliant", "2972": "Ġthirsty", "2973": "Ġdelicate", "2974": "Ġfrown", "2975": "Ġdisgust", "2976": "Ġcollect", "2977": "Ġstri", "2978": "Ġseeds", "2979": "Ġcounted", "2980": "Ġasleep", "2981": "Ġbanana", "2982": "reen", "2983": "Ġmailbox", "2984": "iness", "2985": "Ġdough", "2986": "Ġtrick", "2987": "Ġneighbor", "2988": "ungle", "2989": "Ġheal", "2990": "live", "2991": "Who", "2992": "Ġstage", "2993": "ident", "2994": "Ġmarket", "2995": "Ġcube", "2996": "Ġstat", "2997": "Ġjungle", "2998": "Ġsquee", "2999": "mbre", "3000": "Ġexplained", "3001": "ates", "3002": "Ġumbre", "3003": "Ġdisgusting", "3004": "Jim", "3005": "fted", "3006": "Ġlab", "3007": "Ġjolly", "3008": "Ġflash", "3009": "und", "3010": "Ġfridge", "3011": "inal", "3012": "pid", "3013": "ilt", "3014": "Ġcrane", "3015": "corn", "3016": "Ġsuit", "3017": "Ġrh", "3018": "iddle", "3019": "Ġsunflower", "3020": "Ġtimes", "3021": "ĠAl", "3022": "erpill", "3023": "Ġcaterpill", "3024": "Ġrelax", "3025": "Ġshiver", "3026": "Ġfour", "3027": "Ġisland", "3028": "iginal", "3029": "Ġharm", "3030": "ict", "3031": "ĠWhile", "3032": "ying", "3033": "Ġstupid", "3034": "Ġmedic", "3035": "ĠInstead", "3036": "Ġcomb", "3037": "Ġgoose", "3038": "Ġcro", "3039": "edient", "3040": "ĠWill", "3041": "Ġstove", "3042": "If", "3043": "Are", "3044": "Ġindepend", "3045": "Mum", "3046": "most", "3047": "Ġspring", "3048": "Ġgem", "3049": "Ġbatter", "3050": "Ġsighed", "3051": "Ġvegetables", "3052": "Ġstones", "3053": "pes", "3054": "Ġshine", "3055": "How", "3056": "Ġmedicine", "3057": "Ġdepend", "3058": "Ġrug", "3059": "ĠYour", "3060": "Ġcareless", "3061": "Ġoriginal", "3062": "Ġstamp", "3063": "Ġgar", "3064": "Ġcries", "3065": "Inside", "3066": "gu", "3067": "Ġcarrots", "3068": "Ġscr", "3069": "Ġsuccessful", "3070": "Ġsauce", "3071": "Ġjeep", "3072": "Ġpopcorn", "3073": "Ġmeal", "3074": "Ġobedient", "3075": "Ġalmost", "3076": "Ġmiddle", "3077": "Ġmagn", "3078": "Ġstudy", "3079": "Ġindependent", "3080": "Ġfearful", "3081": "Ġjack", "3082": "met", "3083": "inky", "3084": "Sorry", "3085": "ĠSammy", "3086": "Ġescape", "3087": "Ġcaterpillar", "3088": "Ġserious", "3089": "Ġpeanut", "3090": "Ġbedroom", "3091": "Ġeager", "3092": "aken", "3093": "Ġgets", "3094": "Ġparrot", "3095": "Ġstatue", "3096": "Ġhelmet", "3097": "Ġpebb", "3098": "ĠNo", "3099": "Ġfountain", "3100": "Ġraven", "3101": "Ġang", "3102": "Ġpasta", "3103": "Ġumbrella", "3104": "Ġcompet", "3105": "There", "3106": "Ġjacket", "3107": "Ġbelonged", "3108": "Ġdest", "3109": "Ġfilthy", "3110": "Ġdesign", "3111": "Ġborrow", "3112": "Ġcam", "3113": "erable", "3114": "Ġhouses", "3115": "Ġprize", "3116": "Ġhay", "3117": "Ġbrace", "3118": "Ġstanding", "3119": "Ġmiserable", "3120": "Ġraced", "3121": "Ġtaken", "3122": "ages", "3123": "Ġfork", "3124": "Ġcrayon", "3125": "Ġpainting", "3126": "io", "3127": "Ġtriang", "3128": "Ġimpressive", "3129": "Ġchoose", "3130": "Ġfig", "3131": "Ġtied", "3132": "iable", "3133": "Ġspotted", "3134": "Ġlifted", "3135": "Ġslipped", "3136": "ours", "3137": "Ġtank", "3138": "Ġthoughtful", "3139": "Ġdependable", "3140": "Ġsteal", "3141": "Ġgarage", "3142": "enny", "3143": "Ġbuilt", "3144": "Ġmush", "3145": "Ġer", "3146": "ipe", "3147": "Ġmole", "3148": "Ġcrawled", "3149": "Ġscale", "3150": "Ġboats", "3151": "Ġpian", "3152": "Ġpant", "3153": "Ġhammer", "3154": "Ġbottom", "3155": "lph", "3156": "Ġcheerful", "3157": "Ġusing", "3158": "Ġsmoke", "3159": "Ġpicks", "3160": "Ġmoder", "3161": "berries", "3162": "Ġshows", "3163": "rn", "3164": "Ġpiano", "3165": "Ġmagnet", "3166": "dile", "3167": "codile", "3168": "Ġhurts", "3169": "inary", "3170": "Ġref", "3171": "Ġcrack", "3172": "Ġeng", "3173": "Ġaunt", "3174": "Ġmelon", "3175": "Ġwaff", "3176": "Ġmodern", "3177": "Ġdolph", "3178": "unnel", "3179": "cream", "3180": "pack", "3181": "Ġtunnel", "3182": "oin", "3183": "Ġarrow", "3184": "Ġreliable", "3185": "Ġhopping", "3186": "Ġmushroom", "3187": "Ġjug", "3188": "Timmy", "3189": "Ġsquash", "3190": "Ġgum", "3191": "Ġsink", "3192": "Ġmovie", "3193": "Ġtax", "3194": "Ġflute", "3195": "Ġbeet", "3196": "Ġlean", "3197": "Their", "3198": "iv", "3199": "Ġpopular", "3200": "opter", "3201": "icopter", "3202": "Ġcryst", "3203": "Ġones", "3204": "Ġsil", "3205": "Ġcompetit", "3206": "Ġhelicopter", "3207": "aser", "3208": "Ġneeds", "3209": "ipop", "3210": "llipop", "3211": "Ġcrocodile", "3212": "Ġliz", "3213": "Molly", "3214": "Ġpress", "3215": "Ġtroubled", "3216": "Ġpige", "3217": "Ġlocked", "3218": "Ġtricks", "3219": "Ġlollipop", "3220": "Ġplayful", "3221": "Ġhumble", "3222": "Ġtaxi", "3223": "Ġkissed", "3224": "Ġlow", "3225": "appy", "3226": "comfortable", "3227": "amond", "3228": "Ġuncomfortable", "3229": "Ġrid", "3230": "host", "3231": "Ġwander", "3232": "atch", "3233": "Ġangel", "3234": "edy", "3235": "cles", "3236": "Ġtorn", "3237": "Ġgrace", "3238": "Ġanx", "3239": "Ġwrapped", "3240": "Ġmuff", "3241": "Ġtwig", "3242": "Ġpants", "3243": "Ġdisappoin", "3244": "ĠSn", "3245": "Ġhelps", "3246": "Ġdiamond", "3247": "Ġcamera", "3248": "atter", "3249": "oto", "3250": "Ġanxious", "3251": "Ġghost", "3252": "Ġtears", "3253": "Ġruined", "3254": "cident", "3255": "ĠJenny", "3256": "ilty", "3257": "Ġquar", "3258": "aff", "3259": "ĠEven", "3260": "Ġfis", "3261": "opl", "3262": "Ġbelt", "3263": "eropl", "3264": "Ġenv", "3265": "Ġguilty", "3266": "Ġbull", "3267": "Ġaeropl", "3268": "Ġhelpless", "3269": "Ġhappiness", "3270": "Ġlizard", "3271": "Ġboys", "3272": "cut", "3273": "ext", "3274": "Ġcere", "3275": "Ġwalks", "3276": "cean", "3277": "Ġpassed", "3278": "Ġmeant", "3279": "Ġocean", "3280": "Ġfluffy", "3281": "Ġwire", "3282": "Ġnail", "3283": "Ġbracelet", "3284": "Ġdeaf", "3285": "zed", "3286": "Ġstretch", "3287": "Ġcandle", "3288": "Ġcact", "3289": "tt", "3290": "Ġbeetle", "3291": "Ġmop", "3292": "Ġharmless", "3293": "umpet", "3294": "Ġordinary", "3295": "Ġanswered", "3296": "Ġcollar", "3297": "Ġcop", "3298": "Ġbees", "3299": "Ġtire", "3300": "Ġshape", "3301": "Ġquarrel", "3302": "Ġradio", "3303": "Ġflashlight", "3304": "Ġcrystal", "3305": "Ġharder", "3306": "Ġpoured", "3307": "Ġtrumpet", "3308": "Ġengine", "3309": "Mama", "3310": "Ġpersist", "3311": "Ġhunt", "3312": "Ġtooth", "3313": "Ġcereal", "3314": "Ġinvited", "3315": "Ġcomput", "3316": "Ġtag", "3317": "Ġoffice", "3318": "Ġmelt", "3319": "Ġspill", "3320": "Ġcharm", "3321": "coa", "3322": "Ġlit", "3323": "Ġscoot", "3324": "Ġcomet", "3325": "Ġtriangle", "3326": "ief", "3327": "Ġmug", "3328": "Ġrep", "3329": "ube", "3330": "Ġyogurt", "3331": "Ġspend", "3332": "Ġcompass", "3333": "Ġaccident", "3334": "Ġshade", "3335": "hett", "3336": "aghett", "3337": "aghetti", "3338": "Ġdisappointed", "3339": "Ġlicked", "3340": "Ġcactus", "3341": "Ġpale", "3342": "Ġcush", "3343": "Ġfigure", "3344": "Ġregular", "3345": "Ġgiving", "3346": "Ġavoc", "3347": "Ġpro", "3348": "Ġsheet", "3349": "Ġwhispered", "3350": "aze", "3351": "uth", "3352": "ellig", "3353": "Ġcreate", "3354": "Ġbarber", "3355": "Ġintellig", "3356": "Ġpipe", "3357": "Ġrode", "3358": "Ġroof", "3359": "Jane", "3360": "Ġthread", "3361": "ither", "3362": "Ġvi", "3363": "Ġload", "3364": "Ġlibr", "3365": "Ġgifted", "3366": "ccol", "3367": "Ġpracticed", "3368": "Ġdelight", "3369": "ccoli", "3370": "Ġharsh", "3371": "asses", "3372": "Ġpow", "3373": "Ġdust", "3374": "ĠTrue", "3375": "Ġbicy", "3376": "azz", "3377": "Ġspaghetti", "3378": "Ġcompassion", "3379": "Ġsailed", "3380": "urkey", "3381": "ubby", "3382": "Ġforward", "3383": "Ġpersistent", "3384": "Ġspeed", "3385": "Ġmitten", "3386": "Ġcocoa", "3387": "Ġenvel", "3388": "Ġquestions", "3389": "Ġcomputer", "3390": "Ġcoo", "3391": "Ġfeathers", "3392": "hip", "3393": "Ġglove", "3394": "ging", "3395": "Bobo", "3396": "Ġrice", "3397": "Ġshrimp", "3398": "Ġdesk", "3399": "Ġstream", "3400": "Ġinse", "3401": "Ġpigeon", "3402": "Ġcharming", "3403": "Ġears", "3404": "Ġcarp", "3405": "lcan", "3406": "Ġraft", "3407": "Ġenvious", "3408": "Ġknot", "3409": "Ġturkey", "3410": "Ġstronger", "3411": "omes", "3412": "Ġcoins", "3413": "Ġtap", "3414": "lcano", "3415": "weet", "3416": "Ġtrap", "3417": "umbers", "3418": "Ġaeroplane", "3419": "Ġtrunk", "3420": "Ġwheat", "3421": "Ġboxes", "3422": "Ġchubby", "3423": "Ġcarpet", "3424": "Ġrestless", "3425": "Ġintelligent", "3426": "Ġtube", "3427": "Ġspun", "3428": "Ġdreams", "3429": "Ġfriendship", "3430": "ulif", "3431": "olin", "3432": "Ġhalf", "3433": "Ġloop", "3434": "Ġcrawl", "3435": "Ġbroccoli", "3436": "Ġonion", "3437": "Ġdeliver", "3438": "anger", "3439": "Ġacce", "3440": "Ġvide", "3441": "Ġvolcano", "3442": "ĠJake", "3443": "Ġsle", "3444": "Ġtrack", "3445": "Ġbri", "3446": "Ġcaulif", "3447": "Ġvine", "3448": "ye", "3449": "Ġticket", "3450": "Ġthief", "3451": "essie", "3452": "cycle", "3453": "Ġlouder", "3454": "Ġinsect", "3455": "Ġnumbers", "3456": "asing", "3457": "Ġyaw", "3458": "Ġhaircut", "3459": "ital", "3460": "Ġsleeping", "3461": "Ġmill", "3462": "Ġeventually", "3463": "Ġalert", "3464": "Ġexcite", "3465": "Ġpebble", "3466": "Ġhosp", "3467": "Ġattract", "3468": "Ġplanet", "3469": "ĠToday", "3470": "Ġuniver", "3471": "isted", "3472": "ulu", "3473": "Ġhospital", "3474": "Ġeraser", "3475": "Ġreturned", "3476": "Ġdestro", "3477": "Ġgraceful", "3478": "Ġhappening", "3479": "ache", "3480": "ĠOK", "3481": "ĠEmily", "3482": "Ġdecide", "3483": "Ġlearning", "3484": "Ġscreen", "3485": "rework", "3486": "Ġnicely", "3487": "Ġleop", "3488": "Ġcauliflower", "3489": "Ġcompetitive", "3490": "Ġpoem", "3491": "Ġcelebrate", "3492": "Ġcurt", "3493": "Ġpeach", "3494": "Ġsoldier", "3495": "Ġsaus", "3496": "Ġparade", "3497": "atient", "3498": "Ġattractive", "3499": "Ġcurtain", "3500": "Ġdolphin", "3501": "Ġbase", "3502": "Ġviolin", "3503": "Ġways", "3504": "Go", "3505": "ats", "3506": "Ġtravel", "3507": "ten", "3508": "Ġrod", "3509": "Ġignorant", "3510": "ulb", "3511": "Ġwheels", "3512": "Ġyach", "3513": "Ġscatter", "3514": "Ġdeter", "3515": "Ġcompassionate", "3516": "Ġbarrel", "3517": "Ġenvelope", "3518": "Ġbubble", "3519": "Ġlying", "3520": "Ġfirework", "3521": "Ġsort", "3522": "Ġquestion", "3523": "zzy", "3524": "ĠPipp", "3525": "Ġscooter", "3526": "Ġdeterm", "3527": "Ġrag", "3528": "Ġthu", "3529": "Ġbicycle", "3530": "elery", "3531": "Ġneedle", "3532": "ĠFr", "3533": "Ġjudge", "3534": "Ġbulb", "3535": "Ġleopard", "3536": "Ġtem", "3537": "Ġyacht", "3538": "Ġpony", "3539": "Ġcricket", "3540": "Ġorder", "3541": "Ġhomes", "3542": "Ġador", "3543": "tern", "3544": "Ġtruth", "3545": "Ġhook", "3546": "dom", "3547": "Ġrubbed", "3548": "ete", "3549": "igator", "3550": "Ġbushes", "3551": "Sarah", "3552": "Ġuncle", "3553": "Ġcushion", "3554": "Ġspell", "3555": "Ġgrown", "3556": "Ġcooked", "3557": "Ġadorable", "3558": "Ġchalk", "3559": "Ġsoar", "3560": "Ġpurse", "3561": "Ġskin", "3562": "Ġthemselves", "3563": "Ġimpatient", "3564": "Ġcelery", "3565": "Ġtray", "3566": "Ġshells", "3567": "Ġpengu", "3568": "Ġsniff", "3569": "Ġprun", "3570": "Ġwalls", "3571": "Ġseal", "3572": "Ġlively", "3573": "Ġcase", "3574": "Ġalligator", "3575": "Ġdistant", "3576": "Ġradish", "3577": "Ġsaying", "3578": "Ġspeak", "3579": "Ġmotorcycle", "3580": "Ġmeat", "3581": "Ġsend", "3582": "illa", "3583": "Ġspinning", "3584": "Ġforth", "3585": "Ġcounting", "3586": "Ġenth", "3587": "Ġbounced", "3588": "Ġchain", "3589": "Ġed", "3590": "Ġcleaning", "3591": "ebra", "3592": "Ġfilm", "3593": "Ġslept", "3594": "Ġpit", "3595": "Ġsurf", "3596": "Ġmarry", "3597": "usia", "3598": "Ġwallet", "3599": "Ġenthusia", "3600": "Ġmetal", "3601": "urb", "3602": "ebook", "3603": "Ġbin", "3604": "Ġweek", "3605": "Ġnotebook", "3606": "Ġwiped", "3607": "Ġskip", "3608": "ision", "3609": "chair", "3610": "Ġbiggest", "3611": "Ġimpro", "3612": "Ġavocado", "3613": "Ġbehave", "3614": "Ġdestroy", "3615": "vator", "3616": "Ġbandage", "3617": "Ġlaughs", "3618": "Ġsteak", "3619": "Ġpattern", "3620": "ĠSh", "3621": "Ġpost", "3622": "Ġelevator", "3623": "ĠBuzz", "3624": "usie", "3625": "Ġdive", "3626": "Ġshut", "3627": "Ġskipped", "3628": "Ġunlock", "3629": "Ġdiary", "3630": "dest", "3631": "ject", "3632": "Ġzebra", "3633": "Ġbags", "3634": "ating", "3635": "Ġarmchair", "3636": "rage", "3637": "aged", "3638": "Ġdisturb", "3639": "Ġoy", "3640": "Ġpole", "3641": "Ġshowing", "3642": "Ġgathered", "3643": "Ġclub", "3644": "Ġnurse", "3645": "bul", "3646": "Ġearth", "3647": "Ġenc", "3648": "Ġstranger", "3649": "Ġsweater", "3650": "Ġjellyfish", "3651": "Ġscrew", "3652": "Ġtemp", "3653": "ĠPoppy", "3654": "Ġcompl", "3655": "Ġmixer", "3656": "Give", "3657": "Ġskull", "3658": "Ġlime", "3659": "Ġbump", "3660": "bulance", "3661": "Ġambulance", "3662": "nam", "3663": "Ġfather", "3664": "Ġjournal", "3665": "Gra", "3666": "Ġloudly", "3667": "ito", "3668": "Ġfolder", "3669": "Ġshield", "3670": "ĠBet", "3671": "ĠLulu", "3672": "Ġlibrary", "3673": "ĠPeter", "3674": "Ġbuttons", "3675": "Ġplayground", "3676": "Ġtrucks", "3677": "Ġink", "3678": "Ġlights", "3679": "Ġtummy", "3680": "Ġpointing", "3681": "Ġcity", "3682": "Ġdecorate", "3683": "Ġstation", "3684": "irit", "3685": "Ġprep", "3686": "Ġfalls", "3687": "quito", "3688": "ĠPolly", "3689": "Billy", "3690": "Ġfu", "3691": "ĠFo", "3692": "ention", "3693": "nger", "3694": "ĠBirdy", "3695": "lies", "3696": "Ġherb", "3697": "nament", "3698": "Ġornament", "3699": "Ġmodest", "3700": "Ġguard", "3701": "Ġmos", "3702": "Ġknows", "3703": "Ġcord", "3704": "Ġpolish", "3705": "Ġmarble", "3706": "oby", "3707": "Ġmosquito", "3708": "umbled", "3709": "Ġsalt", "3710": "Ġattic", "3711": "Ġwhenever", "3712": "Ġvest", "3713": "ctop", "3714": "Ġresc", "3715": "Ġyet", "3716": "Ġple", "3717": "Ġdisappeared", "3718": "ceed", "3719": "Ġstrawberry", "3720": "Ġonce", "3721": "ĠMum", "3722": "Ġkay", "3723": "Ġbrothers", "3724": "Ġitch", "3725": "Ġpirate", "3726": "Ġfootball", "3727": "Ġsplit", "3728": "kele", "3729": "keleton", "3730": "Ġhipp", "3731": "Ġaut", "3732": "Ġled", "3733": "uring", "3734": "ctopus", "3735": "Ġdriving", "3736": "Ġcable", "3737": "Ġsupport", "3738": "Ġcalling", "3739": "Ġcupboard", "3740": "aky", "3741": "ushed", "3742": "Ġwishes", "3743": "Ġcomplet", "3744": "Ġtripped", "3745": "Ġroot", "3746": "Ġkayak", "3747": "Ġoctopus", "3748": "obile", "3749": "Ġadded", "3750": "Ġedge", "3751": "Ġmild", "3752": "stic", "3753": "Ġdetermined", "3754": "Ġsucceed", "3755": "?\".", "3756": "Ġreading", "3757": "omobile", "3758": "Ġcoal", "3759": "Well", "3760": "gl", "3761": "utes", "3762": "par", "3763": "Ġsuggest", "3764": "Ġstack", "3765": "Ġthunder", "3766": "Ġkindness", "3767": "Ġautomobile", "3768": "Ġcomplain", "3769": "Ġenthusiastic", "3770": "Ġsneeze", "3771": "Ġcartoon", "3772": "Ġyoga", "3773": "ĠLittle", "3774": "Ġgrowl", "3775": "htub", "3776": "Ġflea", "3777": "la", "3778": "Ġmeadow", "3779": "Ġdrawer", "3780": "Ġbathtub", "3781": "Ġribb", "3782": "ophone", "3783": "Ġmeans", "3784": "Ġhall", "3785": "Ġgolf", "3786": "Ġskeleton", "3787": "Ġmath", "3788": "Ġveil", "3789": "Ġhunter", "3790": "Ġgor", "3791": "Ġflame", "3792": "Ġpoke", "3793": "Ġvideo", "3794": "Ġchess", "3795": "Ġtroph", "3796": "Ġcups", "3797": "Ġglowing", "3798": "Ġmatt", "3799": "Ġoyster", "3800": "work", "3801": "Ġpenny", "3802": "Ġspear", "3803": "Ġitself", "3804": "Ġdrawings", "3805": "Ġhippo", "3806": "Ġrepair", "3807": "Ġswitch", "3808": "glasses", "3809": "Ġsunglasses", "3810": "Ġteleph", "3811": "Ġcostume", "3812": "Ġdess", "3813": "Ġzipp", "3814": ",âĢĿ", "3815": "Ġrepe", "3816": "Ġmuffin", "3817": "Ġarg", "3818": "Ġpastry", "3819": "Ġpun", "3820": "Ġrolling", "3821": "Ġminutes", "3822": "Ġpacked", "3823": "Ġmakeup", "3824": "iron", "3825": "ric", "3826": "ĠPeople", "3827": "Ġwaffle", "3828": "case", "3829": "Ġhandle", "3830": "Ġpear", "3831": "Ġmaze", "3832": "Ġtelephone", "3833": "Ġpine", "3834": "ait", "3835": "Ġgear", "3836": "Ġhedge", "3837": "Ġmattress", "3838": "Ġpackage", "3839": "aving", "3840": "ĠMiss", "3841": "Ġshocked", "3842": "ines", "3843": "Ġtrophy", "3844": "Ġpowder", "3845": "Ġknight", "3846": "Ġcob", "3847": "Ġmissile", "3848": "Ġmanaged", "3849": "Ġframe", "3850": "Ġencou", "3851": "Ġwife", "3852": "Ġok", "3853": "Ġsepar", "3854": "web", "3855": "Ġstairs", "3856": "Ġrot", "3857": "Ġcamp", "3858": "urch", "3859": "rophone", "3860": "Ġmagaz", "3861": "Ġstrugg", "3862": "Ġcolour", "3863": "Ġgrapes", "3864": "time", "3865": "Ġfile", "3866": "head", "3867": "ĠTina", "3868": "Ġbasketball", "3869": "Bye", "3870": "old", "3871": "per", "3872": "Ġcobweb", "3873": "Re", "3874": "Jimmy", "3875": "ĠTweet", "3876": "See", "3877": "Ġperm", "3878": "Ġwool", "3879": "ĠDan", "3880": "Ġmicrophone", "3881": "esday", "3882": "Ġeye", "3883": "Ġleash", "3884": "Ġgasp", "3885": "iew", "3886": "keep", "3887": "Ġweep", "3888": "Ġbarking", "3889": "ature", "3890": "Ġsafely", "3891": "Ġtear", "3892": "Ġview", "3893": "ffe", "3894": "Ġslides", "3895": "Ġsteps", "3896": "istol", "3897": "ffee", "3898": "Ġbananas", "3899": "Ġstaff", "3900": "Ġspirit", "3901": "Ġtask", "3902": "Ġgiggled", "3903": "Ġhoc", "3904": "Ġhockey", "3905": "Ġvend", "3906": "Ġthose", "3907": "Ġgorilla", "3908": "Jill", "3909": "Ġcooler", "3910": "ĠRose", "3911": "was", "3912": "cing", "3913": "Ġearly", "3914": "Ġmarched", "3915": "rosc", "3916": "Ġmint", "3917": "ĠLook", "3918": "washer", "3919": "Ġflour", "3920": "Ġhotel", "3921": "hic", "3922": "Ġsailor", "3923": "Ġdessert", "3924": "Ġphoto", "3925": "roscope", "3926": "Ġvehic", "3927": "ilot", "3928": "Ġoften", "3929": "Ġchurch", "3930": "ĠPete", "3931": "Ġcooking", "3932": "Ġremain", "3933": "Ġfive", "3934": "Ġsausage", "3935": "otter", "3936": "Ġten", "3937": "Ġtools", "3938": "Ġmedal", "3939": "Ġeither", "3940": "Ġfireman", "3941": "chor", "3942": "Ġgrandpa", "3943": "Ġotter", "3944": "Ġbaseball", "3945": "Ġpretending", "3946": "Ġpistol", "3947": "Ġdishwasher", "3948": "Ġrever", "3949": "Ġorganize", "3950": "Ġpee", "3951": "Ġvendor", "3952": "Ġknock", "3953": "Ġsight", "3954": "Ġgrill", "3955": "Ġtemple", "3956": "Ġbattery", "3957": "Ġthinking", "3958": "Ġopens", "3959": "Ġow", "3960": "Ġrealised", "3961": "Ġiron", "3962": "Ġlaser", "3963": "Ġsne", "3964": "Ġsandbox", "3965": "Ġoil", "3966": "Ġpatch", "3967": "Ġhours", "3968": "Ġrise", "3969": "Ġwhip", "3970": "'d", "3971": "ctory", "3972": "ĠGive", "3973": "Ġanchor", "3974": "Ġtrash", "3975": "ense", "3976": "Ġshort", "3977": "ney", "3978": "ĠBetty", "3979": "Ġrhin", "3980": "Ġfactory", "3981": "seum", "3982": "Ġmay", "3983": "Ġward", "3984": "ately", "3985": "Ġcardboard", "3986": "ugged", "3987": "Ġlotion", "3988": "Al", "3989": "Ġmessage", "3990": "Ġvalu", "3991": "Ġwardrobe", "3992": "Ġcell", "3993": "Ġmuseum", "3994": "apers", "3995": "Ġur", "3996": "ination", "3997": "Ġhanging", "3998": "ucet", "3999": "ailable", "4000": "ĠSunny", "4001": "ĠZoom", "4002": "Ġhive", "4003": "eer", "4004": "Ġtowers", "4005": "keeper", "4006": "Ġblackboard", "4007": "Ġmem", "4008": "Ġexcitement", "4009": "Ġcoffee", "4010": "Ġpilot", "4011": "ready", "4012": "Fluffy", "4013": "Ġnapkin", "4014": "Ġpenguin", "4015": "ron", "4016": "Ġcheck", "4017": "Ġreward", "4018": "loo", "4019": "Ġquit", "4020": "ĠPippin", "4021": "Ġcane", "4022": "Ġpicking", "4023": "place", "4024": "ĠSnow", "4025": "azor", "4026": "Ġfaucet", "4027": "Ġig", "4028": "Ġpassport", "4029": "ĠRob", "4030": "Ġstumbled", "4031": "Ġdreamed", "4032": "Ġigloo", "4033": "ĠBessie", "4034": "aroo", "4035": "angaroo", "4036": "Ġfreez", "4037": "Ġjuicy", "4038": "Ġallowed", "4039": "play", "4040": "Ġholds", "4041": "Ġalready", "4042": "Ġavailable", "4043": "Ġsett", "4044": "Ġbathe", "4045": "Ġtornado", "4046": "imney", "4047": "Ġfingers", "4048": "htray", "4049": "Ġhanger", "4050": "Ġnewsp", "4051": "Ġsize", "4052": "Ġlaund", "4053": "Ġlend", "4054": "Ġchimney", "4055": "Ġlaundry", "4056": "Ġoak", "4057": "Ġfisher", "4058": "Ġkangaroo", "4059": "Ġmen", "4060": "ĠEverywhere", "4061": "Ġtelling", "4062": "Em", "4063": "Ġnovel", "4064": "body", "4065": "Ġmummy", "4066": "Ġpal", "4067": "Ġmule", "4068": "Ġcherries", "4069": "Ġnotice", "4070": "Ġpractice", "4071": "Ġspilled", "4072": "Ġreind", "4073": "Ġcomplete", "4074": "Ġenjoying", "4075": "Ġmicroscope", "4076": "arian", "4077": "ampoo", "4078": "Ġgain", "4079": "Ġsub", "4080": "Ġfireplace", "4081": "Ġimagine", "4082": "anda", "4083": "Ġdisplay", "4084": "ocer", "4085": "ĠZip", "4086": "Ġfastest", "4087": "Ġmagazine", "4088": "Ġhurry", "4089": "Ġcabinet", "4090": "Ġshrink", "4091": "Ġashtray", "4092": "Wait", "4093": "Ġcows", "4094": "ĠSpike", "4095": "Joe", "4096": "gen", "4097": "Ġpalace", "4098": "Ġimprove", "4099": "aches", "4100": "Ġrake", "4101": "Ġreindeer", "4102": "Ġfalling", "4103": "oceros", "4104": "Ġskirt", "4105": "ured", "4106": "Ġdiscovered", "4107": "Ġstared", "4108": "Ġroared", "4109": "aid", "4110": "Ġsilver", "4111": "Ġtub", "4112": "Ġtrail", "4113": "Is", "4114": "Ġminer", "4115": "come", "4116": "Ġbill", "4117": "iction", "4118": "Ġfog", "4119": "Ġax", "4120": "stairs", "4121": "ilet", "4122": "Ġhut", "4123": "Ġhappier", "4124": "Ġtaller", "4125": "ictionary", "4126": "Ġoats", "4127": "Ġfisherman", "4128": "Ġobject", "4129": "Ġpor", "4130": "vision", "4131": "Ġvaluable", "4132": "Ġshampoo", "4133": "Ġholes", "4134": "Ġoffered", "4135": "Ġboots", "4136": "Ġrhinoceros", "4137": "Ġnames", "4138": "Ġtoilet", "4139": "Ġclimbing", "4140": "Ġblin", "4141": "vice", "4142": "Ow", "4143": "Ġstretched", "4144": "iest", "4145": "Ġzipper", "4146": "Ġlistening", "4147": "Ġsym", "4148": "Ġbathrobe", "4149": "alend", "4150": "Ġjewelry", "4151": "ĠHere", "4152": "Ġjokes", "4153": "Ġtelevision", "4154": "Ġprov", "4155": "Ġcalend", "4156": "Ġstops", "4157": "Ġaxe", "4158": "Ġjumps", "4159": "Ġfuel", "4160": "cu", "4161": "Ġsparkly", "4162": "Ġperfume", "4163": "ĠSusie", "4164": "Ġbury", "4165": "bol", "4166": "Mummy", "4167": "lu", "4168": "Ġpressed", "4169": "ĠKim", "4170": "reek", "4171": "Ġrece", "4172": "fa", "4173": "ĠToby", "4174": "Ġneat", "4175": "Ġcreek", "4176": "Ġpopped", "4177": "Ġopera", "4178": "Ġcalendar", "4179": "Ġsnap", "4180": "Ġgasped", "4181": "Ġattach", "4182": "Ġsymbol", "4183": "Ġtuna", "4184": "ĠMar", "4185": "Ġpapers", "4186": "Mr", "4187": "Ġunpack", "4188": "Ġresist", "4189": "Ġdictionary", "4190": "Ġsubway", "4191": "Ġletters", "4192": "Ġfreezer", "4193": "Ġchose", "4194": "Ġpinch", "4195": "zag", "4196": "Ġspoke", "4197": "Ġanyway", "4198": "Ġsuper", "4199": "Ġporch", "4200": "Ġhelper", "4201": "affe", "4202": "Ġbikes", "4203": "Ġlie", "4204": "arry", "4205": "iches", "4206": "Ġtightly", "4207": "Ġcomfort", "4208": "Ġshaking", "4209": "Ġbookcase", "4210": "Ġson", "4211": "Ġrazor", "4212": "aurant", "4213": "Ġsandwiches", "4214": "ĠAre", "4215": "igzag", "4216": "Ġweigh", "4217": "Ġagainst", "4218": "Ġstickers", "4219": "Ġrestaurant", "4220": "Ġnewspaper", "4221": "Ġblouse", "4222": "Ġvehicle", "4223": "Ġswinging", "4224": "Ġped", "4225": "Ġdisag", "4226": "Ġnature", "4227": "Ġsquirrels", "4228": "ival", "4229": "Ġbelongs", "4230": "Ġswamp", "4231": "Ġbutterflies", "4232": "Ġgym", "4233": "del", "4234": "Ġinclu", "4235": "Ġgrowing", "4236": "Ġbuckle", "4237": "omed", "4238": "Ġstirred", "4239": "Ġmustache", "4240": "Ġbillboard", "4241": "xy", "4242": "Ġbeep", "4243": "te", "4244": "Ġalarm", "4245": "Ġlightning", "4246": "Ġlip", "4247": "Ġfest", "4248": "Ġhung", "4249": "utor", "4250": "Ġdistance", "4251": "ogn", "4252": "Ġcards", "4253": "Ġobser", "4254": "Ġagree", "4255": "Little", "4256": "Ġext", "4257": "Ġtease", "4258": "Ġrecogn", "4259": "Ġrubber", "4260": "ik", "4261": "Ġhate", "4262": "fast", "4263": "ef", "4264": "Ouch", "4265": "Ġdoesn", "4266": "Ġmusician", "4267": "Ġadvice", "4268": "Ġbeef", "4269": "Ġserve", "4270": "aspoon", "4271": "Ġsweetie", "4272": "Ġmodel", "4273": "lter", "4274": "Ġcrib", "4275": "Ġblueberries", "4276": "Ġsofa", "4277": "Ġcircles", "4278": "Ġbreakfast", "4279": "Ġtutor", "4280": "asis", "4281": "Ġbookshe", "4282": "Ġgiraffe", "4283": "stri", "4284": "Ġfestival", "4285": "Ġseparate", "4286": "Ġshelter", "4287": "Ġgas", "4288": "Ġairport", "4289": "Ġolive", "4290": "Ġrail", "4291": "Ġbookshelf", "4292": "Ġfrogs", "4293": "Ġteaspoon", "4294": "Ġreverse", "4295": "Ġjunk", "4296": "Ġriding", "4297": "Ġpleased", "4298": "Ġdrain", "4299": "ĠMrs", "4300": "Ġwipe", "4301": "Ġoasis", "4302": "Ġsoil", "4303": "Ġahead", "4304": "Ġrescue", "4305": "Ġleaving", "4306": "ummer", "4307": "Ġpainter", "4308": "Ġsqueeze", "4309": "Ġchance", "4310": "Ġpoked", "4311": "Ġknob", "4312": "ĠTeddy", "4313": "Ġpeeked", "4314": "Ġlumber", "4315": "Ġtrains", "4316": "Ġextra", "4317": "Ġslipp", "4318": "Ġquiz", "4319": "Ġrefused", "4320": "res", "4321": "rmomet", "4322": "Ġpage", "4323": "Ġrules", "4324": "Ġhappens", "4325": "Ġsounded", "4326": "Ġins", "4327": "Ġpoint", "4328": "Ġwinter", "4329": "Ġdancer", "4330": "ĠGrandpa", "4331": "Ġbirdc", "4332": "Ġdisappear", "4333": "rmometer", "4334": "ĠDolly", "4335": "Ġweather", "4336": "Ġwaste", "4337": "Ġlic", "4338": "Ġbirdcage", "4339": "Ġtheater", "4340": "Ġreef", "4341": "Ġcarrying", "4342": "Daisy", "4343": "Ġinvite", "4344": "iform", "4345": "Ġgoal", "4346": "Ġostri", "4347": "Ġuniform", "4348": "Ġswung", "4349": "Ġtrade", "4350": "Ġcliff", "4351": "ience", "4352": "Ġlawn", "4353": "ola", "4354": "Ġleaned", "4355": "ĠPandy", "4356": "angu", "4357": "Ġaccept", "4358": "Ġadmire", "4359": "Ġfort", "4360": "Ġaccidentally", "4361": "Ġpastel", "4362": "bbles", "4363": "Ġstom", "4364": "Ġlangu", "4365": "Ġtwir", "4366": "Ġsuff", "4367": "Ġpanda", "4368": "riger", "4369": "Ġbet", "4370": "rigerator", "4371": "Ġpeek", "4372": "render", "4373": "Ġblinked", "4374": "Ġstarts", "4375": "na", "4376": "Ġrefrigerator", "4377": "Ġanywhere", "4378": "!\".", "4379": "Ġimagined", "4380": "Ġdreaming", "4381": "Ġremove", "4382": "night", "4383": "Ġshower", "4384": "ĠLee", "4385": "ĠCo", "4386": "Ġclassroom", "4387": "Ġceiling", "4388": "Ġcaring", "4389": "ium", "4390": "Ġgrand", "4391": "Ġmissing", "4392": "aked", "4393": "Ġlicense", "4394": "Ġstable", "4395": "Ġthermometer", "4396": "Ġmonkeys", "4397": "astic", "4398": "Ġwarned", "4399": "Ġsummer", "4400": "ĠWhere", "4401": "Ġabove", "4402": "Ġbrick", "4403": "ected", "4404": "Ġcudd", "4405": "Ġproblems", "4406": "amber", "4407": "Ġchasing", "4408": "Ġlabel", "4409": "Ġapron", "4410": "Ġsent", "4411": "urnit", "4412": "urniture", "4413": "Ġlawy", "4414": "Ġlid", "4415": "uggage", "4416": "med", "4417": "Ġrespectful", "4418": "Ġfurniture", "4419": "Ġfrowned", "4420": "Ġzoomed", "4421": "Ġpages", "4422": "Ġprevent", "4423": "Ġbent", "4424": "Ġluggage", "4425": "Ġmistakes", "4426": "Ġsunset", "4427": "Ġostrich", "4428": "ison", "4429": "Ġsuggested", "4430": "Ġwindows", "4431": "ations", "4432": "Ġjail", "4433": "low", "4434": "Ġwine", "4435": "Ġribbon", "4436": "Ġolder", "4437": "Ġshouts", "4438": "Ġgrape", "4439": "ĠCl", "4440": "Ġwigg", "4441": "ucture", "4442": "Ġstructure", "4443": "Ġspoil", "4444": "eor", "4445": "Ġfixing", "4446": "Ġchamber", "4447": "Ġlions", "4448": "Ġdelay", "4449": "Ġfinds", "4450": "Ġhanded", "4451": "Ġsearching", "4452": "Ġunite", "4453": "Did", "4454": "Ġfought", "4455": "Ġlawyer", "4456": "Ġbrightly", "4457": "Ġpair", "4458": "Ġmeeting", "4459": "Ġchoice", "4460": "Ġsurprises", "4461": "ĠEllie", "4462": "Ġart", "4463": "ĠUn", "4464": "Ch", "4465": "Ġfavour", "4466": "eterin", "4467": "eterinarian", "4468": "adium", "4469": "Ġstadium", "4470": "Ġproudly", "4471": "iki", "4472": "Ġveterinarian", "4473": "vet", "4474": "rod", "4475": "Ġchairs", "4476": "Ġslip", "4477": "ĠSpe", "4478": "Ġsadly", "4479": "ĠBow", "4480": "Ġincre", "4481": "ĠCarl", "4482": "Ġpuddles", "4483": "Ġberry", "4484": "Ġintrod", "4485": "Ġranch", "4486": "veal", "4487": "ĠBoun", "4488": "Ġargue", "4489": "ĠV", "4490": "Ġadmired", "4491": "Ġcur", "4492": "Ġfavourite", "4493": "Your", "4494": "Ġinf", "4495": "Ġexcitedly", "4496": "Ġrac", "4497": "Ġgrabs", "4498": "mend", "4499": "Ġsteam", "4500": "thank", "4501": "Ġhuman", "4502": "eorge", "4503": "sity", "4504": "ĠHel", "4505": "Ġpushing", "4506": "Ġsaving", "4507": "ĠRed", "4508": "Ġreveal", "4509": "ommend", "4510": "alley", "4511": "Ġyield", "4512": "olog", "4513": "Ġmall", "4514": "Ġreminded", "4515": "Ġrecommend", "4516": "Ġleak", "4517": "Ġsurrender", "4518": "Ġharb", "4519": "Ġappl", "4520": "cuss", "4521": "aul", "4522": "Ġweap", "4523": "Ġregret", "4524": "Ġputting", "4525": "Ġvalley", "4526": "Ġmineral", "4527": "Ġevening", "4528": "elcome", "4529": "Ġmatches", "4530": "Ġforgave", "4531": "Ġsneezed", "4532": "Ġpup", "4533": "Ġaw", "4534": "Ġrushed", "4535": "ecause", "4536": "Ġspade", "4537": "Ġapolog", "4538": "Ġplates", "4539": "Ġdiscuss", "4540": "Ġprepare", "4541": "Ġharbor", "4542": "Ġignore", "4543": "ĠBig", "4544": "Ġcountry", "4545": "Ġlanguage", "4546": "ĠBuzzy", "4547": "Ġpulls", "4548": "Ġplastic", "4549": "Ġsupply", "4550": "Ġfloat", "4551": "Ġsniffed", "4552": "ĠJazz", "4553": "Ġreplace", "4554": "Ġmeas", "4555": "Ġshovel", "4556": "ĠBill", "4557": "Ġraise", "4558": "ĠNext", "4559": "Ġfre", "4560": "Ġcared", "4561": "Ġsocks", "4562": "Ġstrip", "4563": "Ġdoors", "4564": "Ġmystery", "4565": "Ġlives", "4566": "Ġrestore", "4567": "Ġsticker", "4568": "Ġsudden", "4569": "ari", "4570": "Ġkinds", "4571": "Ġslippery", "4572": "ero", "4573": "ĠOw", "4574": "Ġplayer", "4575": "Ġpanic", "4576": "ricane", "4577": "Ġhoping", "4578": "iday", "4579": "Ġshone", "4580": "lex", "4581": "hero", "4582": "Ġbeg", "4583": "ĠMike", "4584": "ĠBinky", "4585": "Ġsuperhero", "4586": "Ġdelighted", "4587": "Ġgro", "4588": "Yay", "4589": "aud", "4590": "chan", "4591": "Ġchickens", "4592": "Ġshoulder", "4593": "Ġrained", "4594": "Ġcolourful", "4595": "Ġbreat", "4596": "ĠAlice", "4597": "Ġclaw", "4598": "ĠBubbles", "4599": "Yuck", "4600": "Ġsoftly", "4601": "rise", "4602": "Ġport", "4603": "Grandma", "4604": "Ġhol", "4605": "icer", "4606": "Ġholiday", "4607": "ĠâĢ", "4608": "Ġbarks", "4609": "ason", "4610": "Ġthrowing", "4611": "Ġplanes", "4612": "Mary", "4613": "Ġbend", "4614": "ĠFreddy", "4615": "Ġshakes", "4616": "Ġinfant", "4617": "Ġended", "4618": "Ġshivering", "4619": "Ġkneel", "4620": "Ġsunrise", "4621": "Ġpushes", "4622": "ĠOlive", "4623": "Ġthanks", "4624": "Ġfresh", "4625": "Ġsuffer", "4626": "Ġpoints", "4627": "imed", "4628": "wards", "4629": "ĠPat", "4630": "Ġtip", "4631": "ĠSpeedy", "4632": "Ġfreeze", "4633": "Ġkeeping", "4634": "ĠWould", "4635": "Ġgiggle", "4636": "Ġcopper", "4637": "Ġsmells", "4638": "Ġdear", "4639": "Ġenter", "4640": "Ġprovide", "4641": "cast", "4642": "chanic", "4643": "Ġdishes", "4644": "ĠEnd", "4645": "cond", "4646": "Ġunh", "4647": "Next", "4648": "Ġapplaud", "4649": "Ġheads", "4650": "Ġhurricane", "4651": "Ġcherry", "4652": "Ġthumb", "4653": "Ġmenu", "4654": "Ġmeowed", "4655": "Ġmass", "4656": "Ġsecond", "4657": "Ġbrighter", "4658": "ince", "4659": "Ġsandcast", "4660": "Ġmechanic", "4661": "Ġwre", "4662": "Ġsprayed", "4663": "Ġletting", "4664": "Ġevent", "4665": "Ġweapon", "4666": "Ġlaught", "4667": "Ġx", "4668": "Ġlaughter", "4669": "Ġclapping", "4670": "Ġfeelings", "4671": "Will", "4672": "icky", "4673": "Ġsplashing", "4674": "ement", "4675": "ĠOr", "4676": "acked", "4677": "Ġcastles", "4678": "ĠFl", "4679": "cer", "4680": "Ġscore", "4681": "apping", "4682": "Ġuniverse", "4683": "Ġnavy", "4684": "Ġdem", "4685": "Ġsticky", "4686": "ophie", "4687": "Ġrooms", "4688": "Ġrow", "4689": "Ġflies", "4690": "igi", "4691": "ĠDave", "4692": "Ġunhappy", "4693": "Ġgreedy", "4694": "Ġdare", "4695": "Ġalive", "4696": "Ġbreaks", "4697": "Ġener", "4698": "Ġcourage", "4699": "Ġinvit", "4700": "Ready", "4701": "Ġrepeat", "4702": "Ġdemand", "4703": "Ġtrusted", "4704": "Lisa", "4705": "Ġsomewhere", "4706": "arlie", "4707": "Ġprune", "4708": "bles", "4709": "Ġwreck", "4710": "ĠY", "4711": "Ġskill", "4712": "Ġexamine", "4713": "Ġparts", "4714": "year", "4715": "Ġeaten", "4716": "oe", "4717": "All", "4718": "erc", "4719": "enry", "4720": "Ġmention", "4721": "Ġraining", "4722": "ĠHelp", "4723": "Buddy", "4724": "Ġthrows", "4725": "Ġjogged", "4726": "quest", "4727": "Ġstarting", "4728": "Ġrush", "4729": "Ġpoison", "4730": "Ġpirates", "4731": "heart", "4732": "Ġvac", "4733": "Ġcontent", "4734": "Emma", "4735": "ĠKiki", "4736": "Ġsigh", "4737": "Ġflapped", "4738": "Ġdrops", "4739": "Ġchirp", "4740": "Ġsport", "4741": "Qu", "4742": "Ġsparkled", "4743": "ĠZoomy", "4744": "Ġgiven", "4745": "Ġstreng", "4746": "Ġsteel", "4747": "Ann", "4748": "Ġbumped", "4749": "Ġyawned", "4750": "Ġstud", "4751": "Ġrequest", "4752": "Ġscold", "4753": "Ġmyself", "4754": "Ġstrength", "4755": "Ġshrugged", "4756": "Mark", "4757": "Ġcoats", "4758": "Ġpunish", "4759": "Ġequ", "4760": "Ġsnugg", "4761": "Ġuniversity", "4762": "Ġpaid", "4763": "ĠJohnny", "4764": "Ġpigs", "4765": "Ġscratch", "4766": "Ġtoe", "4767": "Ġexerc", "4768": "Ġtracks", "4769": "Ġupstairs", "4770": "Ġprayed", "4771": "Ġcrossed", "4772": "Ġsqueezed", "4773": "Ġimpressed", "4774": "Ġflood", "4775": "Ġbouncing", "4776": "ĠRu", "4777": "Alice", "4778": "Ġrabbits", "4779": "ges", "4780": "Ġbadly", "4781": "..", "4782": "Ġwarn", "4783": "Ġleather", "4784": "Ġexpect", "4785": "Ġnews", "4786": "Ġtide", "4787": "ĠTed", "4788": "Ġminute", "4789": "Ġbears", "4790": "Ġclaws", "4791": "Ġbuzz", "4792": "Ġsweetheart", "4793": "ĠSm", "4794": "yth", "4795": "Ġnation", "4796": "Sh", "4797": "ythm", "4798": "Ġvacation", "4799": "Ġhist", "4800": "Ġheat", "4801": "Ġstrawberries", "4802": "Ġobserve", "4803": "Ġexplored", "4804": "Ġsettle", "4805": "Ġsandcastle", "4806": "Ġyawn", "4807": "Ġhistory", "4808": "ĠLilly", "4809": "ĠLola", "4810": "mare", "4811": "ĠMummy", "4812": "ĠSque", "4813": "ially", "4814": "inking", "4815": "Ġbelieved", "4816": "Ġhorses", "4817": "Daddy", "4818": "ĠHoppy", "4819": "Ġchecked", "4820": "ĠMandy", "4821": "Ġtour", "4822": "Ġnetwork", "4823": "Ġcheek", "4824": "ĠUnder", "4825": "Ġoffer", "4826": "Ġeasily", "4827": "Ġplaced", "4828": "spec", "4829": "Ġspots", "4830": "Ġsnowball", "4831": "ween", "4832": "men", "4833": "Ġenergy", "4834": "ĠBee", "4835": "Ġimagination", "4836": "Ġblueberry", "4837": "otten", "4838": "Ġbetween", "4839": "specially", "4840": "ĠGigi", "4841": "izes", "4842": "Ġdaisy", "4843": "Ġwaving", "4844": "reeze", "4845": "reat", "4846": "Ġvroom", "4847": "Ġsoak", "4848": "Ġsafari", "4849": "Ġrhythm", "4850": "Ġmassage", "4851": "Ġstomach", "4852": "Ġbaking", "4853": "quake", "4854": "Ġnightmare", "4855": "Ġinsisted", "4856": "Ġblowing", "4857": "Ġentered", "4858": "Before", "4859": "Ġstair", "4860": "Ġpalm", "4861": "Ġbeauty", "4862": "Ġtwisted", "4863": "Ġbother", "4864": "Ġwriting", "4865": "Ġscoop", "4866": "Ġprunes", "4867": "Ġbrain", "4868": "Ġing", "4869": "ipment", "4870": "Ġpoppy", "4871": "Ġhills", "4872": "noon", "4873": "Ġafternoon", "4874": "Ġequipment", "4875": "Ġespecially", "4876": "hest", "4877": "Ġsir", "4878": "Ġpad", "4879": "ĠSee", "4880": "Ġingred", "4881": "Ġcalls", "4882": "Ġingredient", "4883": "ĠFox", "4884": "Ġearthquake", "4885": "Ġignored", "4886": "ĠSnowy", "4887": "Ġburned", "4888": "Ġnobody", "4889": "mble", "4890": "Ġsty", "4891": "apa", "4892": "Ġsew", "4893": "Ġtug", "4894": "isty", "4895": "xygen", "4896": "Ġhearts", "4897": "Ġlear", "4898": "Ġlearnt", "4899": "Ġlemonade", "4900": "Ġincrease", "4901": "illie", "4902": "Jenny", "4903": "Ġgaz", "4904": "Ġbackpack", "4905": "Ġmailman", "4906": "Ġwhistled", "4907": "Ġpedal", "4908": "ĠSk", "4909": "Fred", "4910": "Ġshopkeeper", "4911": "ffic", "4912": "Ġpermit", "4913": "Ġtremble", "4914": "Ġyucky", "4915": "anges", "4916": "Ġmoves", "4917": "Ġintroduce", "4918": "Ġlemons", "4919": "Ġcrash", "4920": "Ġbeans", "4921": "Ġfloated", "4922": "edn", "4923": "ednesday", "4924": "ittens", "4925": "Welcome", "4926": "Ġplanned", "4927": "Ġstrike", "4928": "Ġtraffic", "4929": "Ġinclude", "4930": "Ġslap", "4931": "Ġracing", "4932": "ĠLucky", "4933": "resses", "4934": "Ġwisdom", "4935": "Ġpur", "4936": "Ġwags", "4937": "ĠFinny", "4938": "laimed", "4939": "ĠGeorge", "4940": "Ġluck", "4941": "Ġfollowing", "4942": "ĠĊ", "4943": "Ġprice", "4944": "ecting", "4945": "Ġmama", "4946": "Ġpitch", "4947": "Ġbelow", "4948": "ĠElly", "4949": "ĠHave", "4950": "Le", "4951": "Ġweight", "4952": "Ġexclaimed", "4953": "house", "4954": "Ġburied", "4955": "Ġfollows", "4956": "Ġcomf", "4957": "Ġrecognize", "4958": "Ġingredients", "4959": "Ġfurt", "4960": "tain", "4961": "Ġcandles", "4962": "Mimi", "4963": "Ġmarbles", "4964": "riage", "4965": "unday", "4966": "emember", "4967": "eration", "4968": "ĠAlex", "4969": "Ġapart", "4970": "ĠWednesday", "4971": "Ġgrowled", "4972": "uct", "4973": "ĠSu", "4974": "ores", "4975": "Ġconf", "4976": "Ġteaching", "4977": "Ġhopes", "4978": "Ġfolded", "4979": "Ġclosely", "4980": "ĠFinn", "4981": "ĠWho", "4982": "Ġheel", "4983": "ĠSunday", "4984": "Ġencourage", "4985": "ĠPaul", "4986": "ĠOwl", "4987": "Ġzigzag", "4988": "Ġpulling", "4989": "Ġdigg", "4990": "Ġbouncy", "4991": "Ġfurther", "4992": "Ġchewed", "4993": "Ġdigging", "4994": "Ġwinning", "4995": "Woof", "4996": "With", "4997": "Ġdresses", "4998": "Ġimage", "4999": "rec", "5000": "cery", "5001": "Ġshouting", "5002": "Ġgrocery", "5003": "Ġtwisty", "5004": "Ġpeanuts", "5005": "Ġpuzzles", "5006": "bbing", "5007": "ĠDog", "5008": "look", "5009": "Ġscrat", "5010": "Ġchores", "5011": "Ġwhisper", "5012": "ĠIs", "5013": "Ġspike", "5014": "ĠFroggy", "5015": "Ġcape", "5016": "Ġsnail", "5017": "Ġacorns", "5018": "Ġworms", "5019": "hood", "5020": "Ġdeeper", "5021": "Ġurge", "5022": "ifi", "5023": "Ġexper", "5024": "ĠWhenever", "5025": "ĠTilly", "5026": "ĠSqueaky", "5027": "ĠGrace", "5028": "Ġplanted", "5029": "Ġattention", "5030": "ecture", "5031": "Ġexercise", "5032": "ĠDanny", "5033": "Ġcub", "5034": "Ġoperation", "5035": "Ġunderground", "5036": "Ġhon", "5037": "Ġagre", "5038": "Ġquite", "5039": "Ġcreatures", "5040": "Ġsimp", "5041": "Everyone", "5042": "Ġstruggle", "5043": "oral", "5044": "ĠMittens", "5045": "ddy", "5046": "Ġblood", "5047": "Ġlecture", "5048": "Ġwashing", "5049": "Ġhurting", "5050": "Ġvanished", "5051": "Ġgifts", "5052": "Ġdressed", "5053": "Ġinvitation", "5054": "Ġsolved", "5055": "Ġlicks", "5056": "Ġsnuggled", "5057": "ĠSharing", "5058": "ippy", "5059": "Ġble", "5060": "Ġmarriage", "5061": "Ġquietly", "5062": "gie", "5063": "Ġwarning", "5064": "Ġjazz", "5065": "Ġbreathe", "5066": "reci", "5067": "Ġelephants", "5068": "Ġsizes", "5069": "Ġdried", "5070": "Ġfallen", "5071": "Ġlandscape", "5072": "ories", "5073": "Ġsprink", "5074": "Ġneighbour", "5075": "Ġmice", "5076": "uesday", "5077": "Ġappreci", "5078": "ĠSophie", "5079": "ĠJoey", "5080": "ĠâĢĵ", "5081": "Ġeagerly", "5082": "Ġsailing", "5083": "ĠCoco", "5084": "Ġpaused", "5085": "ips", "5086": "Ġcounter", "5087": "ĠGood", "5088": "ĠBounce", "5089": "ĠPenny", "5090": "Ġworth", "5091": "looking", "5092": "ĠRock", "5093": "Ġoxygen", "5094": "Because", "5095": "Ġrelease", "5096": "Ġshined", "5097": "Not", "5098": "pted", "5099": "Ġreaches", "5100": "Ġbalan", "5101": "ĠZara", "5102": "isses", "5103": "Ġoh", "5104": "Ġkisses", "5105": "Ġstyle", "5106": "Ġbricks", "5107": "Ġplays", "5108": "Ġglo", "5109": "ĠTuesday", "5110": "Ġideas", "5111": "sed", "5112": "Ġinst", "5113": "Ġwob", "5114": "Ġfireworks", "5115": "Bella", "5116": "iggly", "5117": "ucked", "5118": "Ġseeing", "5119": "Ġflap", "5120": "ops", "5121": "Ġaccepted", "5122": "right", "5123": "ĠPip", "5124": "Today", "5125": "Ġblink", "5126": "mm", "5127": "ĠRos", "5128": "Ġtremb", "5129": "These", "5130": "Ġmuddy", "5131": "Ġmemory", "5132": "Ġmarried", "5133": "Ġtomatoes", "5134": "Ġexit", "5135": "ĠAnnie", "5136": "Ġwagging", "5137": "Ġfash", "5138": "Remy", "5139": "ĠCharlie", "5140": "Ġwandered", "5141": "unately", "5142": "ipping", "5143": "Ġgloves", "5144": "Ġcaptain", "5145": "Ġpillows", "5146": "Ġreceive", "5147": "Ġresp", "5148": "ĠPinky", "5149": "raged", "5150": "Ġduring", "5151": "ĠEverything", "5152": "etch", "5153": "Ġweb", "5154": "Ġpetals", "5155": "Ġwatered", "5156": "ĠEventually", "5157": "Ġsi", "5158": "ived", "5159": "Ġmanage", "5160": "Ġpinched", "5161": "Ġbrings", "5162": "Ġvanish", "5163": "Ġcakes", "5164": "Ġfashion", "5165": "ĠBluey", "5166": "Ġprinter", "5167": "Ġdestroyed", "5168": "Ġtreasures", "5169": "nce", "5170": "Ġallow", "5171": "ups", "5172": "Ġhadn", "5173": "Ġworse", "5174": "ĠFifi", "5175": "Surpr", "5176": "Ġvel", "5177": "Ġhits", "5178": "Ġbur", "5179": "xu", "5180": "Ġvelvet", "5181": "Ġappear", "5182": "Ġdisagree", "5183": "do", "5184": "Ġcatching", "5185": "Ġscattered", "5186": "ĠRo", "5187": "Ġmemories", "5188": "Ġsorts", "5189": "ĠPapa", "5190": "Ġhers", "5191": "Ġscolded", "5192": "Ġsigns", "5193": "Ġpears", "5194": "Ġoranges", "5195": "Ġbones", "5196": "Ġrang", "5197": "Ġsnapped", "5198": "Ġsits", "5199": "Ġseats", "5200": "uxu", "5201": "Ġgazed", "5202": "Ġraised", "5203": "Bl", "5204": "ĠMaria", "5205": "Ġzipped", "5206": "Ġpies", "5207": "Ġprints", "5208": "Ġshot", "5209": "Ġsliding", "5210": "ĠGod", "5211": "Ġfro", "5212": "Ġeasier", "5213": "ssible", "5214": "Ġskills", "5215": "Ġclimbs", "5216": "Ġtwirled", "5217": "ccer", "5218": "Ġblankets", "5219": "Ġforgotten", "5220": "Ġbaked", "5221": "ester", "5222": "Yum", "5223": "esterday", "5224": "Ġdifference", "5225": "orted", "5226": "Ġluxu", "5227": "Ġgolden", "5228": "ising", "5229": "Ġkitty", "5230": "ĠTw", "5231": "Ġcutting", "5232": "Ġseason", "5233": "aggie", "5234": "Ġnowhere", "5235": "Ġcrow", "5236": "ah", "5237": "Ġsoccer", "5238": "Ġdared", "5239": "Ġbites", "5240": "ĠHenry", "5241": "ĠHarry", "5242": "anny", "5243": "Ġlung", "5244": "Ġcelebrated", "5245": "choo", "5246": "chie", "5247": "Ġstraight", "5248": "Ġunlocked", "5249": "sters", "5250": "Ġsorting", "5251": "Ġcollected", "5252": "Ġbleed", "5253": "aped", "5254": "ding", "5255": "Ġwelcomed", "5256": "Ġvisited", "5257": "Ġspoons", "5258": "Ġours", "5259": "Ġstitch", "5260": "Ġjogging", "5261": "Surprise", "5262": "medi", "5263": "Ġemer", "5264": "ĠSpark", "5265": "mediately", "5266": "Ġisn", "5267": "Ġtong", "5268": "Ġtrave", "5269": "Ġwinner", "5270": "umble", "5271": "Ġsince", "5272": "Ġruin", "5273": "Ġprett", "5274": "Ok", "5275": "Moral", "5276": "ĠTony", "5277": "Ġattached", "5278": "Ġweeping", "5279": "Ġmarching", "5280": "Ġluxury", "5281": "Ġsimple", "5282": "ĠEach", "5283": "Ġshouldn", "5284": "Ġguessed", "5285": "Ġzero", "5286": "Ġcreated", "5287": "Ġstuffed", "5288": "Ġpets", "5289": "ction", "5290": "Ġwaist", "5291": "Ġfamil", "5292": "Ġurged", "5293": "Ġbowed", "5294": "Ġselling", "5295": "Ġfloating", "5296": "rr", "5297": "ĠSmith", "5298": "Ġbye", "5299": "ĠKing", "5300": "Ġvict", "5301": "Ġkingdom", "5302": "Ġolives", "5303": "Ġkicking", "5304": "ĠWiggly", "5305": "Ġpunished", "5306": "ĠLiz", "5307": "ĠBaby", "5308": "sit", "5309": "Ġtoes", "5310": "Ġgrant", "5311": "Ġmuscles", "5312": "Ġjewels", "5313": "ĠRosie", "5314": "Ġbeds", "5315": "Ġmelted", "5316": "Goodbye", "5317": "Ġslice", "5318": "Ġgrin", "5319": "Ġunderstanding", "5320": "Ġcollection", "5321": "Ġtore", "5322": "Ġmeasured", "5323": "aker", "5324": "Ġcras", "5325": "omeday", "5326": "iers", "5327": "Ġtrapped", "5328": "Ġlined", "5329": "'ve", "5330": "Ġacted", "5331": "fortunately", "5332": "Ġencouraged", "5333": "va", "5334": "ĠSandy", "5335": "Ġreceived", "5336": "Ġwaffles", "5337": "ĠBefore", "5338": "ĠWally", "5339": "Ġwest", "5340": "Ġmeow", "5341": "ents", "5342": "Ġpatterns", "5343": "rin", "5344": "ino", "5345": "Ġbrus", "5346": "eath", "5347": "Ġmouths", "5348": "kins", "5349": "Ġbang", "5350": "ring", "5351": "ĠKate", "5352": "Meow", "5353": "Ġpeaches", "5354": "Ġbreeze", "5355": "aded", "5356": "une", "5357": "Ġprinted", "5358": "Ġsoldiers", "5359": "Ġsomeday", "5360": "Ġpotatoes", "5361": "Ġpupil", "5362": "umes", "5363": "ĠMillie", "5364": "Ġdrinks", "5365": "Ġshed", "5366": "Ġexperience", "5367": "ĠTuna", "5368": "Ġpresents", "5369": "Ġfiref", "5370": "ĠRuby", "5371": "Ġsurround", "5372": "Ġnone", "5373": "osed", "5374": "Ġvoices", "5375": "eep", "5376": "Ġdrinking", "5377": "ĠUncle", "5378": "ishing", "5379": "Ġrelaxed", "5380": "Ġvictory", "5381": "cus", "5382": "Ġpaints", "5383": "Ġbreaking", "5384": "eve", "5385": "Ġhurried", "5386": "ission", "5387": "Ġtwink", "5388": "Ġtongue", "5389": "Ġcostumes", "5390": "Ġflat", "5391": "Ġmentioned", "5392": "Ġbegged", "5393": "Ġteasing", "5394": "Ġwhistling", "5395": "Ġfetch", "5396": "Ġpermission", "5397": "Ġsip", "5398": "Ġdisagreed", "5399": "Ġpearl", "5400": "akes", "5401": "Ġstro", "5402": "vest", "5403": "ĠThese", "5404": "Ġesc", "5405": "Ġappro", "5406": "Ġskipping", "5407": "Ġfishing", "5408": "ĠMay", "5409": "Leo", "5410": "Ġhighest", "5411": "Ġpra", "5412": "Ġwatches", "5413": "Ġsorted", "5414": "Ġringing", "5415": "ship", "5416": "Ġtonight", "5417": "ĠBo", "5418": "Ġopin", "5419": "Ġlets", "5420": "icing", "5421": "ĠQu", "5422": "Ġperfectly", "5423": "Ġshadows", "5424": "Ġimmediately", "5425": "Ġherbs", "5426": "Ġwarmth", "5427": "Ġspit", "5428": "Ġremained", "5429": "ther", "5430": "ĠIts", "5431": "walk", "5432": "Bobby", "5433": "irring", "5434": "Jen", "5435": "Ġsneak", "5436": "Ġsix", "5437": "Ġlips", "5438": "Ġkneeled", "5439": "Blue", "5440": "Ġcontest", "5441": "ĠChe", "5442": "utter", "5443": "Ġcartoons", "5444": "Ġsidewalk", "5445": "Ġcolours", "5446": "Ġstamps", "5447": "Ġago", "5448": "Ha", "5449": "ĠToto", "5450": "ĠBoo", "5451": "ĠFollow", "5452": "Ġeast", "5453": "Ġheaded", "5454": "oved", "5455": "\",", "5456": "Ġstrang", "5457": "Ġladyb", "5458": "Ġfed", "5459": "Ġsupposed", "5460": "Ġroots", "5461": "Ġlick", "5462": "Ġcrunch", "5463": "Ġmixing", "5464": "Ġworks", "5465": "Ġdecorations", "5466": "Ġmelting", "5467": "Ġknown", "5468": "Ġemergen", "5469": "Mandy", "5470": "Ġrested", "5471": "ĠAb", "5472": "Ġlines", "5473": "ĠSuzy", "5474": "Ġlily", "5475": "ĠJul", "5476": "Ġinstr", "5477": "Ġlaid", "5478": "ĠGr", "5479": "Ġsucceeded", "5480": "Ġcones", "5481": "Ġwiggle", "5482": "ety", "5483": "sing", "5484": "Ġshock", "5485": "Ġsetting", "5486": "ĠSlow", "5487": "Ġstudied", "5488": "Ġstrangers", "5489": "ĠRocky", "5490": "Really", "5491": "Ġtwigs", "5492": "Ġbrid", "5493": "Ġtheirs", "5494": "ĠDr", "5495": "Ġgirls", "5496": "boo", "5497": "!\",", "5498": "Ġscreams", "5499": "Ġlands", "5500": "Ġordered", "5501": "Ġstirring", "5502": "Ġmoments", "5503": "Ġfields", "5504": "Ġalright", "5505": "Ġstealing", "5506": "ded", "5507": "Andy", "5508": "Ġrul", "5509": "Ġbravely", "5510": "avid", "5511": "ĠBoth", "5512": "Ġmister", "5513": "!'", "5514": "Ġinvest", "5515": "Ġscratched", "5516": "Ġplaytime", "5517": "Ġripped", "5518": "Ġinvestig", "5519": "Ġtucked", "5520": "Ġresting", "5521": "Ġburning", "5522": "ishes", "5523": "ĠClara", "5524": "ĠChicky", "5525": "Ġbridges", "5526": "Ġofficer", "5527": "please", "5528": "Sammy", "5529": "Bird", "5530": "abies", "5531": "Ġsettled", "5532": "Ġmatched", "5533": "Ġachie", "5534": "Ġtex", "5535": "Ġtexture", "5536": "Happy", "5537": "Ġwaits", "5538": "Ġturning", "5539": "ĠSky", "5540": "Peter", "5541": "ored", "5542": "Ġtrembling", "5543": "isten", "5544": "Ġnails", "5545": "atie", "5546": "Ġmuffins", "5547": "ĠSomeone", "5548": "ids", "5549": "Ġescaped", "5550": "ĠJames", "5551": "Ġpiles", "5552": "Ġinvestigate", "5553": "osity", "5554": "Ġbroom", "5555": "Ġladybug", "5556": "Ġsore", "5557": "ĠPepper", "5558": "Ġappreciate", "5559": "Ġadmir", "5560": "Ġthreat", "5561": "Ġbabies", "5562": "Ġsilence", "5563": "Ġsisters", "5564": "Ġemergency", "5565": "Ġarea", "5566": "ides", "5567": "Ġdads", "5568": "Ġanswers", "5569": "Ġpupp", "5570": "Ġkeys", "5571": "Ġchewing", "5572": "Ġslapped", "5573": "Ġwiz", "5574": "Ġimportance", "5575": "Boo", "5576": "Ġserved", "5577": "ĠHop", "5578": "Ġsafety", "5579": "izing", "5580": "Bu", "5581": "Would", "5582": "Ġsparkle", "5583": "Ġtouching", "5584": "ĠLater", "5585": "Ġsoared", "5586": "igail", "5587": "Ġsings", "5588": "Ġhen", "5589": "allen", "5590": "Ella", "5591": "bers", "5592": "antly", "5593": "Momo", "5594": "ĠDino", "5595": "Ġkeeps", "5596": "Ġamazement", "5597": "Ġchallen", "5598": "Ġtwin", "5599": "Ġhesit", "5600": "Ġrevealed", "5601": "anna", "5602": "achel", "5603": "Ġitem", "5604": "Ġdire", "5605": "Ġsoaked", "5606": "zing", "5607": "Ġwrit", "5608": "Ġfoods", "5609": "Ġrides", "5610": "Ġdinosaurs", "5611": "Ġrecorded", "5612": "Ġtickle", "5613": "Ġinch", "5614": "ĠZigzag", "5615": "ĠMe", "5616": "Ġwizard", "5617": "Ġvet", "5618": "Ġtrips", "5619": "Ġglowed", "5620": "ĠAn", "5621": "ĠFrog", "5622": "Mmm", "5623": "Ġhi", "5624": "Ġbeamed", "5625": "Ġquack", "5626": "Ġcurled", "5627": "Ġhated", "5628": "Ġwink", "5629": "Ġshopping", "5630": "Ġeats", "5631": "Eventually", "5632": "ĠBug", "5633": "Ġpraised", "5634": "Ġwooden", "5635": "Ġbringing", "5636": "Ġmittens", "5637": "Ġstudying", "5638": "Ġguy", "5639": "Ġbrushes", "5640": "Ġspaceship", "5641": "Ġgust", "5642": "Ġcrawling", "5643": "ĠSomething", "5644": "Cat", "5645": "Ġruler", "5646": "Ġflav", "5647": "Ġdownstairs", "5648": "Ġshooting", "5649": "Ġtastes", "5650": "Ġnapping", "5651": "Ġsprinkles", "5652": "Ġmarks", "5653": "Ġcuddled", "5654": "Ġdot", "5655": "hello", "5656": "plash", "5657": "Ġfut", "5658": "ales", "5659": "aved", "5660": "Ġfuture", "5661": "Ġmonsters", "5662": "Ġcollecting", "5663": "Ġmeasuring", "5664": "ĠHappy", "5665": "'.", "5666": "Ġfamilies", "5667": "ĠOut", "5668": "ĠFirst", "5669": "ĠMo", "5670": "Ġthrill", "5671": "Ġoat", "5672": "irts", "5673": "Ġresult", "5674": "Jake", "5675": "Ġapproached", "5676": "ĠRabbit", "5677": "Ġcrunchy", "5678": "act", "5679": "Un", "5680": "Ġremem", "5681": "Ġbleeding", "5682": "Ġremembers", "5683": "Ġnicer", "5684": "Ġbeat", "5685": "Ġsneaky", "5686": "Ġdisturbed", "5687": "Ġleader", "5688": "Ġscaring", "5689": "Or", "5690": "hind", "5691": "Ġpeel", "5692": "ĠHope", "5693": "Ġfiremen", "5694": "Ġneighborhood", "5695": "ĠStar", "5696": "Ġgrey", "5697": "ĠNot", "5698": "Ġmotion", "5699": "Ġnoon", "5700": "Ġpossible", "5701": "Emily", "5702": "Somet", "5703": "Ġapologized", "5704": "Ġweighed", "5705": "ues", "5706": "ĠDid", "5707": "Ġtickets", "5708": "Cl", "5709": "Ġnaps", "5710": "Ġloose", "5711": "Ġpride", "5712": "Ġyouth", "5713": "Ġswims", "5714": "ped", "5715": "Ġstrings", "5716": "Ġrecognized", "5717": "Ġsiren", "5718": "Ġpoking", "5719": "fied", "5720": "ĠHo", "5721": "cious", "5722": "ha", "5723": "elvet", "5724": "Ġtricked", "5725": "Ġwonders", "5726": "Ġgained", "5727": "Ġwanting", "5728": "Ġcrashed", "5729": "Ġobe", "5730": "Ġseesaw", "5731": "Ġworker", "5732": "unnies", "5733": "ls", "5734": "oming", "5735": "Ġdraws", "5736": "Ġscooped", "5737": ".'", "5738": "Ġzooming", "5739": "Ġopinion", "5740": "Ġyelling", "5741": "Ġprepared", "5742": "Ġgrinned", "5743": "ĠSlowly", "5744": "Ġawe", "5745": "Ġpoems", "5746": "Ġdoggy", "5747": "Ġacting", "5748": "ĠBeep", "5749": "Ġhappiest", "5750": "Ġchef", "5751": "Ġsneaked", "5752": "Ġrespons", "5753": "Ġeff", "5754": "ĠAlways", "5755": "ĠLizzy", "5756": "Ġowned", "5757": "Ġbunnies", "5758": "Ġanytime", "5759": "Ġstruck", "5760": "Ġpedals", "5761": "oys", "5762": "Ġknelt", "5763": "ena", "5764": "Ollie", "5765": "Ġsecrets", "5766": "Ġpause", "5767": "Ġdecorated", "5768": "Ġhorns", "5769": "Ġagreement", "5770": "ĠSqu", "5771": "ided", "5772": "Ġfrost", "5773": "Ġtallest", "5774": "Ġobey", "5775": "Remember", "5776": "riends", "5777": "ogo", "5778": "ĠStop", "5779": "Have", "5780": "Ġdecides", "5781": "ĠOnce", "5782": "Ġbehaved", "5783": "Ġtugged", "5784": "Ġsides", "5785": "Ġwoof", "5786": "Ġslim", "5787": "zen", "5788": "Ġgoodnight", "5789": "Ġkeeper", "5790": "Ġsparkling", "5791": "Ġchirped", "5792": "Ġprecious", "5793": "mother", "5794": "lier", "5795": "ien", "5796": "Tr", "5797": "Ġrepeated", "5798": "Ġclaps", "5799": "indy", "5800": "affes", "5801": "Ġsnowballs", "5802": "Ġcontain", "5803": "ud", "5804": "rs", "5805": "ĠRay", "5806": "Ġourselves", "5807": "allow", "5808": "Ġgiraffes", "5809": "Ġbalancing", "5810": "Ġkindly", "5811": "Ġspending", "5812": "Ġwrites", "5813": "ays", "5814": "ppers", "5815": "ĠLike", "5816": "omas", "5817": "Ġprop", "5818": "Ġhissed", "5819": "First", "5820": "Ġfrozen", "5821": "Ġfrosting", "5822": "Ġeffort", "5823": "Ġbuzzing", "5824": "Ġstruggled", "5825": "oh", "5826": "ĠSteve", "5827": "Ġadmiring", "5828": "Ġrele", "5829": "iggy", "5830": "Ġsweeties", "5831": "ĠVelvet", "5832": "Ġslimy", "5833": "Ġbrushed", "5834": "Ġbloomed", "5835": "Susie", "5836": "ĠAm", "5837": "Ġpolished", "5838": "ĠZoe", "5839": "arth", "5840": "anted", "5841": "Ġcomfy", "5842": "Ġboo", "5843": "Ġstaying", "5844": "Ġrubbing", "5845": "Ducky", "5846": "Ġrocking", "5847": "Ġpockets", "5848": "Ġthrilled", "5849": "Ġbeside", "5850": "Ġcomple", "5851": "ĠAunt", "5852": "ĠMaggie", "5853": "Ah", "5854": "Ġeight", "5855": "urry", "5856": "isdom", "5857": "Ġmachines", "5858": "Ġearlier", "5859": "Ġyesterday", "5860": "Ġseems", "5861": "Ġrust", "5862": "ĠKeep", "5863": "Sp", "5864": "Ġtraveled", "5865": "Ġfolding", "5866": "Ġboom", "5867": "Ġcracked", "5868": "ities", "5869": "Ġhugging", "5870": "Ġradishes", "5871": "ĠStitch", "5872": "Ġopening", "5873": "Ġloving", "5874": "Ġcircus", "5875": "Ġsurrounded", "5876": "Ġcuriosity", "5877": "ĠRachel", "5878": "Ġspraying", "5879": "Ġdemanded", "5880": "Ġpaintings", "5881": "amie", "5882": "ĠGreen", "5883": "Ġremoved", "5884": "Ġgaze", "5885": "Ġhonk", "5886": "Ġpebbles", "5887": "Ġzookeeper", "5888": "Ġhardly", "5889": "Ġcatches", "5890": "edding", "5891": "Ġsting", "5892": "Ġstripes", "5893": "Ġpowers", "5894": "Ġloaded", "5895": "ĠPippa", "5896": "Sometimes", "5897": "Ġsplashes", "5898": "Ġpots", "5899": "Ġpetted", "5900": "Ġmatching", "5901": "ĠDavid", "5902": "Thanks", "5903": "Ġtoss", "5904": "Ġstare", "5905": "Ġbelly", "5906": "Yummy", "5907": "ibb", "5908": "Ġwhatever", "5909": "Ġapologize", "5910": "Ġrocked", "5911": "Ġcomforted", "5912": "ĠBree", "5913": "Ġdecision", "5914": "Ġribbons", "5915": "ĠJoy", "5916": "ĠBirdie", "5917": "ern", "5918": "Ġstruggling", "5919": "Ġexpected", "5920": "Ġdeser", "5921": "Ġsteep", "5922": "wh", "5923": "Ġprotected", "5924": "Ġneighbors", "5925": "Ġsmiley", "5926": "Ġchases", "5927": "During", "5928": "Ġgranted", "5929": "Ġcrumb", "5930": "ĠMat", "5931": "Ġpurred", "5932": "Ġdiving", "5933": "Ġsadness", "5934": "Whiskers", "5935": "Ġorganizing", "5936": "lowers", "5937": "Ġeagle", "5938": "Ġheroes", "5939": "Ġdipped", "5940": "Ġsunlight", "5941": "Ġlied", "5942": "Ġpastels", "5943": "ĠFrank", "5944": "Ex", "5945": "Ġsafer", "5946": "Ġroads", "5947": "Ġscru", "5948": "Ġargued", "5949": "ĠMilly", "5950": "Ġgoals", "5951": "ĠWater", "5952": "Ġdiscovery", "5953": "ĠAbigail", "5954": "Ġvillag", "5955": "Ġpeered", "5956": "Ro", "5957": "ĠBouncy", "5958": "use", "5959": "ana", "5960": "loe", "5961": "Ġtim", "5962": "Ġdragons", "5963": "Ġbuildings", "5964": "Ġbuckets", "5965": "Ġparties", "5966": "Ġbeard", "5967": "Ġwedding", "5968": "Rex", "5969": "Ġflutter", "5970": "Ġplanets", "5971": "Ġann", "5972": "ĠRobby", "5973": "Ġpolishing", "5974": "Ġfasc", "5975": "ira", "5976": "Ġreleased", "5977": "ĠChr", "5978": "Ġcrabs", "5979": "ĠGogo", "5980": "Ġtails", "5981": "ĠWatch", "5982": "Ġsausages", "5983": "ĠJu", "5984": "Ġargu", "5985": "Ġcontro", "5986": "Ġbottles", "5987": "Ġwiggled", "5988": "Ġteased", "5989": "uke", "5990": "Ġarguing", "5991": "Ġsled", "5992": "Ġdragged", "5993": "Ġpadd", "5994": "ĠCar", "5995": "Ġroaring", "5996": "Ġclearing", "5997": "Ġshirts", "5998": "Ġmovies", "5999": "Ġgathering", "6000": "Ġairpl", "6001": "Ġwid", "6002": "joyed", "6003": "Ġteaches", "6004": "Ġspiders", "6005": "Ġlimes", "6006": "ĠRemember", "6007": "ĠDare", "6008": "Ġoverjoyed", "6009": "Ġactually", "6010": "Ġsighs", "6011": "Ġcontinue", "6012": "Ġcuddle", "6013": "Ġsoaring", "6014": "Ġsmallest", "6015": "ĠJess", "6016": "Ġdrives", "6017": "Ġsparkles", "6018": "Ġrip", "6019": "Ġsitu", "6020": "Ġcubes", "6021": "Ġrefres", "6022": "Ġtalent", "6023": "Ġchallenge", "6024": "ĠOlly", "6025": "Ġgrandmother", "6026": "ĠSplash", "6027": "Ġpouring", "6028": "umm", "6029": "Ġpretends", "6030": "Ġfascin", "6031": "Ġcuts", "6032": "Ġquarreling", "6033": "Ġpeppers", "6034": "Ġbank", "6035": "Ġshivered", "6036": "Ġmane", "6037": "Ġdusty", "6038": "ley", "6039": "Ġwondering", "6040": "Ġvillagers", "6041": "Ġstretching", "6042": "njoy", "6043": "ib", "6044": "Ġweeks", "6045": "Ġwherever", "6046": "Ġdarker", "6047": "jam", "6048": "Tiny", "6049": "sses", "6050": "ĠX", "6051": "Ġrings", "6052": "Ġonwards", "6053": "ĠKatie", "6054": "Ġunited", "6055": "Achoo", "6056": "Ġbead", "6057": "ĠEveryday", "6058": "ĠBeing", "6059": "Ġprettiest", "6060": "Johnny", "6061": "Ġcaut", "6062": "Ġrealize", "6063": "Ġcompany", "6064": "Ġpenguins", "6065": "annah", "6066": "Luna", "6067": "Fr", "6068": "ĠSpring", "6069": "Ġbedtime", "6070": "Ġcompleted", "6071": "ĠWisdom", "6072": "ĠLeave", "6073": "âĢĿ.", "6074": "Ġknights", "6075": "Ġflags", "6076": "ĠJe", "6077": "ĠBecause", "6078": "Ġplayroom", "6079": "ĠPrin", "6080": "Ġactions", "6081": "ĠZero", "6082": "Ġlearns", "6083": "Ġgotten", "6084": "Ġpatience", "6085": "inda", "6086": "dam", "6087": "Ġshrug", "6088": "Ġkites", "6089": "Ġresponsible", "6090": "Ġfears", "6091": "Ġdestination", "6092": "Ġwires", "6093": "Ġreply", "6094": "Ġwrist", "6095": "Ġdam", "6096": "aws", "6097": "Ġpacking", "6098": "Ġmountains", "6099": "Ġfault", "6100": "Ġapplauded", "6101": "Ġscrubbed", "6102": "Ġma", "6103": "Ġcrept", "6104": "ĠAva", "6105": "Uh", "6106": "ĠEarth", "6107": "Ġsatis", "6108": "Ġthird", "6109": "Ġphot", "6110": "Ġpencils", "6111": "Ġwins", "6112": "Ġsticking", "6113": "Ġbaker", "6114": "Ġvisiting", "6115": "Ġwound", "6116": "Ġuses", "6117": "Ġpeas", "6118": "Ġreminder", "6119": "Ġcontrol", "6120": "ashed", "6121": "Grandpa", "6122": "Ġjoking", "6123": "Ġawake", "6124": "Ġinstruct", "6125": "Ġstaring", "6126": "Ġhealed", "6127": "ĠPut", "6128": "Ġhitting", "6129": "ĠFish", "6130": "Ġscreaming", "6131": "Ġbegin", "6132": "Rob", "6133": "uckily", "6134": "ĠFriends", "6135": "ĠMoo", "6136": "icorn", "6137": "Ġhelmets", "6138": "enty", "6139": "Ġunicorn", "6140": "ler", "6141": "seek", "6142": "Ġtowels", "6143": "Silly", "6144": "ĠLou", "6145": "Ġchips", "6146": "ica", "6147": "Ġcreation", "6148": "Ġwasted", "6149": "bie", "6150": "Mar", "6151": "ĠBehind", "6152": "laire", "6153": "Ġmasks", "6154": "Ġitems", "6155": "Ġforgi", "6156": "Ġfirefight", "6157": "Ġoutdo", "6158": "Ġlollipops", "6159": "Watch", "6160": "Ġheav", "6161": "Ġguns", "6162": "Ġdied", "6163": "ĠHippy", "6164": "Ġseas", "6165": "Ġglitter", "6166": "uddles", "6167": "Ġarrive", "6168": "Ġweren", "6169": "Ġstole", "6170": "Ġscales", "6171": "Ġperched", "6172": "Ġaccom", "6173": "Ġlogs", "6174": "Ġachieve", "6175": "die", "6176": "Ġpracticing", "6177": "ining", "6178": "Ġwhose", "6179": "Stay", "6180": "Ġpumpkins", "6181": "Ġinstructions", "6182": "Ġswoop", "6183": "Ġbatteries", "6184": "Ġcandies", "6185": "Ġagrees", "6186": "Ġproject", "6187": "Ġsnakes", "6188": "Ġchirping", "6189": "Benny", "6190": "Ġshelves", "6191": "Ġprotecting", "6192": "Ġparked", "6193": "Ġexact", "6194": "ĠCra", "6195": "Ġpatiently", "6196": "Ġactiv", "6197": "Ġvideos", "6198": "Ġshoulders", "6199": "Ġblows", "6200": "hee", "6201": "Fo", "6202": "Ġpromises", "6203": "go", "6204": "Ġdent", "6205": "usan", "6206": "uest", "6207": "ners", "6208": "jamas", "6209": "Ġexamined", "6210": "Ġairplane", "6211": "Doggy", "6212": "Ġroses", "6213": "Ġaccompl", "6214": "Ġtasks", "6215": "Dave", "6216": "ĠHoot", "6217": "Poppy", "6218": "ĠBop", "6219": "Bunny", "6220": "Ġbeads", "6221": "Ġbowls", "6222": "Ġcrumbs", "6223": "zes", "6224": "Ġlistens", "6225": "ĠLove", "6226": "ĠCatty", "6227": "ĠBrownie", "6228": "Pete", "6229": "ĠOl", "6230": "Ġdolphins", "6231": "Ġcough", "6232": "Ġbunch", "6233": "Ġguest", "6234": "cakes", "6235": "Ġrequested", "6236": "Ġremote", "6237": "Ġimproved", "6238": "anta", "6239": "Ġreaching", "6240": "Ġbrand", "6241": "ĠJan", "6242": "ayla", "6243": "Ġalien", "6244": "ĠBye", "6245": "irm", "6246": "Ġcopy", "6247": "ĠSun", "6248": "Ġcheering", "6249": "Ġphotos", "6250": "ĠJulie", "6251": "ĠChew", "6252": "Bad", "6253": "ĠBlink", "6254": "Time", "6255": "Ġcans", "6256": "ĠCuddles", "6257": "Ġtimer", "6258": "ĠBy", "6259": "Ġreplaced", "6260": "athy", "6261": "Ġworkers", "6262": "Ġstern", "6263": "ĠEnjoy", "6264": "aster", "6265": "Ġneither", "6266": "Mike", "6267": "Ġpassing", "6268": "Ġmisses", "6269": "Ġcurtains", "6270": "Ġconfl", "6271": "Chirpy", "6272": "Ġrainbows", "6273": "Ġrubs", "6274": "George", "6275": "uctantly", "6276": "Ġrolls", "6277": "Ġpatted", "6278": "ilo", "6279": "Ġpajamas", "6280": "Ġoutdoors", "6281": "esome", "6282": "dies", "6283": "Ġcomplaining", "6284": "ĠSquirrel", "6285": "Lola", "6286": "Run", "6287": "Ġpuppet", "6288": "ĠPrincess", "6289": "Ġcloses", "6290": "Ġbeneath", "6291": "Ġlap", "6292": "Ġdrums", "6293": "Ġtune", "6294": "ĠBeth", "6295": "ĠMouse", "6296": "Ġfilling", "6297": "Miss", "6298": "angled", "6299": "Ġrefuse", "6300": "ĠSorry", "6301": "Ġsweat", "6302": "Ġfaced", "6303": "...", "6304": "Ġseven", "6305": "Ġbalanced", "6306": "Ġrescued", "6307": "neath", "6308": "bl", "6309": "Ġquacked", "6310": "ĠAbby", "6311": "Paul", "6312": "istle", "6313": "Ġawesome", "6314": "Ġ1", "6315": "Ġmission", "6316": "ĠHowever", "6317": "Ġguys", "6318": "Ġconflict", "6319": "Ġcautious", "6320": "Ġvent", "6321": "Ġobserved", "6322": "Ġcause", "6323": "Ġintroduc", "6324": "ĠThomas", "6325": "Ġpastries", "6326": "nie", "6327": "ĠĠ", "6328": "ĠOur", "6329": "Ġexactly", "6330": "Ġdoctors", "6331": "Ġrule", "6332": "Ġbecoming", "6333": "Ġpoliceman", "6334": "Ġmes", "6335": "uly", "6336": "Ġrockets", "6337": "you", "6338": "ĠYes", "6339": "ĠDot", "6340": "Ġfairies", "6341": "lay", "6342": "Ġpout", "6343": "An", "6344": "Ġinsist", "6345": "Ġblooming", "6346": "Ġtractor", "6347": "Ġfarther", "6348": "ĠSad", "6349": "avi", "6350": "Oops", "6351": "Great", "6352": "Ġremembering", "6353": "Ġincluded", "6354": "Ġcurly", "6355": "Zoom", "6356": "Fine", "6357": "Ġteamwork", "6358": "zie", "6359": "Ġfascinated", "6360": "Ġwobbled", "6361": "Ġslam", "6362": "Ġtruly", "6363": "Ġhelpers", "6364": "Ġsights", "6365": "Ġpaddle", "6366": "Ġstumble", "6367": "Ġfirm", "6368": "Henry", "6369": "ĠJilly", "6370": "acob", "6371": "Ġcaused", "6372": "Ġprayer", "6373": "Ġspong", "6374": "Ġrecording", "6375": "kelly", "6376": "ais", "6377": "Ġtraded", "6378": "Ġstarfish", "6379": "Ġsupplies", "6380": "Ġthro", "6381": "Ġpointy", "6382": "Ġsituation", "6383": "Ġinviting", "6384": "eah", "6385": "gers", "6386": "Ġneighbourhood", "6387": "Ġeveryday", "6388": "Ġornaments", "6389": "ĠAlly", "6390": "inkle", "6391": "Ġvalued", "6392": "Ġadding", "6393": "Some", "6394": "Ġreluctantly", "6395": "Ġdots", "6396": "Ġstays", "6397": "Ġtables", "6398": "Ġprettier", "6399": "Ġbare", "6400": "Ġdesert", "6401": "Ġsnowmen", "6402": "Ġsteady", "6403": "Ġminerals", "6404": "araway", "6405": "Ġthorn", "6406": "ody", "6407": "Ġast", "6408": "Ġglasses", "6409": "Ġfaraway", "6410": "ĠGet", "6411": "ĠFoxy", "6412": "Ġswooped", "6413": "ĠWelcome", "6414": "ĠTwo", "6415": "ĠSure", "6416": "Ġunf", "6417": "Ġforks", "6418": "Ġusually", "6419": "Ġusual", "6420": "Polly", "6421": "Ġdar", "6422": "ĠJamie", "6423": "Ġwinked", "6424": "Ġsneezing", "6425": "Ġsolut", "6426": "Ġloading", "6427": "Ġsponge", "6428": "ĠQuick", "6429": "Ġinsects", "6430": "Ġpans", "6431": "Dog", "6432": "Ġsobbed", "6433": "ĠSanta", "6434": "James", "6435": "Ġgrowling", "6436": "sm", "6437": "arter", "6438": "Ġthroat", "6439": "ĠChloe", "6440": "Ġnoses", "6441": "ĠJosh", "6442": "ĠDizzy", "6443": "Ġscarves", "6444": "Ġconfident", "6445": "Ġyourselves", "6446": "ĠWant", "6447": "agull", "6448": "Ġhomework", "6449": "Ġsuperheroes", "6450": "ĠStay", "6451": "Joey", "6452": "Ġsmarter", "6453": "Ġwindy", "6454": "Ġlibrarian", "6455": "Tina", "6456": "ĠKids", "6457": "Ġgems", "6458": "Days", "6459": "ora", "6460": "Ġunderneath", "6461": "Ġkicks", "6462": "Ġknowled", "6463": "Ġitchy", "6464": "Ġknowledge", "6465": "Ġjackets", "6466": "ĠSkelly", "6467": "ĠFor", "6468": "Ġsurface", "6469": "Ġuntie", "6470": "Ġcomm", "6471": "ĠDuck", "6472": "Ġprincesses", "6473": "...\"", "6474": "Those", "6475": "ido", "6476": "eed", "6477": "Hold", "6478": "Yeah", "6479": "coon", "6480": "Ġsquares", "6481": "ĠHenny", "6482": "Ġwarnings", "6483": "Ġgiggling", "6484": "iar", "6485": "Ġreads", "6486": "vin", "6487": "Our", "6488": "Ġchoo", "6489": "son", "6490": "Ġyounger", "6491": "Ġclowns", "6492": "ĠMix", "6493": "Toby", "6494": "Ġropes", "6495": "Ġbiting", "6496": "Ġcrowd", "6497": "ĠUnfortunately", "6498": "pite", "6499": "Danny", "6500": "True", "6501": "Ġseagull", "6502": "Ġpaddled", "6503": "Ġwears", "6504": "Ġdelivered", "6505": "ĠMon", "6506": "Ġtwirl", "6507": "Ġonions", "6508": "Ġbuzzed", "6509": "Ġcomplained", "6510": "Ġbumpy", "6511": "Ġstem", "6512": "Ew", "6513": "Ġpiggy", "6514": "Mrs", "6515": "ĠAnne", "6516": "Ġdirection", "6517": "ouch", "6518": "Ġdived", "6519": "Roar", "6520": "Ġtangled", "6521": "Ġstartled", "6522": "ults", "6523": "Ġleaning", "6524": "bbie", "6525": "ĠAnt", "6526": "ĠJones", "6527": "Ġbadge", "6528": "ĠPo", "6529": "Grace", "6530": "Ġunp", "6531": "Ġdeal", "6532": "though", "6533": "Annie", "6534": "Ġvowed", "6535": "Ġnapkins", "6536": "anes", "6537": "Ġtickled", "6538": "Ġrisk", "6539": "Ġcovers", "6540": "Ġpec", "6541": "Shh", "6542": "Ġyells", "6543": "Ġsatisfied", "6544": "int", "6545": "Ġknocks", "6546": "Ġrefreshed", "6547": "tuce", "6548": "ĠSc", "6549": "cuse", "6550": "Ġcous", "6551": "Ġarrows", "6552": "Maggie", "6553": "ĠWhistle", "6554": "Pe", "6555": "Ġwipes", "6556": "Ġspeaking", "6557": "Ġlettuce", "6558": "Ġguessing", "6559": "Unfortunately", "6560": "ĠQuack", "6561": "Ġripe", "6562": "ĠSusan", "6563": "Ġhides", "6564": "Ġchoices", "6565": "ĠDodo", "6566": "ĠRover", "6567": "Buzz", "6568": "Ġsigned", "6569": "Ġslower", "6570": "Ġseeker", "6571": "Ġintroduced", "6572": "Ġsinger", "6573": "Ġcreating", "6574": "ĠMatt", "6575": "Ġfroze", "6576": "Ġcent", "6577": "uggles", "6578": "Ġjoked", "6579": "Ġsqueal", "6580": "Ġtoaster", "6581": "Ġexplorers", "6582": "fit", "6583": "Ġavo", "6584": "anging", "6585": "Sophie", "6586": "Ġpraying", "6587": "Ġwritten", "6588": "Ġdiscovering", "6589": "Ġprovided", "6590": "ĠDara", "6591": "Ġrefle", "6592": "ĠLion", "6593": "Excuse", "6594": "Ġmushrooms", "6595": "ĠJeff", "6596": "ĠPaws", "6597": "Ġpaying", "6598": "Ġknees", "6599": "ences", "6600": "Ġhider", "6601": "Ġwandering", "6602": "ĠAsh", "6603": "Ġimages", "6604": "Charlie", "6605": "Ġstung", "6606": "ĠWink", "6607": "Ġmagnets", "6608": "Ġbarely", "6609": "Ġbehaving", "6610": "Ġtipto", "6611": "?\",", "6612": "Ġmarked", "6613": "brush", "6614": "rrr", "6615": "Ġrestored", "6616": "ĠDee", "6617": "Ġleading", "6618": "lled", "6619": "Ġchuck", "6620": "ados", "6621": "Ġnine", "6622": "Ġgreet", "6623": "Teddy", "6624": "Ġgears", "6625": "Ġbravery", "6626": "ĠSnuggles", "6627": "ky", "6628": "Ġcompetition", "6629": "eal", "6630": "Ġoutfit", "6631": "oline", "6632": "Ġwishing", "6633": "Ġproperly", "6634": "Ġventured", "6635": "tle", "6636": "aa", "6637": "Ġmuscle", "6638": "Ġdances", "6639": "Ġchat", "6640": "Ġsalty", "6641": "Ġpens", "6642": "amb", "6643": "ĠBetsy", "6644": "Ġranger", "6645": "ĠZiggy", "6646": "Ġdeserve", "6647": "Ġhowever", "6648": "sequ", "6649": "Ġmatters", "6650": "Ġdarkness", "6651": "Ġburst", "6652": "ĠFu", "6653": "Ġrainy", "6654": "Ġcobwebs", "6655": "Ġruining", "6656": "Ġchefs", "6657": "Ġconsequ", "6658": "Ġblocking", "6659": "Ġbak", "6660": "usted", "6661": "itely", "6662": "sty", "6663": "Ġscur", "6664": "Ġvines", "6665": "Ġfab", "6666": "abel", "6667": "Ġfabric", "6668": "Ġentire", "6669": "Ġbasement", "6670": "Ġperformed", "6671": "Ġleast", "6672": "ĠBuggy", "6673": "Sn", "6674": "Ġscratches", "6675": "Ġheavier", "6676": "ĠClaire", "6677": "Ġmints", "6678": "Ġtwirling", "6679": "Ġavocados", "6680": "However", "6681": "ĠLinda", "6682": "rink", "6683": "fl", "6684": "Ġscurried", "6685": "Ġlosing", "6686": "Ġsunflowers", "6687": "ĠJenna", "6688": "Ġrainco", "6689": "Ġswords", "6690": "Tweet", "6691": "Ġclick", "6692": "agic", "6693": "ĠLaser", "6694": "Ġsilent", "6695": "Ġjobs", "6696": "Ġnecklaces", "6697": "Ġflames", "6698": "ĠLuke", "6699": "Ġrelief", "6700": "ĠGrumpy", "6701": "Ġsnat", "6702": "Ġsewed", "6703": "Ġrotting", "6704": "len", "6705": "Listen", "6706": "Follow", "6707": "Ġtricky", "6708": "Jerry", "6709": "Ġlighter", "6710": "ophia", "6711": "Ġbows", "6712": "ĠSkip", "6713": "Ġexha", "6714": "Ġsolution", "6715": "Ġconsequences", "6716": "Alex", "6717": "ĠLena", "6718": "Ġtires", "6719": "Ġstain", "6720": "Beep", "6721": "Ġunpacked", "6722": "Ab", "6723": "Ġpartic", "6724": "rance", "6725": "Ġraces", "6726": "Ġpins", "6727": "Ġbumps", "6728": "Ġwraps", "6729": "aisies", "6730": "Ġwow", "6731": "Ġdecorating", "6732": "Ġbacked", "6733": "cher", "6734": "Ġdentist", "6735": "Ġpurr", "6736": "Ġneedles", "6737": "Ġcautiously", "6738": "Ġlifting", "6739": "izzie", "6740": "ĠPr", "6741": "Ġaccomplish", "6742": "Ġtriangles", "6743": "Ġdaisies", "6744": "ept", "6745": "Ġhesitated", "6746": "Ġannoy", "6747": "ĠThose", "6748": "Ġgrowls", "6749": "Ġcrackers", "6750": "oke", "6751": "Ġstomped", "6752": "Ġgrabbing", "6753": "Ġcott", "6754": "Ġfigured", "6755": "Ġbodies", "6756": "Ġmater", "6757": "Ġbuying", "6758": "ĠTree", "6759": "Ġmaterial", "6760": "ĠRolly", "6761": "ĠFido", "6762": "ĠAdam", "6763": "Ġswans", "6764": "Ġties", "6765": "Ġgri", "6766": "vers", "6767": "Ġgrows", "6768": "ĠĊĠ", "6769": "Ġsweets", "6770": "ĠGoodbye", "6771": "Ġowners", "6772": "Ġflavor", "6773": "Ġcheeks", "6774": "ĠCathy", "6775": "Big", "6776": "Ġsuffering", "6777": "ĠJessie", "6778": "ĠEl", "6779": "vroom", "6780": "Ġfact", "6781": "Ġgroups", "6782": "bly", "6783": "Ġforehead", "6784": "Ġlungs", "6785": "Harry", "6786": "Ġrepa", "6787": "Ġinterested", "6788": "Ġbakery", "6789": "ĠMilo", "6790": "Ġfreed", "6791": "Lilly", "6792": "itches", "6793": "ĠNothing", "6794": "Ġchuckled", "6795": "For", "6796": "Ġswept", "6797": "Ġconn", "6798": "?'", "6799": "Ġthud", "6800": "Ġexhausted", "6801": "Tw", "6802": "Ġtwinkling", "6803": "Ġtapped", "6804": "Ru", "6805": "Ġnect", "6806": "rosty", "6807": "Ġnectar", "6808": "elle", "6809": "Ġfeast", "6810": "Ġdarling", "6811": "indr", "6812": "ĠMad", "6813": "Ġworries", "6814": "Ġuns", "6815": "Ġtunnels", "6816": "Ġfuzzy", "6817": "Ġrepaired", "6818": "Ġreason", "6819": "ĠTrust", "6820": "ĠCopper", "6821": "ĠBall", "6822": "Ġactivities", "6823": "lets", "6824": "Ġpecked", "6825": "ĠHannah", "6826": "Ġentrance", "6827": "ĠTry", "6828": "Ġraindr", "6829": "Ġmeals", "6830": "ĠListen", "6831": "Ġparticular", "6832": "Ġcompletely", "6833": "Ġmailed", "6834": "ctions", "6835": "Ġnests", "6836": "Ġwaiter", "6837": "Ġcuddly", "6838": "Ġsense", "6839": "ĠNana", "6840": "Ġcolored", "6841": "arky", "6842": "Ġleap", "6843": "step", "6844": "band", "6845": "Ġplenty", "6846": "Ġpeeking", "6847": "Ġslammed", "6848": "ĠCara", "6849": "no", "6850": "Ġplayers", "6851": "Ġmonth", "6852": "Ġbudge", "6853": "ĠBirthday", "6854": "ĠQ", "6855": "Ġscra", "6856": "Ġforgets", "6857": "Ġden", "6858": "Ġhandful", "6859": "ĠOliver", "6860": "Ġmer", "6861": "ossible", "6862": "Ġgenie", "6863": "ĠChrist", "6864": "Ġstool", "6865": "iggie", "6866": "Ġtalks", "6867": "ĠPup", "6868": "ĠSuzie", "6869": "Ġpassports", "6870": "Ġfeeding", "6871": "Ġfilms", "6872": "Ġbaths", "6873": "Ġimpossible", "6874": "Ġdetermination", "6875": "May", "6876": "Ġprinting", "6877": "boat", "6878": "Ġdesigned", "6879": "Ġbuses", "6880": "Ġopp", "6881": "ueen", "6882": "lephant", "6883": "Ġsuitcase", "6884": "Ġbars", "6885": "Ġcounts", "6886": "Ġstolen", "6887": "Ġspreading", "6888": "Ġspikes", "6889": "ĠSnap", "6890": "Ġwiping", "6891": "Ġsteer", "6892": "Ġlamb", "6893": "ĠRain", "6894": "Ġhonked", "6895": "etty", "6896": "nies", "6897": "Whee", "6898": "Ġcowb", "6899": "Ġseparated", "6900": "blings", "6901": "Ġsiblings", "6902": "Ġhops", "6903": "Ġchop", "6904": "Ġsewing", "6905": "Ġfires", "6906": "ĠTwinkle", "6907": "Ġfever", "6908": "Ġtwinkle", "6909": "Ġty", "6910": "Ġcamping", "6911": "ĠMira", "6912": "Ġlower", "6913": "Ġchanging", "6914": "yes", "6915": "retch", "6916": "Ġbehavi", "6917": "ĠBloom", "6918": "mas", "6919": "Ġliqu", "6920": "Ġcelebration", "6921": "but", "6922": "Ġsquealed", "6923": "Ġdollhouse", "6924": "Sunny", "6925": "Ġbackward", "6926": "Ġage", "6927": "Ġsnatched", "6928": "Ġcash", "6929": "ho", "6930": "Ġtwice", "6931": "lee", "6932": "Ġsway", "6933": "itched", "6934": "Ġcelebrating", "6935": "ĠPeanut", "6936": "Ġshrinking", "6937": "Ġache", "6938": "weed", "6939": "Ġkings", "6940": "rious", "6941": "Ġshops", "6942": "Ġkittens", "6943": "cope", "6944": "Rose", "6945": "ĠJessica", "6946": "ĠJacob", "6947": "ĠGina", "6948": "aura", "6949": "Ġhus", "6950": "Ġtouches", "6951": "airy", "6952": "Ġpancakes", "6953": "Ġavoid", "6954": "Ġspat", "6955": "ĠFrosty", "6956": "rig", "6957": "hog", "6958": "ĠNina", "6959": "Ġpaths", "6960": "ives", "6961": "cky", "6962": "ĠHold", "6963": "Ġrotten", "6964": "Ġcalmed", "6965": "Sandy", "6966": "Ġseaweed", "6967": "Ġdropping", "6968": "ĠJon", "6969": "ĠMel", "6970": "iles", "6971": "Pipp", "6972": "Ġtwisting", "6973": "Ġstroked", "6974": "Ġuntied", "6975": "llen", "6976": "Ġplayhouse", "6977": "ne", "6978": "Millie", "6979": "Ġstudents", "6980": "Ġpuppies", "6981": "cl", "6982": "ĠSof", "6983": "hi", "6984": "Ġscrews", "6985": "Ġastron", "6986": "ĠRe", "6987": "Ġsomebody", "6988": "igning", "6989": "Ġliquid", "6990": "ammy", "6991": "Ġwakes", "6992": "Ġsquish", "6993": "ĠWoof", "6994": "Ġbracelets", "6995": "Ġastronaut", "6996": "immer", "6997": "aren", "6998": "Ġthrown", "6999": "Ġloops", "7000": "ĠOther", "7001": "Luckily", "7002": "Ġwrapping", "7003": "Ġplain", "7004": "Ġtramp", "7005": "Ġplanning", "7006": "Ġskunk", "7007": "Ġaimed", "7008": "Ġpennies", "7009": "Ġshoo", "7010": "Ġlifts", "7011": "Ġdancers", "7012": "Ġsparks", "7013": "Ġfirefly", "7014": "pen", "7015": "Dan", "7016": "Ġposter", "7017": "yan", "7018": "endy", "7019": "Ġcust", "7020": "ĠChristmas", "7021": "Ġrewarded", "7022": "Ġobjects", "7023": "Ġdirections", "7024": "using", "7025": "ingo", "7026": "Ġreflection", "7027": "Ġhusband", "7028": "âĢĶ", "7029": "Take", "7030": "river", "7031": "Ġclues", "7032": "uppy", "7033": "Ġleads", "7034": "Ġincreased", "7035": "Ġblocked", "7036": "Ġrising", "7037": "Ġdod", "7038": "Ġcousin", "7039": "ĠYesterday", "7040": "ĠWithout", "7041": "Ġforgetting", "7042": "rigued", "7043": "Ġcustom", "7044": "Kate", "7045": "ude", "7046": "Ġtrampoline", "7047": "Ġbeginning", "7048": "Ġstorekeeper", "7049": "Ġpouted", "7050": "Ġzebras", "7051": "Ġhedgehog", "7052": "Ġaff", "7053": "ĠâĢĺ", "7054": "Ġborrowed", "7055": "ĠRollie", "7056": "Ġsnowfl", "7057": "Ġcountryside", "7058": "Jump", "7059": "Ġmesmer", "7060": "ĠJay", "7061": "Ġvehicles", "7062": "Ġinstrum", "7063": "ĠMic", "7064": "ĠKayla", "7065": "ĠUp", "7066": "Ġfrowning", "7067": "ivity", "7068": "Pat", "7069": "Under", "7070": "Ġmarker", "7071": "yond", "7072": "Ġpresses", "7073": "Ġbeyond", "7074": "ĠQueen", "7075": "Ġdamage", "7076": "ĠOnly", "7077": "iece", "7078": "ivery", "7079": "Ġfart", "7080": "ĠTara", "7081": "ĠBiggie", "7082": "jo", "7083": "Ġhealth", "7084": "Ġwhispers", "7085": "Ġswimsuit", "7086": "Ġslips", "7087": "Ġnibb", "7088": "ĠJulia", "7089": "armer", "7090": "Ġwarmer", "7091": "Ġflapping", "7092": "Ġtiptoed", "7093": "Ġregretted", "7094": "itted", "7095": "Zip", "7096": "Ġlaying", "7097": "ĠRobo", "7098": "ades", "7099": "Ġyelp", "7100": "ĠFire", "7101": "Ġrains", "7102": "Ġglued", "7103": "Ġeverybody", "7104": "Ġcreations", "7105": "Ġhearing", "7106": "Ġswir", "7107": "Ġcolder", "7108": "iversity", "7109": "ael", "7110": "Ġshaped", "7111": "ĠElephant", "7112": "Ġstreets", "7113": "Ġfins", "7114": "Ġrusty", "7115": "Ġcushions", "7116": "Out", "7117": "Ġsan", "7118": "Ġfarthest", "7119": "Ġcreativity", "7120": "ĠMikey", "7121": "ans", "7122": "Ġsale", "7123": "Always", "7124": "Co", "7125": "Ġstrongest", "7126": "ibbit", "7127": "Ġfits", "7128": "ĠSparky", "7129": "Ġbells", "7130": "Ġdollars", "7131": "ĠLarry", "7132": "Ġearn", "7133": "iam", "7134": "angle", "7135": "Ġlending", "7136": "ĠMoon", "7137": "ĠChirp", "7138": "eese", "7139": "Ġcashier", "7140": "Milly", "7141": "Ġincluding", "7142": "Ġsniffs", "7143": "Ġsank", "7144": "Ġraincoat", "7145": "ĠRich", "7146": "Ġtrembled", "7147": "Ġstopping", "7148": "Ġsource", "7149": "iti", "7150": "imon", "7151": "ĠMissy", "7152": "Ġwobbly", "7153": "Ġindeed", "7154": "ters", "7155": "Ġguests", "7156": "Ġsingle", "7157": "Ġrecommended", "7158": "Ġwee", "7159": "Ġspells", "7160": "Ġaccomplishment", "7161": "Ġbelts", "7162": "Ġsurprising", "7163": "Ġends", "7164": "Ġhopeful", "7165": "Ġseasons", "7166": "ĠTake", "7167": "ĠSnowman", "7168": "ĠEls", "7169": "Bear", "7170": "Ġplans", "7171": "ichael", "7172": "Ġencourag", "7173": "Ġsupported", "7174": "stick", "7175": "illed", "7176": "Ġsuffered", "7177": "Ġartist", "7178": "Ġperformance", "7179": "eet", "7180": "Nina", "7181": "Ġslowed", "7182": "Ġgross", "7183": "Ġflavors", "7184": "iding", "7185": "ertain", "7186": "Ġspins", "7187": "cho", "7188": "Quack", "7189": "Ġlabels", "7190": "Ġraindrops", "7191": "Ġdelivery", "7192": "uing", "7193": "arac", "7194": "Ġraccoon", "7195": "Ġforgiving", "7196": "obody", "7197": "ĠWoo", "7198": "Ġpours", "7199": "the", "7200": "ility", "7201": "Ġvanilla", "7202": "Ġturtles", "7203": "Ġstands", "7204": "Bill", "7205": "uess", "7206": "Ġrecipe", "7207": "Ġbeam", "7208": "Ġtying", "7209": "ĠSw", "7210": "Ġgeese", "7211": "Ġwilling", "7212": "Ġrobber", "7213": "Ġdrawn", "7214": "Vroom", "7215": "Ġwept", "7216": "ĠBones", "7217": "Ġcharac", "7218": "Ġpops", "7219": "Ġcorners", "7220": "ĠSophia", "7221": "elia", "7222": "Ġqueens", "7223": "Ġsailboat", "7224": "Ġgrip", "7225": "Ġdie", "7226": "Ġdrivers", "7227": "itude", "7228": "Ġmoo", "7229": "Ġhallway", "7230": "Ġimagining", "7231": "Ġseconds", "7232": "ĠFuzzy", "7233": "Mine", "7234": "Ġpreparing", "7235": "Ġwidened", "7236": "Ġadult", "7237": "ĠSpirit", "7238": "Ġgrocer", "7239": "Ġcoop", "7240": "Ġtalented", "7241": "ĠPam", "7242": "ĠBeaky", "7243": "ĠIzzy", "7244": "ummies", "7245": "Ġsailors", "7246": "lling", "7247": "Ġsofter", "7248": "Ġaside", "7249": "Ġwatering", "7250": "Ġsending", "7251": "Ġknots", "7252": "Ġunsure", "7253": "Ġtipped", "7254": "Lulu", "7255": "Ġtreehouse", "7256": "Ġhoriz", "7257": "ĠLizzie", "7258": "Ġnotes", "7259": "Ġecho", "7260": "igers", "7261": "Ġachieved", "7262": "Ġhorizon", "7263": "Ġsqueak", "7264": "Ġdelivering", "7265": "Ġpleasure", "7266": "Ġhotter", "7267": "ĠStella", "7268": "Clara", "7269": "Ġpupils", "7270": "Ġburrow", "7271": "Ġangels", "7272": "Ġcuriously", "7273": "Ellie", "7274": "Ġyum", "7275": "Ġblinking", "7276": "ĠJune", "7277": "Ġtweet", "7278": "Ġsymbols", "7279": "Ġdet", "7280": "ĠStretch", "7281": "wk", "7282": "Ġpassen", "7283": "ĠRudy", "7284": "ĠCindy", "7285": "Ġtummies", "7286": "Ġtiss", "7287": "Ġpigeons", "7288": "Ġfigures", "7289": "umbling", "7290": "oey", "7291": "Ġbandages", "7292": "ĠRobert", "7293": "Ġcoup", "7294": "ĠDoctor", "7295": "Ġrobots", "7296": "alph", "7297": "Ġtossed", "7298": "Ġhour", "7299": "Ġbackwards", "7300": "Ġroars", "7301": "Baby", "7302": "Ġmerma", "7303": "uzz", "7304": "Ġrather", "7305": "atur", "7306": "Maria", "7307": "cited", "7308": "ĠPlay", "7309": "ĠCrab", "7310": "Moo", "7311": "ighting", "7312": "Dolly", "7313": "Ġgroceries", "7314": "Ġzipping", "7315": "Put", "7316": "Very", "7317": "Ġunw", "7318": "prin", "7319": "Ġamong", "7320": "Ġblown", "7321": "Ġicing", "7322": "!âĢĿ.", "7323": "Ġrumble", "7324": "Ġafterwards", "7325": "ipper", "7326": "Ġscrewd", "7327": "ushing", "7328": "Ġsped", "7329": "Ġprove", "7330": "Ġglee", "7331": "ĠTiti", "7332": "ĠTia", "7333": "Ġdip", "7334": "Ġovercome", "7335": "Ruby", "7336": "Quick", "7337": "Ġsurfboard", "7338": "Ġshovels", "7339": "Ġslices", "7340": "ĠToot", "7341": "Ġmerry", "7342": "Ġwobble", "7343": "Ġmate", "7344": "ĠTurt", "7345": "ĠAbbie", "7346": "Ġheading", "7347": "Ġdisturbing", "7348": "Ġswall", "7349": "Ġreversed", "7350": "Ġfirefighters", "7351": "Jul", "7352": "Ġswallowed", "7353": "Ġchip", "7354": "eds", "7355": "Ġscored", "7356": "Ġflipped", "7357": "ĠJump", "7358": "Ġsqueezing", "7359": "usty", "7360": "Frank", "7361": "aty", "7362": "Su", "7363": "Ġwaking", "7364": "Ġintrigued", "7365": "Sad", "7366": "Like", "7367": "Ġmaker", "7368": "ĠBarky", "7369": "awn", "7370": "Betty", "7371": "Ġpuff", "7372": "Ġhawk", "7373": "Ġencouraging", "7374": "Ġaud", "7375": "ĠEx", "7376": "osen", "7377": "onies", "7378": "Ġchosen", "7379": "ĠRon", "7380": "hew", "7381": "ĠFarmer", "7382": "ĠAng", "7383": "Ġcouple", "7384": "Ġdesigns", "7385": "Ġslipping", "7386": "Ġscrewdriver", "7387": "Ġsquishy", "7388": "ĠEmmy", "7389": "Ġgardener", "7390": "Ġcenter", "7391": "Ġrivers", "7392": "Ġrespond", "7393": "Ġmarkers", "7394": "iley", "7395": "Ġtigers", "7396": "Ġjars", "7397": "pecting", "7398": "Ġfrowns", "7399": "bird", "7400": "Ġfluttered", "7401": "ĠSadly", "7402": "ĠKit", "7403": "Ribbit", "7404": "Ġfirefighter", "7405": "ĠSl", "7406": "ĠRyan", "7407": "Ġsuits", "7408": "Ġsecure", "7409": "Ġsprinkled", "7410": "Ġcreamy", "7411": "ashes", "7412": "Ġsharks", "7413": "Ġignoring", "7414": "Ġbru", "7415": "Ġgiggles", "7416": "Ġtissue", "7417": "Ġtighter", "7418": "Ġfirmly", "7419": "ounce", "7420": "ĠLaura", "7421": "fly", "7422": "Ġshown", "7423": "Ġfamiliar", "7424": "Ġthorns", "7425": "Spike", "7426": "ĠWo", "7427": "Ġdrawers", "7428": "child", "7429": "ĠZee", "7430": "Ġexpress", "7431": "Car", "7432": "ments", "7433": "Ġdef", "7434": "Ġdaring", "7435": "Ġcrossing", "7436": "Ġaudience", "7437": "Ġperforming", "7438": "Ġcoloured", "7439": "Ġcloudy", "7440": "Ġcor", "7441": "Ġais", "7442": "ĠNick", "7443": "ae", "7444": "rat", "7445": "Ġpedaled", "7446": "Get", "7447": "Ġmixture", "7448": "Ġtil", "7449": "Ġgracefully", "7450": "ggy", "7451": "Ġhaircuts", "7452": "Ġyielded", "7453": "Ġponies", "7454": "Ġdisob", "7455": "Ġcrowns", "7456": "Ġbits", "7457": "Ġtodd", "7458": "ĠSleep", "7459": "Ġnervously", "7460": "Ġhangers", "7461": "bbled", "7462": "ĠPatch", "7463": "Zoomy", "7464": "Ġpays", "7465": "Ġ2", "7466": "Ġpeck", "7467": "Ġstroke", "7468": "Ġev", "7469": "fall", "7470": "Bang", "7471": "een", "7472": "Ġrespected", "7473": "Ġnapped", "7474": "aven", "7475": "Ġminded", "7476": "ddie", "7477": "Bessie", "7478": "ably", "7479": "Boys", "7480": "Ġtested", "7481": "ading", "7482": "parent", "7483": "ĠChris", "7484": "Kim", "7485": "ĠUniversity", "7486": "ĠNear", "7487": "Ġbeeh", "7488": "ĠTurtle", "7489": "Ġsurfing", "7490": "Ġneighbours", "7491": "arrow", "7492": "vered", "7493": "Ġshady", "7494": "iona", "7495": "arlings", "7496": "Ġmagician", "7497": "Ġenthusiasm", "7498": "Ġdarlings", "7499": "Ġwisely", "7500": "Ġstitches", "7501": "Ġsails", "7502": "kend", "7503": "Dear", "7504": "Ġweekend", "7505": "Ġthoughts", "7506": "Freddy", "7507": "ĠTweetie", "7508": "Ġreminds", "7509": "Ġtemper", "7510": "oring", "7511": "tha", "7512": "antha", "7513": "Ġsurroundings", "7514": "Ġspits", "7515": "Ġfleas", "7516": "Ġteams", "7517": "Ġlessons", "7518": "Ġfills", "7519": "Ġflip", "7520": "ĠAlong", "7521": "Ġpaintbrush", "7522": "Ġmelons", "7523": "Ġmermaid", "7524": "oni", "7525": "Katie", "7526": "Ġgrandchild", "7527": "Ġhoops", "7528": "Ġexplo", "7529": "Ġelbow", "7530": "Ġsports", "7531": "Guess", "7532": "Ġlies", "7533": "ĠFighting", "7534": "rac", "7535": "Ġpanicked", "7536": "Ġcleaner", "7537": "Ġamount", "7538": "cused", "7539": "Ġlongest", "7540": "Ġscooters", "7541": "Ġlent", "7542": "ita", "7543": "immering", "7544": "Ġsill", "7545": "Ġbeloved", "7546": "Pippin", "7547": "Ġbeehive", "7548": "Alright", "7549": "ongrat", "7550": "oga", "7551": "lle", "7552": "ongratul", "7553": "Ġoysters", "7554": "Ġgrandparent", "7555": "Ġforgiven", "7556": "Ġmagazines", "7557": "Ġarr", "7558": "ĠWise", "7559": "Ġelf", "7560": "Ġrepeating", "7561": "Ġdiscussed", "7562": "Ġsweetest", "7563": "ĠThanks", "7564": "Keep", "7565": "Ġwadd", "7566": "ĠMaya", "7567": "Ġreass", "7568": "Ġlace", "7569": "ĠGranny", "7570": "Ġnightmares", "7571": "Ġtubes", "7572": "ĠWilly", "7573": "Ġunderstands", "7574": "Ġspoonful", "7575": "Ġnood", "7576": "Ġbathing", "7577": "ĠZoey", "7578": "asty", "7579": "Am", "7580": "Ġsweep", "7581": "Ġmanners", "7582": "crow", "7583": "Uncle", "7584": "Ġwrink", "7585": "Ġsprang", "7586": "Ġnur", "7587": "Ġbully", "7588": "ĠHolly", "7589": "Ġguide", "7590": "ĠYet", "7591": "onna", "7592": "ancy", "7593": "Ġcrew", "7594": "romise", "7595": "Jazz", "7596": "Ġbreathed", "7597": "while", "7598": "steps", "7599": "ilda", "7600": "ently", "7601": "ĠBally", "7602": "Ġbulbs", "7603": "Ġneare", "7604": "Ġgrassy", "7605": "Ġwiggly", "7606": "Ġtesting", "7607": "Ġspies", "7608": "Ġcoug", "7609": "Ġsolving", "7610": "Ġsheets", "7611": "ĠRoo", "7612": "Ġfootsteps", "7613": "ntil", "7614": "Afterwards", "7615": "Ġspeeding", "7616": "Ġfocused", "7617": "ounced", "7618": "cept", "7619": "?!\"", "7620": "Ġmesmerized", "7621": "Ġcamel", "7622": "Ġbraver", "7623": "Ġhesitant", "7624": "ĠSparkle", "7625": "Ġlicking", "7626": "Ġrushing", "7627": "ĠWell", "7628": "Ġjoining", "7629": "ĠPuppy", "7630": "Ġpolar", "7631": "Ġgreeted", "7632": "ĠMartha", "7633": "espite", "7634": "--", "7635": "ĠBubb", "7636": "Which", "7637": "Kiki", "7638": "Ġworn", "7639": "Ġmaterials", "7640": "Ġchanges", "7641": "ĠNobody", "7642": "undred", "7643": "Ġstored", "7644": "Ġbicycles", "7645": "Ġmast", "7646": "Ġanger", "7647": "Leave", "7648": "Ġpeacefully", "7649": "Ġships", "7650": "Ġspice", "7651": "Ġterrified", "7652": "Ġnuzz", "7653": "Ġgonna", "7654": "ĠShow", "7655": "Ġpolitely", "7656": "Snow", "7657": "Ġspills", "7658": "Ġscarecrow", "7659": "Ġknives", "7660": "Ġevil", "7661": "ĠMixy", "7662": "ppies", "7663": "Ġburying", "7664": "ca", "7665": "Ġhealing", "7666": "Ġaren", "7667": "Ġdonkey", "7668": "Ġaeroplanes", "7669": "freeze", "7670": "Even", "7671": "Ġseals", "7672": "Ġscattering", "7673": "Ġmiles", "7674": "ĠChewy", "7675": "amboo", "7676": "Ġdump", "7677": "Ġworrying", "7678": "Bee", "7679": "zoom", "7680": "beep", "7681": "David", "7682": "ĠLenny", "7683": "Ġpuzzled", "7684": "Ġstacked", "7685": "ĠKip", "7686": "Penny", "7687": "ĠNice", "7688": "Ġloses", "7689": "dding", "7690": "Ġtravelled", "7691": "Ġbaskets", "7692": "ĠWin", "7693": "ĠOkay", "7694": "Ġgazing", "7695": "Ġblast", "7696": "ipes", "7697": "ĠTess", "7698": "Hurry", "7699": "Ġtemperature", "7700": "Ġund", "7701": "Ġtasting", "7702": "Ġdripping", "7703": "Ġclue", "7704": "Ġbelieving", "7705": "Ġpinching", "7706": "erm", "7707": "Ġsoaking", "7708": "Ġrats", "7709": "Ġ10", "7710": "isc", "7711": "Ġsandy", "7712": "rect", "7713": "ĠIsn", "7714": "ĠSimon", "7715": "rey", "7716": "anwhile", "7717": "ĠAbi", "7718": "Binky", "7719": "Ġpunishment", "7720": "Ġbanged", "7721": "Ġhumans", "7722": "Ġcrashing", "7723": "Ġforce", "7724": "ĠAna", "7725": "Ġhundred", "7726": "Ġgest", "7727": "ĠLia", "7728": "Ġswimmer", "7729": "ĠChess", "7730": "Ġsnowflakes", "7731": "Ġrelaxing", "7732": "Ġresisted", "7733": "Ġbeeped", "7734": "ĠFairy", "7735": "Ġquarreled", "7736": "form", "7737": "elie", "7738": "Ġramp", "7739": "ĠWendy", "7740": "Ġjoins", "7741": "abby", "7742": "Ġbackpacks", "7743": "ĠPh", "7744": "years", "7745": "Ġdressing", "7746": "Ġdelayed", "7747": "Ġtoddler", "7748": "ĠLuckily", "7749": "Ġflight", "7750": "Ġcovering", "7751": "ĠTe", "7752": "orter", "7753": "Two", "7754": "Open", "7755": "By", "7756": "Ġencouragement", "7757": "Ġbenches", "7758": "Ġtoward", "7759": "Ġscraped", "7760": "Ġpurpose", "7761": "Ġfocus", "7762": "ĠJudy", "7763": "Bow", "7764": "Ġcorrect", "7765": "'.\"", "7766": "Ġlipstick", "7767": "Ġbamboo", "7768": "Spe", "7769": "Ġtwinkled", "7770": "Ġpotion", "7771": "Ġpermitted", "7772": "Ġmonths", "7773": "ĠCow", "7774": "Ġlanguages", "7775": "Ġorders", "7776": "Ġfreedom", "7777": "Tony", "7778": "Ġrisks", "7779": "Ġpoppies", "7780": "Ġmaster", "7781": "shm", "7782": "Ġnoodles", "7783": "Ġfaded", "7784": "Ġwounds", "7785": "shmallow", "7786": "rier", "7787": "Kids", "7788": "isions", "7789": "ĠJojo", "7790": "Ġcreams", "7791": "Ġbirdhouse", "7792": "Ġcells", "7793": "Ġannoyed", "7794": "ĠHerb", "7795": "opes", "7796": "Ġsniffing", "7797": "Ġcheers", "7798": "Ġadults", "7799": "Birdy", "7800": "Ġunwra", "7801": "ecca", "7802": "Buzzy", "7803": "Ġpuck", "7804": "Ġopinions", "7805": "Ġfloats", "7806": "andas", "7807": "Instead", "7808": "Ġflown", "7809": "Ġsneezes", "7810": "Ġscen", "7811": "Ġhandsome", "7812": "Ġnodding", "7813": "ĠMint", "7814": "Ġsmelling", "7815": "Ġburnt", "7816": "Ġ5", "7817": "Ġdrifted", "7818": "ider", "7819": "bage", "7820": "Ġwithin", "7821": "Ġscient", "7822": "Ġheight", "7823": "Ġdamaged", "7824": "Ġbothering", "7825": "Ġtearing", "7826": "Ġslither", "7827": "Ġpleaded", "7828": "Ġinstruments", "7829": "Ġease", "7830": "ĠAli", "7831": "da", "7832": "Back", "7833": "Ġscientist", "7834": "ĠMarie", "7835": "Mira", "7836": "Goodnight", "7837": "Ġpound", "7838": "Ġseller", "7839": "Ġhanding", "7840": "Ġgerm", "7841": "ĠSay", "7842": "Ġwasting", "7843": "Ġfiles", "7844": "Ġresults", "7845": "Ġdreamt", "7846": "ĠMabel", "7847": "bell", "7848": "Ġexplains", "7849": "Ġdestroying", "7850": "Ġbrushing", "7851": "ousy", "7852": "Ġhiss", "7853": "Ġcharacters", "7854": "ĠRazor", "7855": "ĠCr", "7856": "Carl", "7857": "Ġcertain", "7858": "ĠSte", "7859": "Pandy", "7860": "Behind", "7861": "Ġsweaty", "7862": "ĠHug", "7863": "unched", "7864": "Ġbusiness", "7865": "ĠRobbie", "7866": "Ġtalents", "7867": "Ġonward", "7868": "Try", "7869": "Ġengines", "7870": "Ġbravest", "7871": "ition", "7872": "Ġsternly", "7873": "ĠPen", "7874": "ĠJanie", "7875": "prints", "7876": "Ġpostman", "7877": "Ġmosquitoes", "7878": "Ġminds", "7879": "under", "7880": "cake", "7881": "Ġtuck", "7882": "Ġscares", "7883": "urious", "7884": "Ġstomp", "7885": "Ġapologised", "7886": "uel", "7887": "Ġmanag", "7888": "Ġsnuck", "7889": "Ġbitten", "7890": "attered", "7891": "Ġtilted", "7892": "Ġswitched", "7893": "Ġreminding", "7894": "Ġdecisions", "7895": "Ġsingers", "7896": "Ġdesper", "7897": "Ġbehavior", "7898": "ĠPoor", "7899": "ashing", "7900": "ĠJudge", "7901": "bbers", "7902": "inny", "7903": "Ġsqueaked", "7904": "Ġpeeled", "7905": "ĠEverybody", "7906": "Ġyumm", "7907": "Ġpurrs", "7908": "ĠBra", "7909": "Ġtreated", "7910": "Ġsmashed", "7911": "Ġrustling", "7912": "Ġdisplayed", "7913": "ĠUntil", "7914": "Ġneatly", "7915": "Ġmatey", "7916": "Ġplanting", "7917": "ĠBess", "7918": "Ġmarshmallow", "7919": "Ġinsp", "7920": "Ġyelped", "7921": "Ġsy", "7922": "Ġgrandparents", "7923": "Ġcracks", "7924": "Ġbellies", "7925": "aver", "7926": "Ġshines", "7927": "Ġscamp", "7928": "ĠNavy", "7929": "Ġhoo", "7930": "Ġfailed", "7931": "Ġcoloring", "7932": "ĠYoga", "7933": "line", "7934": "Ġzooms", "7935": "ĠMake", "7936": "rup", "7937": "Ġnasty", "7938": "Ġbreathing", "7939": "Ġcombed", "7940": "Ġpandas", "7941": "Ġdespite", "7942": "Ġaddress", "7943": "ighing", "7944": "Ġwaterfall", "7945": "uffin", "7946": "omp", "7947": "cc", "7948": "ĠLoop", "7949": "ĠAngel", "7950": "Tilly", "7951": "Ġwider", "7952": "Ġrobbers", "7953": "Ġantic", "7954": "Play", "7955": "Abigail", "7956": "Ġsweaters", "7957": "Ġechoed", "7958": "Ġdoorway", "7959": "ĠTodd", "7960": "evin", "7961": "Ġedges", "7962": "Ġinj", "7963": "ĠShadow", "7964": "Aunt", "7965": "Ġgap", "7966": "Ġdisobey", "7967": "ĠBlinky", "7968": "wise", "7969": "Liz", "7970": "ĠMichael", "7971": "Ġtar", "7972": "ĠFlick", "7973": "oscope", "7974": "orking", "7975": "Wake", "7976": "Ġtaped", "7977": "Ġmagnif", "7978": "ulp", "7979": "father", "7980": "Ġscolds", "7981": "Ġflaps", "7982": "Ġaction", "7983": "Ġcrawls", "7984": "ĠMindy", "7985": "Ros", "7986": "Ġswap", "7987": "Ġgobbled", "7988": "Ġbacks", "7989": "ĠGary", "7990": "Ġwarri", "7991": "ĠFishy", "7992": "ĠEddie", "7993": "Slow", "7994": "Ġsteth", "7995": "Ġsever", "7996": "Ġshinier", "7997": "Ġprobably", "7998": "Ġnewspapers", "7999": "Ġseveral", "8000": "Ġocc", "8001": "Rock", "8002": "Lena", "8003": "Ġencount", "8004": "ĠMeg", "8005": "Ġserving", "8006": "Ġquieter", "8007": "Ġplucked", "8008": "Ġconnected", "8009": "tock", "8010": "ĠShare", "8011": "Ġouch", "8012": "igger", "8013": "Ted", "8014": "Adam", "8015": "Ġgesture", "8016": "Too", "8017": "Fl", "8018": "Ġstudent", "8019": "Ġplot", "8020": "Ġdoorbell", "8021": "Ġsquaw", "8022": "Ġcares", "8023": "fire", "8024": "Ġrescuing", "8025": "Ġgrandson", "8026": "ĠSe", "8027": "Ġspy", "8028": "Ġsimply", "8029": "Ġrows", "8030": "Ġgoo", "8031": "iel", "8032": "Ġwhistles", "8033": "mies", "8034": "vant", "8035": "Shrink", "8036": "Magic", "8037": "Ġsnaps", "8038": "Ġshorter", "8039": "Ġastronauts", "8040": "ssss", "8041": "Ġunpacking", "8042": "Ġcottage", "8043": "ĠTime", "8044": "Ġswo", "8045": "Ġaccidents", "8046": "ibi", "8047": "Ġswollen", "8048": "Ġmood", "8049": "ĠNut", "8050": "Steve", "8051": "abelle", "8052": "ĠZippy", "8053": "ĠMousy", "8054": "anie", "8055": "Zara", "8056": "Ġbothered", "8057": "Hannah", "8058": "Ġstethoscope", "8059": "found", "8060": "Ġtrusting", "8061": "Ġcausing", "8062": "Mat", "8063": "Mad", "8064": "Ġleapt", "8065": "Ġdresser", "8066": "aint", "8067": "Ġsou", "8068": "Ġproper", "8069": "Ġpills", "8070": "retty", "8071": "Ġthroughout", "8072": "Olive", "8073": "Ġrunner", "8074": "Ġprayers", "8075": "ĠDina", "8076": "Ġjoyful", "8077": "Thomas", "8078": "mates", "8079": "Ġlocks", "8080": "ĠPrince", "8081": "Jamie", "8082": "Ġgoats", "8083": "what", "8084": "Ġtarget", "8085": "rest", "8086": "ĠWait", "8087": "ĠKaren", "8088": "Ġdears", "8089": "ĠBang", "8090": "artled", "8091": "Red", "8092": "Ġwaddled", "8093": "Ġmunch", "8094": "Ġflips", "8095": "ĠCro", "8096": "Ġlowered", "8097": "Ġstepping", "8098": "Ġcons", "8099": "ĠJackie", "8100": "Ġteachers", "8101": "Ġcowboy", "8102": "ĠToys", "8103": "Ġinches", "8104": "Ġenvelopes", "8105": "ears", "8106": "Ġchar", "8107": "ĠVroom", "8108": "Ġexplorer", "8109": "Ġanticip", "8110": "Ġplayd", "8111": "ĠReady", "8112": "ĠRuff", "8113": "ĠRalph", "8114": "unity", "8115": "Nice", "8116": "Finn", "8117": "ĠBad", "8118": "ening", "8119": "Ġknocking", "8120": "Ġfloors", "8121": "Ġefforts", "8122": "ĠPl", "8123": "Ġuniforms", "8124": "lied", "8125": "ĠTri", "8126": "Ġaware", "8127": "Ġfootprints", "8128": "Someone", "8129": "Ġnearly", "8130": "ĠFiona", "8131": "llas", "8132": "Ġdisc", "8133": "ĠRia", "8134": "ivi", "8135": "Ġwhimp", "8136": "Ġtrot", "8137": "Ġsens", "8138": "Ġglitt", "8139": "Ġappreciation", "8140": "oosh", "8141": "Ġnecks", "8142": "Ġcollap", "8143": "Ġchecks", "8144": "Ġlapt", "8145": "Ġexcept", "8146": "Ġplug", "8147": "Ġcharge", "8148": "ĠJacky", "8149": "Ġfluttering", "8150": "Ġumbrellas", "8151": "Ġstamped", "8152": "acy", "8153": "Ġsandcastles", "8154": "ĠDavey", "8155": "Ġstatues", "8156": "ĠHoney", "8157": "omb", "8158": "iscuit", "8159": "ails", "8160": "Hoppy", "8161": "Ġshrank", "8162": "ĠAmelia", "8163": "rily", "8164": "Ġprick", "8165": "Ġfinishing", "8166": "Ġadds", "8167": "rons", "8168": "Ġstroll", "8169": "Ġhunters", "8170": "Ġdodged", "8171": "Ġchocolates", "8172": "Ġpassengers", "8173": "Ġgerms", "8174": "oger", "8175": "Ġwrigg", "8176": "Ġaprons", "8177": "Ġaisle", "8178": "Ġsets", "8179": ".'\"", "8180": "ĠGerry", "8181": "Ġweeds", "8182": "Ġnovels", "8183": "order", "8184": "Ġdemanding", "8185": "ĠTaking", "8186": "Ġscratching", "8187": "Ġmeows", "8188": "issa", "8189": "Dr", "8190": "Ġnurses", "8191": "Lucky", "8192": "Ġminding", "8193": "Ġdiscussing", "8194": "urrender", "8195": "Ġkilled", "8196": "Ġdriveway", "8197": "ĠCari", "8198": "Ġbecomes", "8199": "Ġtoolbox", "8200": "Ġlaptop", "8201": "Ġhaird", "8202": "ĠEliz", "8203": "Ġposit", "8204": "Ġattack", "8205": "ĠSadie", "8206": "ĠDespite", "8207": "Speedy", "8208": "ĠGl", "8209": "sol", "8210": "Ġscampered", "8211": "Ġbounces", "8212": "Ġsupplied", "8213": "Ġsprays", "8214": "Ġdeed", "8215": "Ġtempt", "8216": "Ġsuggestion", "8217": "Ġfriendships", "8218": "Ġburns", "8219": "Coco", "8220": "Ġslapping", "8221": "Ġclosing", "8222": "Arrr", "8223": "Ġinvites", "8224": "Ġbelongings", "8225": "Ġanticipation", "8226": "Ġspringing", "8227": "Ġform", "8228": "Ġerase", "8229": "Ġcotton", "8230": "ĠStan", "8231": "Ġtwists", "8232": "Ġrays", "8233": "Ġsnuggle", "8234": "Ġforgives", "8235": "Ġmodels", "8236": "Ġshall", "8237": "Ġmassages", "8238": "Ġhumming", "8239": "onnie", "8240": "Ġresponded", "8241": "Ġnewfound", "8242": "Ġghosts", "8243": "Ġexpecting", "8244": "ĠShelly", "8245": "Ġcheated", "8246": "Does", "8247": "ĠWooly", "8248": "Gigi", "8249": "otte", "8250": "Ġtraveling", "8251": "ĠNe", "8252": "Ġcond", "8253": "Ġbattle", "8254": "Ġalthough", "8255": "alloween", "8256": "Ġmommies", "8257": "Ġinvitations", "8258": "Ġcarries", "8259": "Ġaim", "8260": "Ġrefreshing", "8261": "Ġpresented", "8262": "Ġconc", "8263": "hel", "8264": "Ġtwenty", "8265": "Ġrowed", "8266": "ĠBumpy", "8267": "ots", "8268": "Ġsquir", "8269": "rie", "8270": "arlotte", "8271": "Ġfoxes", "8272": "Ġcooper", "8273": "Ġfinal", "8274": "Ġduckling", "8275": "Ġcafe", "8276": "ĠBibi", "8277": "Pip", "8278": "Ġmarshmallows", "8279": "Ġclicked", "8280": "ĠZipper", "8281": "oor", "8282": "Ġjets", "8283": "Ġdesigning", "8284": "Ġbeaver", "8285": "five", "8286": "ĠMuffin", "8287": "ĠHalloween", "8288": "Ġmugs", "8289": "ĠWhoever", "8290": "Ġdrown", "8291": "ĠAlthough", "8292": "Ġtricycle", "8293": "Ġpicnics", "8294": "Ġoppos", "8295": "Ġconvin", "8296": "ĠRuth", "8297": "ĠExcited", "8298": "iens", "8299": "ĠCle", "8300": "po", "8301": "Ġscoops", "8302": "Ġcongratul", "8303": "ĠPop", "8304": "ĠMaddie", "8305": "Sadly", "8306": "ĠâĢĶ", "8307": "Ġtravels", "8308": "Ġaliens", "8309": "Ġtests", "8310": "Ġquestioned", "8311": "ĠSpeed", "8312": "inted", "8313": "Ġstrips", "8314": "Ġcraft", "8315": "Near", "8316": "atty", "8317": "Mouse", "8318": "covered", "8319": "Ġdefe", "8320": "ĠFlutter", "8321": "ĠBubba", "8322": "iri", "8323": "Br", "8324": "Ġfights", "8325": "roken", "8326": "Ball", "8327": "Ġopposite", "8328": "ĠBiggy", "8329": "Hmm", "8330": "Find", "8331": "Elly", "8332": "Chloe", "8333": "ĠIm", "8334": "Ġrout", "8335": "Ġgrandfather", "8336": "Ġencountered", "8337": "Ġafford", "8338": "ĠNever", "8339": "Ġdecl", "8340": "inch", "8341": "Ġraising", "8342": "iment", "8343": "Ġupside", "8344": "ĠVivi", "8345": "Meanwhile", "8346": "Jess", "8347": "Ġflashed", "8348": "Ġcalmly", "8349": "ĠRita", "8350": "Ġyawning", "8351": "Ġsincere", "8352": "Ġrealizes", "8353": "aturday", "8354": "Trust", "8355": "Choo", "8356": "Ġcrystals", "8357": "Ġbuddy", "8358": "ĠSamantha", "8359": "Ġcupcakes", "8360": "Ġbuckled", "8361": "byes", "8362": "Both", "8363": "Ġwinners", "8364": "Ġdefin", "8365": "verse", "8366": "ris", "8367": "',", "8368": "Ġweapons", "8369": "Ġcaw", "8370": "shadow", "8371": "Josh", "8372": "Ġpackages", "8373": "Ġcheat", "8374": "ĠSaturday", "8375": "Ġsacks", "8376": "Ġmesses", "8377": "Ġgoodbyes", "8378": "Ġcoach", "8379": "Ġattem", "8380": "quet", "8381": "Ġconvers", "8382": "ĠTruck", "8383": "ĠFlo", "8384": "val", "8385": "Ġdrift", "8386": "Ġcaps", "8387": "ĠMina", "8388": "ĠEva", "8389": "emies", "8390": "Ġenemies", "8391": "asha", "8392": "Ġyummiest", "8393": "Ġscrub", "8394": "Ġswallow", "8395": "Ġreturning", "8396": "rian", "8397": "Ġadmiration", "8398": "ĠSofty", "8399": "ĠMegan", "8400": "Since", "8401": "Ġsprout", "8402": "ĠLouise", "8403": "Ġunable", "8404": "ĠPlaying", "8405": "ĠAnother", "8406": "ugging", "8407": "ooks", "8408": "Ġsadder", "8409": "Ġfreezing", "8410": "Ġbrightest", "8411": "Ġbless", "8412": "ĠYawn", "8413": "Ġrespon", "8414": "ĠMan", "8415": "reverse", "8416": "Ġresponse", "8417": "Ġcosy", "8418": "ĠOh", "8419": "Ġdiamonds", "8420": "Ġbride", "8421": "stalk", "8422": "Ġreapp", "8423": "Ġopport", "8424": "Ġhonking", "8425": "Ġgarbage", "8426": "Ġwhispering", "8427": "Ġstretches", "8428": "Ġprevented", "8429": "erk", "8430": "antastic", "8431": "Ġwhoever", "8432": "Ġodd", "8433": "Ġawful", "8434": "ĠGray", "8435": "alth", "8436": "Ġweighs", "8437": "Ġjourneys", "8438": "Ġawoke", "8439": "Brrr", "8440": "Ġtraps", "8441": "Ġspices", "8442": "Ġdragonfly", "8443": "off", "8444": "Ġborn", "8445": "Ġreassured", "8446": "Ġclip", "8447": "ivia", "8448": "Ġstall", "8449": "Ġbeanstalk", "8450": "Ġargum", "8451": "Ġexamining", "8452": "Ġdefinitely", "8453": "Ġbeetles", "8454": "Ġautomobiles", "8455": "ĠMaisy", "8456": "mine", "8457": "ici", "8458": "Hop", "8459": "Ġvisitors", "8460": "Ġstuffing", "8461": "Ġplaydate", "8462": "Ġwashes", "8463": "cie", "8464": "broken", "8465": "Ġwiser", "8466": "Ġcustomer", "8467": "uper", "8468": "emma", "8469": "Rachel", "8470": "Ġtravelling", "8471": "ĠSofia", "8472": "ĠJolly", "8473": "ĠFlop", "8474": "ouquet", "8475": "Ġhairdress", "8476": "Ġbouquet", "8477": "ĠNurse", "8478": "orse", "8479": "bble", "8480": ",'", "8481": "Ġtumbled", "8482": "Ġdecoration", "8483": "Ġcampfire", "8484": "ĠElle", "8485": "Ġhonesty", "8486": "Ġbud", "8487": "vy", "8488": "ebecca", "8489": "Only", "8490": "Ġbomb", "8491": "Ġwelcoming", "8492": "Ġoffering", "8493": "Ġwealth", "8494": "Ġtroubles", "8495": "Ġoccas", "8496": "Ġincreasing", "8497": "ĠOt", "8498": "ĠJax", "8499": "ĠHello", "8500": "Ġloudest", "8501": "Ġinspired", "8502": "Ġtype", "8503": "Ġparted", "8504": "Ġgroan", "8505": "ĠChick", "8506": "ĠNutty", "8507": "irac", "8508": "Ġwhales", "8509": "ĠThunder", "8510": "ĠRicky", "8511": "yl", "8512": "Ġdeclared", "8513": "Ġcorrectly", "8514": "yler", "8515": "ooky", "8516": "fus", "8517": "Ġbeaks", "8518": "ĠQuacky", "8519": "athan", "8520": "Ġcleared", "8521": "Ġcowboys", "8522": "Ġnuzzled", "8523": "ĠDotty", "8524": "Ġprizes", "8525": "Ġexch", "8526": "Finny", "8527": "Ġwarmly", "8528": "ĠMissile", "8529": "Ġrewards", "8530": "Ġobeyed", "8531": "Ġcustomers", "8532": "Should", "8533": "Ġsirens", "8534": "Ġcomforting", "8535": "ĠFel", "8536": "shaped", "8537": "Ġconnect", "8538": "ĠFlappy", "8539": "match", "8540": "Ġtowns", "8541": "ĠMagic", "8542": "ĠBingo", "8543": "elieve", "8544": "Ġrely", "8545": "ĠVicky", "8546": "Honey", "8547": "Ġtrigger", "8548": "Ġowns", "8549": "Ġinsisting", "8550": "Ġfantastic", "8551": "Ġbends", "8552": "ĠFe", "8553": "Ġspoiling", "8554": "Ġhairdresser", "8555": "Ġsurrendered", "8556": "Ġsupporting", "8557": "Ġshares", "8558": "Ġposes", "8559": "Ġpipes", "8560": "Ġcleans", "8561": "rench", "8562": "Sun", "8563": "Outside", "8564": "Julie", "8565": "Ġwrinkled", "8566": "ĠCook", "8567": "Ġchopped", "8568": "Ġrecorder", "8569": "Ġmoons", "8570": "Ġbeaming", "8571": "unes", "8572": "ellow", "8573": "Beth", "8574": "Ġthanking", "8575": "Ġsnowy", "8576": "ĠWolf", "8577": "Ġscurry", "8578": "Ġexperien", "8579": "Ġenjoyable", "8580": "Ġactive", "8581": "Ġcoral", "8582": "ĠPiggy", "8583": "Ġenviron", "8584": "Ġdollar", "8585": "ĠKevin", "8586": "worm", "8587": "elope", "8588": "Ġloc", "8589": "Je", "8590": "Ġstreamers", "8591": "ĠBub", "8592": "udged", "8593": "ĠPatty", "8594": "ĠMother", "8595": "ĠZack", "8596": "inger", "8597": "Suzy", "8598": "Ġexamp", "8599": "Ġshorts", "8600": "Ġshooed", "8601": "Ġenvironment", "8602": "Tree", "8603": "Ġill", "8604": "Ġscent", "8605": "Ġbruises", "8606": "uster", "8607": "Ġgrat", "8608": "ĠLuc", "8609": "Bo", "8610": "Ġhisses", "8611": "Ġsteering", "8612": "Ġself", "8613": "Ġplugged", "8614": "ĠElsa", "8615": "Ġwarrior", "8616": "Ġvisits", "8617": "Ġexercises", "8618": "screen", "8619": "irl", "8620": "aptain", "8621": "Ġdangers", "8622": "Ġcuddles", "8623": "ĠRel", "8624": "ĠMin", "8625": "ĠAr", "8626": "Ġunfortunately", "8627": "Ġsquished", "8628": "Ġsigning", "8629": "ĠLight", "8630": "bee", "8631": "Ray", "8632": "Ġpilots", "8633": "Ġdisappoint", "8634": "munk", "8635": "Ġgratitude", "8636": "Ġapplauding", "8637": "Ġproviding", "8638": "ĠMoppy", "8639": "alf", "8640": "Ġtickles", "8641": "Ġting", "8642": "ĠRub", "8643": "Grow", "8644": "Ġstorms", "8645": "Ġnights", "8646": "Ġjud", "8647": "Ġconvinced", "8648": "Ġbadger", "8649": "ĠElsie", "8650": "Ġyoun", "8651": "Ġresponsib", "8652": "Ġchoosing", "8653": "ĠKelly", "8654": "Joy", "8655": "Ġyoungest", "8656": "Ġnearest", "8657": "Ġbrains", "8658": "Ġactivity", "8659": "Abby", "8660": "Ġexploded", "8661": "Ġcoughed", "8662": "Ġarranged", "8663": "Claire", "8664": "Ġrewarding", "8665": "ĠTre", "8666": "ĠFly", "8667": "pr", "8668": "good", "8669": "erpiece", "8670": "Ġsunscreen", "8671": "Ġpeep", "8672": "Ġbond", "8673": "ĠFloppy", "8674": "asers", "8675": "Mon", "8676": "ĠTweety", "8677": "ĠSweet", "8678": "ĠKaty", "8679": "ĠJoan", "8680": "ĠSal", "8681": "ilities", "8682": "Ġannoying", "8683": "sn", "8684": "Ġsoapy", "8685": "meow", "8686": "Splash", "8687": "Ġrails", "8688": "Ġlaces", "8689": "Ġthreads", "8690": "Ġtapping", "8691": "Ġoffic", "8692": "Ġappreciated", "8693": "ĠPine", "8694": "ĠPhil", "8695": "boards", "8696": "Ġweighing", "8697": "Ġheartbroken", "8698": "Ġemerged", "8699": "Ġcongratulated", "8700": "ĠPick", "8701": "Danger", "8702": "Ġtin", "8703": "ĠSil", "8704": "Ġcrocodiles", "8705": "Ġclerk", "8706": "Ġscram", "8707": "Ġattempt", "8708": "ĠNancy", "8709": "water", "8710": "Ahoy", "8711": "Ġsnug", "8712": "Ġmessed", "8713": "Ġexample", "8714": "Ġdial", "8715": "ĠKay", "8716": "ĠAny", "8717": "Momma", "8718": "Ġhooks", "8719": "ĠJonny", "8720": "Ġtops", "8721": "Ġchipmunk", "8722": "Ġsoot", "8723": "Ġguarding", "8724": "Ġbathed", "8725": "Ġmanager", "8726": "ĠTippy", "8727": "ortunately", "8728": "ĠMicroscope", "8729": "Friends", "8730": "ĠDe", "8731": "etah", "8732": "Snowy", "8733": "Ġmasterpiece", "8734": "ĠBaa", "8735": "Ġerasers", "8736": "Ġtips", "8737": "Ġfinishes", "8738": "Ġfet", "8739": "Ġcommon", "8740": "ĠTomorrow", "8741": "mbers", "8742": "Ġtrotted", "8743": "Ġnibbled", "8744": "Ġmembers", "8745": "Ġdigs", "8746": "People", "8747": "Ġkinder", "8748": "Ġcheetah", "8749": "Ġparticularly", "8750": "Ġchews", "8751": "Ġblond", "8752": "ircle", "8753": "Ġrips", "8754": "Ġbeast", "8755": "Lizzy", "8756": "Ġargument", "8757": "ative", "8758": "Ġfaith", "8759": "ĠHelping", "8760": "Ġearned", "8761": "Anne", "8762": "Ġobserving", "8763": "Ġforgiveness", "8764": "ĠJoke", "8765": "ĠCici", "8766": "chievous", "8767": "Ġinstantly", "8768": "Ġfishes", "8769": "Ġexperienced", "8770": "Ġcurl", "8771": "Ġcheaper", "8772": "ĠJumpy", "8773": "Rosie", "8774": "Ġmischievous", "8775": "Ġgenerosity", "8776": "Ġcages", "8777": "ĠTwist", "8778": "Gr", "8779": "Baa", "8780": "Ġmeowing", "8781": "Ġfoam", "8782": "mered", "8783": "Cindy", "8784": "Ġstores", "8785": "Ġgrandd", "8786": "ĠAg", "8787": "etchup", "8788": "Ġmattered", "8789": "Ġteles", "8790": "Ġpasses", "8791": "Ġlimp", "8792": "Sque", "8793": "Ġsleeps", "8794": "iolet", "8795": "Ġbreaths", "8796": "ordinary", "8797": "ettle", "8798": "ending", "8799": "Ġtrans", "8800": "Ġrin", "8801": "Ġgasps", "8802": "ĠFreddie", "8803": "Got", "8804": "Ġrumbling", "8805": "Ġhatch", "8806": "ĠMomma", "8807": "over", "8808": "abra", "8809": "Ġgrassho", "8810": "Ġaccomplished", "8811": "ĠHopper", "8812": "acing", "8813": "Ġthump", "8814": "Ġtelescope", "8815": "Ġstrum", "8816": "Ġsmartest", "8817": "Ġmats", "8818": "Ġwhined", "8819": "Ġmoat", "8820": "Gina", "8821": "Ġscrambled", "8822": "Ġjugg", "8823": "Ġfarmers", "8824": "ĠIce", "8825": "Ġdrip", "8826": "Robbie", "8827": "Ġsyrup", "8828": "Ġgardens", "8829": "Ġcollapsed", "8830": "Ġangrily", "8831": "ĠMore", "8832": "ouraged", "8833": "idey", "8834": "Ġvegg", "8835": "Ġstyles", "8836": "Ġforests", "8837": "Ġexperiences", "8838": "Ġdiscoveries", "8839": "hole", "8840": "Ġtor", "8841": "Ġmedals", "8842": "Ġtypes", "8843": "Ġotters", "8844": "Ġmeaning", "8845": "Ġfaint", "8846": "Ġconqu", "8847": "ĠDoes", "8848": "pit", "8849": "adabra", "8850": "acock", "8851": "Ġsnapping", "8852": "Ġhardest", "8853": "Ġfif", "8854": "ering", "8855": "Ġmovements", "8856": "Ġexpression", "8857": "Ġsurv", "8858": "Ġchilly", "8859": "Ġbubbly", "8860": "Ġaffect", "8861": "Pinky", "8862": "Ġvests", "8863": "Ġunfair", "8864": "Ġcourt", "8865": "Whenever", "8866": "Ġtoothbrush", "8867": "Ġscores", "8868": "Ġextraordinary", "8869": "Never", "8870": "Ġattitude", "8871": "Ġvibr", "8872": "Ġhorri", "8873": "Ġbluebird", "8874": "ĠMonkey", "8875": "mel", "8876": "lls", "8877": "Mo", "8878": "Ġspears", "8879": "Ġketchup", "8880": "ĠBerry", "8881": "Mother", "8882": "Ġsooner", "8883": "Ġgrasshopper", "8884": "Ġbehaviour", "8885": "Ġpatches", "8886": "Ġhabit", "8887": "yd", "8888": "erts", "8889": "Karen", "8890": "Ġpokes", "8891": "Ġmomma", "8892": "Ġafar", "8893": "ĠAshley", "8894": "lo", "8895": "ieves", "8896": "Jacob", "8897": "Ġthicker", "8898": "Ġscri", "8899": "ĠFriend", "8900": "Jon", "8901": "Ġsqueezes", "8902": "Ġslithered", "8903": "Ġshrunk", "8904": "Ġclassmates", "8905": "ĠTerry", "8906": "ĠFle", "8907": "Ġicky", "8908": "Ġprickly", "8909": "Ġglittering", "8910": "Ġexpert", "8911": "Ġtopp", "8912": "Ġkneeling", "8913": "Ġannounced", "8914": "ĠSuper", "8915": "ĠRiri", "8916": "elling", "8917": "Ġpeacock", "8918": "Ġmarking", "8919": "ctric", "8920": "Ġcosts", "8921": "ĠCally", "8922": "ĠAchoo", "8923": "Ġzigzags", "8924": "Ġwatermel", "8925": "Ġthieves", "8926": "Ġskirts", "8927": "Ġjumper", "8928": "Ġhood", "8929": "Ġacts", "8930": "ĠZog", "8931": "ĠApp", "8932": "Ġwolves", "8933": "ĠSwim", "8934": "ĠCloud", "8935": "Papa", "8936": "Ġthumbs", "8937": "Ġsqueaky", "8938": "Ġconcer", "8939": "Ġcocoon", "8940": "Ġwoodcut", "8941": "Ġboards", "8942": "ĠEliza", "8943": "ĠBecky", "8944": "Ġservant", "8945": "idence", "8946": "affle", "8947": "Ġcheating", "8948": "ĠJason", "8949": "bu", "8950": "Ġtrading", "8951": "Ġraking", "8952": "cat", "8953": "Jessie", "8954": "Ġexplaining", "8955": "ĠEric", "8956": "rick", "8957": "Ġtidied", "8958": "Ġbiscuit", "8959": "Ġlunchtime", "8960": "Ġluckily", "8961": "ĠAc", "8962": "anced", "8963": "Frog", "8964": "ĠPuffy", "8965": "Ġspilling", "8966": "ĠDay", "8967": "Fire", "8968": "Ġtransform", "8969": "Ġdesserts", "8970": "ĠUse", "8971": "ĠMaddy", "8972": "ĠDaniel", "8973": "ĠAnimal", "8974": "âĢ¦", "8975": "ror", "8976": "ĠPig", "8977": "ĠMine", "8978": "ĠStill", "8979": "ĠGill", "8980": "rough", "8981": "amma", "8982": "Ġmessages", "8983": "Ġmirac", "8984": "ĠCaptain", "8985": "idy", "8986": "Ġwindowsill", "8987": "Ġchill", "8988": "Ġbeating", "8989": "ĠTammy", "8990": "ĠLung", "8991": "ĠGilly", "8992": "oot", "8993": "Ġseeking", "8994": "Ġactor", "8995": "ĠRainbow", "8996": "ĠLina", "8997": "ĠWilliam", "8998": "sess", "8999": "its", "9000": "ĠMath", "9001": "pril", "9002": "Any", "9003": "Ġforeshadow", "9004": "war", "9005": "acles", "9006": "Bluey", "9007": "Ġleans", "9008": "ĠStep", "9009": "ĠPinch", "9010": "ĠHi", "9011": "racadabra", "9012": "Freeze", "9013": "Bounce", "9014": "Ġwatermelon", "9015": "Ġhissing", "9016": "Ġflashing", "9017": "Ġdev", "9018": "Ġcloths", "9019": "ĠTiger", "9020": "ĠMonster", "9021": "ĠFrankie", "9022": "Ġwinding", "9023": "Ġpositive", "9024": "Ġfunn", "9025": "Ġdiscouraged", "9026": "ĠWil", "9027": "pop", "9028": "Ġwoodcutter", "9029": "Ġforts", "9030": "Ġdripped", "9031": "Ġcompete", "9032": "Ġteapot", "9033": "Ġpressing", "9034": "Ġdisagreeing", "9035": "icking", "9036": "Ġglimmering", "9037": "Ġveggies", "9038": "Ġtrusts", "9039": "Ġtidying", "9040": "Ġkangaroos", "9041": "ĠPeep", "9042": "Ġtempted", "9043": "Ġlanding", "9044": "ĠFlora", "9045": "Ġdock", "9046": "Ġshallow", "9047": "Ġoverw", "9048": "Ġformed", "9049": "lers", "9050": "Ġrack", "9051": "Ġfade", "9052": "ĠTooth", "9053": "flowers", "9054": "Ġworst", "9055": "Ġelectric", "9056": "Ġcops", "9057": "eling", "9058": "Nothing", "9059": "Ġapology", "9060": "iving", "9061": "creams", "9062": "ai", "9063": "Ġsleds", "9064": "ĠSilver", "9065": "ĠLife", "9066": "upid", "9067": "Ġcomets", "9068": "Ġass", "9069": "Owl", "9070": "Ġsav", "9071": "ĠShark", "9072": "ĠMag", "9073": "ĠJelly", "9074": "Bug", "9075": "Ġsituations", "9076": "Ġpapa", "9077": "Ġofficers", "9078": "Ġconversation", "9079": "Ġ4", "9080": "Rain", "9081": "ĠRoger", "9082": "ĠCharlotte", "9083": "storm", "9084": "aye", "9085": "Ġsuns", "9086": "Ġding", "9087": "âĢĿ,", "9088": "Ġzips", "9089": "Ġstructures", "9090": "Ġscurrying", "9091": "Ġpizzas", "9092": "Ġoverwhel", "9093": "Ġmiller", "9094": "ĠButter", "9095": "Ġgranddaughter", "9096": "Ġfoggy", "9097": "ĠOlivia", "9098": "ĠHurry", "9099": "ĠAmber", "9100": "Zoe", "9101": "ĠJaney", "9102": "Ġwebs", "9103": "Ġdeserved", "9104": "Rabbit", "9105": "Ġopportunity", "9106": "Ġcubs", "9107": "ĠYummy", "9108": "ĠSpidey", "9109": "ĠSasha", "9110": "ĠMixie", "9111": "ĠBuster", "9112": "Ġsnorted", "9113": "Ġrhino", "9114": "Ġdifferences", "9115": "ĠGold", "9116": "Ġquacking", "9117": "ĠTell", "9118": "ifully", "9119": "ended", "9120": "Fifi", "9121": "Ġheaven", "9122": "ĠBirds", "9123": "Ġunlo", "9124": "Ġlevers", "9125": "Ġinchworm", "9126": "Ġinter", "9127": "Ġapproach", "9128": "ĠTyler", "9129": "ssess", "9130": "Ġseagulls", "9131": "Ġpossess", "9132": "Ġcooperate", "9133": "ĠRufus", "9134": "ĠFelix", "9135": "ĠBoom", "9136": "welcome", "9137": "sers", "9138": "ragon", "9139": "of", "9140": "?âĢĿ.", "9141": "andra", "9142": "Ġpose", "9143": "Ġdisappointment", "9144": "ĠSmoke", "9145": "ocular", "9146": "Ġspeaks", "9147": "Ġsneaks", "9148": "snap", "9149": "Ġbinocular", "9150": "Ġartwork", "9151": "Ġsurfed", "9152": "Ġscowl", "9153": "Ġanswering", "9154": "ĠSnake", "9155": "Ġshortcut", "9156": "ĠGrand", "9157": "Ġsipped", "9158": "Ġrobin", "9159": "Ġdep", "9160": "Climb", "9161": "Ġarrest", "9162": "ĠInky", "9163": "ssy", "9164": "Ġunwrapped", "9165": "Ġribbit", "9166": "Ġreun", "9167": "Ġamused", "9168": "ĠAmanda", "9169": "ugar", "9170": "Ġrepeats", "9171": "Ġpepperoni", "9172": "Ġapplause", "9173": "Ġkeyhole", "9174": "Ġcheckout", "9175": "ĠMae", "9176": "ĠCars", "9177": "Lia", "9178": "Deal", "9179": "Ġvisitor", "9180": "Ġstriking", "9181": "Ġpuppets", "9182": "Ġpaddling", "9183": "Eat", "9184": "Ġunz", "9185": "Ġcroaked", "9186": "Ġattacked", "9187": "ĠCircle", "9188": "ĠBrian", "9189": "orsie", "9190": "Ġspooky", "9191": "ĠOtto", "9192": "ĠGus", "9193": "Each", "9194": "Ġgroaned", "9195": "Ġbeautifully", "9196": "ĠJean", "9197": "gar", "9198": "cidents", "9199": "Ġswimsuits", "9200": "Ġconsider", "9201": "Ġchecking", "9202": "uses", "9203": "ĠYellow", "9204": "jest", "9205": "Ġwaters", "9206": "Ġgroom", "9207": "ĠSqueak", "9208": "ĠSlinky", "9209": "yle", "9210": "Ġinvent", "9211": "Luke", "9212": "Ġnets", "9213": "Ġexams", "9214": "otion", "9215": "ets", "9216": "Ġdrying", "9217": "ĠRebecca", "9218": "udy", "9219": "artin", "9220": "agine", "9221": "Ġshrugs", "9222": "Ġlump", "9223": "ĠAuntie", "9224": "sie", "9225": "lest", "9226": "Ġsobbing", "9227": "Ġshyly", "9228": "Ġshoots", "9229": "Ġhonks", "9230": "Ġheels", "9231": "Ġcheerfully", "9232": "ĠSince", "9233": "ili", "9234": "hny", "9235": "esses", "9236": "Ġshh", "9237": "Ġchin", "9238": "anish", "9239": "Ġwhimpered", "9240": "Ġhealthier", "9241": "Ġhangs", "9242": "icious", "9243": "Milo", "9244": "ĠMus", "9245": "Ġcaterpillars", "9246": "izzes", "9247": "Slowly", "9248": "Ġsquinted", "9249": "Ġmagnifying", "9250": "Ġfries", "9251": "ĠRatty", "9252": "Ġfascinating", "9253": "Ġblamed", "9254": "ĠFind", "9255": "ulpture", "9256": "ching", "9257": "Ġsculpture", "9258": "Ġfrustration", "9259": "ĠTip", "9260": "ouched", "9261": "Ġshimmering", "9262": "ĠPenelope", "9263": "Ġposs", "9264": "ĠPeace", "9265": "edic", "9266": "Sharing", "9267": "Ġsuck", "9268": "Ġpleas", "9269": "Ġnumbered", "9270": "Ġnibble", "9271": "ĠWaffle", "9272": "othy", "9273": "ibbles", "9274": "ellie", "9275": "amil", "9276": "Ġflowing", "9277": "Ġbaa", "9278": "hings", "9279": "Pepper", "9280": "Ġraked", "9281": "Ġgrumbled", "9282": "ĠOff", "9283": "that", "9284": "Bubbles", "9285": "Ġbuilder", "9286": "racted", "9287": "eat", "9288": "Ġswaying", "9289": "Ġpetting", "9290": "Ġguards", "9291": "Ġfacing", "9292": "ĠWoolly", "9293": "Ġsprinkle", "9294": "Ġmysteries", "9295": "Ġdetails", "9296": "ĠHar", "9297": "sey", "9298": "Ġsnort", "9299": "Ġflock", "9300": "Ġenemy", "9301": "ĠBoat", "9302": "Ġtextures", "9303": "Ġtablet", "9304": "Ġgoodies", "9305": "ĠCurious", "9306": "ĠBarry", "9307": "Yesterday", "9308": "Ġwig", "9309": "Ġpopping", "9310": "Ġwildflowers", "9311": "Ġstacks", "9312": "Ġmarve", "9313": "Ġfans", "9314": "Ġcrops", "9315": "Ġcountries", "9316": "ĠJenn", "9317": "ĠGracie", "9318": "how", "9319": "Ġknobs", "9320": "ĠTessa", "9321": "ĠSeeing", "9322": "Ġlocal", "9323": "Ġbushy", "9324": "Ġstew", "9325": "Ġpeeped", "9326": "Ġhunting", "9327": "Ġdrowned", "9328": "Ġbowing", "9329": "Ġbinoculars", "9330": "Ġangrier", "9331": "ĠBubu", "9332": "Ġmaps", "9333": "ĠMatch", "9334": "Ġquizzes", "9335": "Ġniece", "9336": "Ġmoonlight", "9337": "ĠGlow", "9338": "Ġoutfits", "9339": "ĠJohnson", "9340": "ĠDeal", "9341": "OO", "9342": "Ġwhoosh", "9343": "Ġweaker", "9344": "Ġwrench", "9345": "Ġmindful", "9346": "Ġcrowded", "9347": "cycles", "9348": "Squ", "9349": "Ġendings", "9350": "ĠBeef", "9351": "oll", "9352": "Im", "9353": "Ġproperty", "9354": "Ġhesitation", "9355": "Ġflashes", "9356": "amiliar", "9357": "Ġunless", "9358": "Ġimaginations", "9359": "Ġfond", "9360": "Ġcarts", "9361": "Ġboil", "9362": "Ġability", "9363": "ĠOxy", "9364": "ĠAndrew", "9365": "getic", "9366": "Ġglared", "9367": "ĠRight", "9368": "ĠAccidents", "9369": "stand", "9370": "Ġunfamiliar", "9371": "Ġspaces", "9372": "Ġmicrow", "9373": "Ġknit", "9374": "Ġhaven", "9375": "Ġfolds", "9376": "ths", "9377": "saw", "9378": "Tuna", "9379": "Ġresponsibility", "9380": "Ġdirtier", "9381": "ĠPet", "9382": "bank", "9383": "Ġpouch", "9384": "Ġmicrowave", "9385": "Ġdesks", "9386": "ibly", "9387": "Bless", "9388": "Ġcracker", "9389": "rnie", "9390": "Ġswapped", "9391": "Ġmember", "9392": "Ġdate", "9393": "Ġaston", "9394": "ĠOxygen", "9395": "ĠRing", "9396": "ĠRavi", "9397": "lt", "9398": "free", "9399": "Want", "9400": "Cra", "9401": "Ġwhine", "9402": "Ġsoftened", "9403": "Ġrebu", "9404": "Ġdoorstep", "9405": "Ġdisappearing", "9406": "ĠPeggy", "9407": "ĠHelen", "9408": "ĠBun", "9409": "Ġquacks", "9410": "Ġnatur", "9411": "ĠChip", "9412": "scar", "9413": "Ġwriter", "9414": "Ġlistener", "9415": "ĠToo", "9416": "ĠFix", "9417": "Ġpriv", "9418": "Ġblushed", "9419": "ĠSpicy", "9420": "venir", "9421": "Ġpalms", "9422": "Ġnoticing", "9423": "upt", "9424": "repe", "9425": "poison", "9426": "Ġsouvenir", "9427": "ĠPast", "9428": "repeat", "9429": "entr", "9430": "Ġlaws", "9431": "Ġdisaster", "9432": "ĠTra", "9433": "ĠRes", "9434": "ĠGabby", "9435": "str", "9436": "reg", "9437": "endant", "9438": "Robby", "9439": "Ġphones", "9440": "ala", "9441": "Ava", "9442": "Ġconfidence", "9443": "ĠLi", "9444": "ĠCoal", "9445": "ĠCut", "9446": "ĠBert", "9447": "Ġtimid", "9448": "Ġstirs", "9449": "Ġoverwhelmed", "9450": "ingly", "9451": "Being", "9452": "Ġmayor", "9453": "Ġflick", "9454": "guess", "9455": "asmine", "9456": "Che", "9457": "Ġtugging", "9458": "ĠPretty", "9459": "ĠMole", "9460": "lor", "9461": "Ġuntangle", "9462": "Ġsatisfa", "9463": "Ġowls", "9464": "Ġmailing", "9465": "Ġinjured", "9466": "Whose", "9467": "Ġsatisfaction", "9468": "Ġconcentr", "9469": "ĠWhite", "9470": "ĠImmediately", "9471": "ĠBooks", "9472": "Fly", "9473": "ĠMarch", "9474": "ĠAnimals", "9475": "mers", "9476": "Sc", "9477": "Mittens", "9478": "Ġlim", "9479": "ĠEat", "9480": "this", "9481": "Mabel", "9482": "Ġprank", "9483": "ĠWonder", "9484": "ĠNora", "9485": "ĠBonnie", "9486": "Wiggly", "9487": "Ġhooves", "9488": "ĠTriangle", "9489": "ĠRun", "9490": "ĠPot", "9491": "ĠMelissa", "9492": "ĠKn", "9493": "well", "9494": "Jeff", "9495": "Ġfixer", "9496": "ĠStartled", "9497": "ĠSir", "9498": "ĠClean", "9499": "ĠClose", "9500": "icate", "9501": "Ġsnar", "9502": "Ġclut", "9503": "lish", "9504": "bling", "9505": "Excited", "9506": "Ġskies", "9507": "Ġinstrument", "9508": "ĠTrucky", "9509": "Ġcapt", "9510": "ĠMatilda", "9511": "ĠHorsie", "9512": "ĠFaye", "9513": "adually", "9514": "Ġdisagre", "9515": "iky", "9516": "Ġwriggled", "9517": "Ġstains", "9518": "Ġrinse", "9519": "Ġpecks", "9520": "Ġcreak", "9521": "ĠSleepy", "9522": "Susan", "9523": "Ġshave", "9524": "Ġbumping", "9525": "ĠSing", "9526": "ĠIcy", "9527": "ĠHeli", "9528": "ĠCrabby", "9529": "ulf", "9530": "Ġswirl", "9531": "Ġruff", "9532": "Ġbending", "9533": "cessary", "9534": "Playing", "9535": "Close", "9536": "Ġsandpit", "9537": "Ġexploration", "9538": "Ġchatted", "9539": "ĠScissors", "9540": "Make", "9541": "Ġrods", "9542": "Ġlever", "9543": "Ġfacts", "9544": "Sm", "9545": "Ġattaching", "9546": "ĠCandy", "9547": "Ġfooled", "9548": "Ġburger", "9549": "ĠBro", "9550": "Ġglows", "9551": "Ġconcerned", "9552": "Ġclearly", "9553": "Maya", "9554": "Ġsalon", "9555": "Ġreversing", "9556": "Ġlava", "9557": "Ġcompan", "9558": "Ġcertainly", "9559": "els", "9560": "Wally", "9561": "Ġsmelt", "9562": "Ġmotorcycles", "9563": "Ġfetched", "9564": "Ġcirc", "9565": "Ġtroll", "9566": "Ġtunes", "9567": "Ġsometime", "9568": "Ġprod", "9569": "Ġoldest", "9570": "Ġfireflies", "9571": "Ring", "9572": "Ġkissing", "9573": "Ġchallenges", "9574": "Ġblonde", "9575": "Kayla", "9576": "Ġwarmed", "9577": "ĠBobbie", "9578": "Ġunlocking", "9579": "Ġnatural", "9580": "Ġdifferently", "9581": "Ġbound", "9582": "ĠLots", "9583": "urple", "9584": "sa", "9585": "erg", "9586": "Tara", "9587": "Dino", "9588": "Abracadabra", "9589": "Ġrubb", "9590": "Ġriverbank", "9591": "Ġdetect", "9592": "Ġcutter", "9593": "Ġcupcake", "9594": "Ġconquered", "9595": "Ġhates", "9596": "Ġalley", "9597": "ĠFlap", "9598": "sorry", "9599": "Ġswirls", "9600": "Ġsends", "9601": "Ġrealise", "9602": "ĠOpen", "9603": "ĠFlopsy", "9604": "Julia", "9605": "Isn", "9606": "Ġwiggling", "9607": "Ġsensation", "9608": "Ġmunched", "9609": "Ġbanging", "9610": "ĠCammy", "9611": "Ġtoppings", "9612": "Ġhippos", "9613": "Ġfist", "9614": "Ġclips", "9615": "ĠReliable", "9616": "Doctor", "9617": "Ġswayed", "9618": "Ġstings", "9619": "Ġrobe", "9620": "Ġmiracle", "9621": "Ġhalves", "9622": "Ġbrakes", "9623": "ĠGreeny", "9624": "Hope", "9625": "Fish", "9626": "Ġsurvive", "9627": "Ġostriches", "9628": "ĠPink", "9629": "ĠClimb", "9630": "ula", "9631": "keepers", "9632": "bert", "9633": "Michael", "9634": "Ġtorto", "9635": "Ġotherwise", "9636": "Ġembra", "9637": "Ġcrushed", "9638": "Ġbubbling", "9639": "Ġtents", "9640": "ĠLooking", "9641": "ani", "9642": "Ġrepairing", "9643": "ĠOf", "9644": "Ġvinegar", "9645": "Ġstretchy", "9646": "Ġrubbish", "9647": "Ġlizards", "9648": "ĠWorking", "9649": "ĠFlicker", "9650": "Ġpassenger", "9651": "ĠEd", "9652": "aste", "9653": "Many", "9654": "Ġvibrant", "9655": "Ġtortoise", "9656": "Ġpounced", "9657": "ĠWhich", "9658": "Suzie", "9659": "Ġscene", "9660": "ĠRh", "9661": "ĠGrump", "9662": "gr", "9663": "Ġmooed", "9664": "Ġglided", "9665": "Ġdesperately", "9666": "Ġbas", "9667": "Ġsnip", "9668": "Ġpoop", "9669": "Ġmajest", "9670": "Ġintently", "9671": "Ġcopied", "9672": "Ġcalmer", "9673": "ĠSundays", "9674": "ĠLightning", "9675": "rap", "9676": "net", "9677": "Ġwoken", "9678": "Ġtwel", "9679": "Ġrags", "9680": "Ġjudges", "9681": "Ġjoyfully", "9682": "Ġjing", "9683": "Ġcoolest", "9684": "ĠPer", "9685": "smelling", "9686": "Ġlectures", "9687": "Ġglob", "9688": "ĠJody", "9689": "lyn", "9690": "isible", "9691": "Ġhips", "9692": "Ġcousins", "9693": "Ġastonished", "9694": "Ġcapes", "9695": "ĠOutside", "9696": "ĠLu", "9697": "uno", "9698": "Eww", "9699": "Ġsuccessfully", "9700": "Ġspeaker", "9701": "Ġreunited", "9702": "Ġinvisible", "9703": "Ġguesses", "9704": "Ġgooey", "9705": "Ġarrives", "9706": "why", "9707": "Ġtwelve", "9708": "Ġbats", "9709": "urity", "9710": "Mikey", "9711": "Ġgoodness", "9712": "Ġcomputers", "9713": "Ġchatting", "9714": "ĠCarla", "9715": "nded", "9716": "mie", "9717": "Ġstacking", "9718": "Ġsnowflake", "9719": "istory", "9720": "Ġreappeared", "9721": "Ġracer", "9722": "Ġpounds", "9723": "Ġparks", "9724": "Ġdesperate", "9725": "Ġcompanion", "9726": "Ġcommun", "9727": "bed", "9728": "Zigzag", "9729": "Ol", "9730": "Ġluckiest", "9731": "Ġlevel", "9732": "Ġdou", "9733": "Ġank", "9734": "Ġtale", "9735": "Ġstomachs", "9736": "Ġsells", "9737": "Ġgall", "9738": "Ġdumb", "9739": "Ġcrickets", "9740": "ĠSugar", "9741": "iggles", "9742": "Nick", "9743": "Ġwinds", "9744": "Ġsus", "9745": "Ġgates", "9746": "Ġdisobeyed", "9747": "Ġdisagreement", "9748": "ĠSteven", "9749": "hile", "9750": "More", "9751": "Ġpearls", "9752": "Ġhoses", "9753": "Ġcrisp", "9754": "Ġawhile", "9755": "ĠWhee", "9756": "ites", "9757": "Lou", "9758": "Ġsoda", "9759": "Ġpopsic", "9760": "Ġloyalty", "9761": "ĠOrange", "9762": "Linda", "9763": "Ġtongues", "9764": "ĠRosa", "9765": "usion", "9766": "rent", "9767": "Ġrider", "9768": "ĠCD", "9769": "Ooh", "9770": "ĠBlack", "9771": "pan", "9772": "Ġsurely", "9773": "Ġabo", "9774": "ĠLaw", "9775": "ĠAnnabelle", "9776": "des", "9777": "colored", "9778": "Ġoccasion", "9779": "Ġbund", "9780": "rum", "9781": "izza", "9782": "dog", "9783": "!âĢĻ", "9784": "Ġstun", "9785": "Ġguitars", "9786": "Ġchicks", "9787": "chief", "9788": "Ġseparating", "9789": "Ġseashe", "9790": "Ġrebuild", "9791": "Ġintelligence", "9792": "Ġalligators", "9793": "Ġaboard", "9794": "ĠRaven", "9795": "ĠIron", "9796": "ĠApril", "9797": "Found", "9798": "Ġcroak", "9799": "Ġcreep", "9800": "ĠWinky", "9801": "ĠViolet", "9802": "aids", "9803": "Something", "9804": "Catch", "9805": "Ġlearner", "9806": "Ġcaution", "9807": "Ġcuc", "9808": "ĠOld", "9809": "ĠCare", "9810": "solut", "9811": "Ġwhines", "9812": "Ġspiky", "9813": "Ġrevealing", "9814": "Ġrins", "9815": "ĠUni", "9816": "working", "9817": "Ġtickling", "9818": "Ġescap", "9819": "ĠSettle", "9820": "Ġunderwater", "9821": "Ġglobe", "9822": "Ġcrouched", "9823": "ĠRoar", "9824": "ĠCoby", "9825": "ĠBa", "9826": "udge", "9827": "everse", "9828": "!'.", "9829": "Ġprog", "9830": "Ġblooms", "9831": "Ġappearance", "9832": "Ġ''", "9833": "urricane", "9834": "stop", "9835": "seph", "9836": "ifer", "9837": "fived", "9838": "Jan", "9839": "Ġstrokes", "9840": "Ġleaking", "9841": "Ġhatched", "9842": "Ġguardian", "9843": "ĠSocky", "9844": "ealing", "9845": "arning", "9846": "Ġzookeepers", "9847": "Ġtant", "9848": "Ġroutine", "9849": "Ġpersistence", "9850": "Ġdoves", "9851": "Snap", "9852": "Sleep", "9853": "Chicky", "9854": "Ġtaps", "9855": "Ġsquashes", "9856": "Ġquilt", "9857": "Ġpainful", "9858": "Ġlighting", "9859": "Ġblame", "9860": "Ġadmit", "9861": "Toys", "9862": "Ahh", "9863": "Ġtempting", "9864": "Ġshattered", "9865": "Ġripp", "9866": "Ġmold", "9867": "Ġdeeply", "9868": "ĠPuff", "9869": "ggles", "9870": "Three", "9871": "Ralph", "9872": "Matt", "9873": "Ġthrone", "9874": "Ġsquirted", "9875": "Ġsecurity", "9876": "Ġpeeks", "9877": "Ġelectricity", "9878": "Ġcentre", "9879": "Ġburgers", "9880": "ĠSpin", "9881": "emon", "9882": "con", "9883": "Ġrealizing", "9884": "Ġcooks", "9885": "Ġallowing", "9886": "ĠLiam", "9887": "ushes", "9888": "orth", "9889": "oss", "9890": "cker", "9891": "Jessica", "9892": "Ġlar", "9893": "Ġexchange", "9894": "Ġchopping", "9895": "Share", "9896": "Sophia", "9897": "Ġsweetly", "9898": "ĠRace", "9899": "ĠQuickly", "9900": "ĠAlf", "9901": "vering", "9902": "Ġsweeter", "9903": "Ġrinsed", "9904": "Ġglittered", "9905": "isapp", "9906": "Zero", "9907": "Sw", "9908": "Ġmelts", "9909": "Ġmelody", "9910": "Ġgoggles", "9911": "Ġfurious", "9912": "Ġenergetic", "9913": "Ġdefeated", "9914": "Ġbuilders", "9915": "ĠInch", "9916": "asy", "9917": "Ġwaded", "9918": "Ġtantrum", "9919": "Ġsniffled", "9920": "Ġchooses", "9921": "ĠOtherwise", "9922": "ĠCats", "9923": "ĠComet", "9924": "Ġcontainer", "9925": "Ġcompeting", "9926": "ĠGiant", "9927": "eremy", "9928": "bang", "9929": "ĠSharp", "9930": "ĠMila", "9931": "arted", "9932": "Ġundone", "9933": "Ġseriously", "9934": "Ġprotection", "9935": "Ġlarger", "9936": "Ġlull", "9937": "Ġhudd", "9938": "Ġattempts", "9939": "ĠRara", "9940": "ĠPark", "9941": "ĠDuke", "9942": "Shoo", "9943": "Lizzie", "9944": "Ġtossing", "9945": "Ġhelicopters", "9946": "Ġcooed", "9947": "Ġcluck", "9948": "Ġbuckles", "9949": "ĠWhale", "9950": "ĠPinchy", "9951": "ĠCher", "9952": "Sweet", "9953": "ĠTears", "9954": "ĠSmo", "9955": "ĠOver", "9956": "solutely", "9957": "Still", "9958": "Squeaky", "9959": "Ġhummed", "9960": "Ġdedic", "9961": "Ġcourageous", "9962": "ĠMa", "9963": "ĠHor", "9964": "ĠDin", "9965": "Maddy", "9966": "Everything", "9967": "Curious", "9968": "Ġracers", "9969": "Ġpatients", "9970": "Ġmuster", "9971": "Ġgod", "9972": "Ġdeserves", "9973": "Ġaloud", "9974": "ĠThings", "9975": "aps", "9976": "Use", "9977": "ĠSquee", "9978": "ĠDragon", "9979": "Ġtours", "9980": "Ġmeets", "9981": "Ġmarvel", "9982": "ĠRusty", "9983": "ĠLiza", "9984": "ĠJet", "9985": "Froggy", "9986": "Ġwrapper", "9987": "ĠReddy", "9988": "ĠHops", "9989": "ĠCrusty", "9990": "Ġwhiskers", "9991": "Ġnicest", "9992": "Ġimproving", "9993": "Ġbooth", "9994": "ĠLand", "9995": "Surrender", "9996": "Rocky", "9997": "Ġmeadows", "9998": "Ġimaginary", "9999": "Ġbold"}